the 9201920
. 8230594
, 6917990
of 5480832
and 4408448
to 4280105
a 3025347
in 2847450
is 1772683
for 1497350
The 1363154
that 1349259
I 1178352
on 1146343
you 1020887
with 1002304
be 973792
's 856776
it 832139
are 810664
as 797365
was 771321
by 743759
" 688353
have 681798
not 621720
at 608620
or 605440
) 574705
( 548125
this 545652
from 544839
an 534694
: 521844
will 501421
? 498052
has 486924
he 460090
his 429339
can 428781
all 386489
; 383396
their 375122
your 366002
its 354183
we 346731
which 339781
had 330335
but 323287
- 320277
It 319635
they 314123
one 313138
't 311534
my 304845
were 304124
more 301216
In 300075
been 294900
He 285777
A 277918
out 277869
me 276953
up 272304
her 257765
said 257451
would 255964
people 250353
also 249712
time 249409
about 248068
other 241391
do 239286
should 229251
We 227372
so 225692
our 223009
into 218495
' 218250
This 213191
who 212202
there 205357
like 203299
no 200075
China 200034
new 198583
when 197700
/ 197560
them 196978
him 196101
than 195089
shall 194077
if 186951
some 185680
You 185015
! 177800
she 177089
what 176403
may 170801
work 168216
two 167459
only 164488
But 164271
development 162750
any 162424
could 157213
such 156587
And 154757
make 152528
system 148784
United 147636
very 147062
over 145323
made 144312
know 138688
just 138297
If 137298
years 135437
these 135401
us 135182
first 135150
good 132776
must 131985
get 129313
international 129018
most 128856
under 128361
world 126949
between 126714
They 126336
after 126042
way 125594
through 125360
many 124958
now 124938
take 123384
countries 123013
use 122101
year 121893
man 121623
see 120871
well 119654
go 117944
life 117490
To 117130
how 116459
day 114238
She 111826
those 109733
Chinese 108993
before 108558
need 108086
Nations 107454
much 106937
right 105884
-@@ 105288
used 104565
There 101466
important 101301
-- 100797
down 100577
don 99070
think 98228
information 96964
because 96379
then 96343
What 95856
country 94802
s 94637
back 94071
1 94062
un@@ 93463
As 93035
economic 92860
Council 92592
did 91692
want 89481
Article 89098
being 88809
States 88285
When 87568
where 87294
even 86914
2 86804
last 86100
come 85791
still 85232
long 84576
'm 83739
government 82948
say 82833
$ 82221
water 82115
i 81526
own 81370
too 81176
same 80889
three 80658
off 80612
Committee 80557
For 80545
great 80360
each 79565
S@@ 79422
part 79138
company 78918
're 78708
re@@ 78508
process 78337
number 78165
human 78066
high 77930
help 77457
against 77266
little 76925
public 76924
here 76790
That 76789
without 76605
business 75503
support 74595
always 73826
both 73770
control 73760
report 73728
per 73120
set 72689
am 72604
law 71982
order 71929
3 71874
women 71677
able 71459
market 71455
Mr. 71437
'll 71160
never 70655
going 70152
every 69836
children 69719
place 69682
different 69361
love 69151
during 68570
give 68530
At 68424
put 68363
within 67858
in@@ 67250
while 66705
activities 66557
rights 66555
national 66110
Government 65803
paper 65691
social 65660
end 65269
level 64542
old 64218
including 63666
better 63311
management 63059
So 62818
says 62817
study 62467
found 62129
financial 62124
does 61902
next 61524
C@@ 61358
State 61182
P@@ 61009
D@@ 60653
got 60515
home 60460
money 60423
person 60234
No 59978
around 59578
method 59460
away 59253
My 58832
days 58680
another 58679
power 58593
cooperation 58575
things 58567
security 58259
find 58195
o 58054
again 57919
look 57849
might 57716
4 57645
provide 57320
Hong 57212
change 56981
resolution 56715
How 56709
become 56554
B@@ 56534
men 56258
.@@ 56138
Kong 55835
few 55716
small 55486
areas 55433
less 55209
best 55117
state 54705
[ 54655
resources 54631
% 54435
data 54382
5 54352
technology 53920
t 53911
really 53798
H@@ 53618
M@@ 53391
came 53285
research 53269
often 53263
area 53081
let 52964
problem 52839
've 52661
measures 52588
General 52376
something 52220
His 52168
T@@ 52114
G@@ 51950
All 51725
A@@ 51553
since 51540
local 51320
10 51318
meeting 51310
F@@ 51059
service 51025
education 50987
problems 50814
means 50713
On 50673
food 50590
further 50566
quality 50527
based 50473
family 50300
] 50284
services 50101
health 50099
case 49991
One 49834
foreign 49647
efforts 49640
6 49406
among 49380
today 49177
political 49140
New 48907
peace 48886
large 48789
special 48728
e@@ 48525
application 48508
school 48346
People 48196
working 47997
hand 47913
ate 47770
organizations 47592
These 47536
L@@ 47525
s@@ 47274
full 47249
house 47204
trade 47142
went 47071
upon 47053
situation 46972
K@@ 46886
period 46882
'@@ 46678
thought 46496
taken 46339
er 46270
future 46265
keep 46140
given 46107
present 46091
land 46071
With 45855
production 45834
field 45808
e 45559
ed 45484
form 45392
point 45262
name 45183
t@@ 45159
kind 45142
members 45108
economy 45029
R@@ 45007
took 44951
effect 44900
following 44880
together 44814
growth 44531
community 44497
Do 44375
developing 44206
using 44197
according 44153
tell 44141
ing 44012
already 44010
possible 43968
night 43924
thing 43919
million 43789
role 43779
feel 43747
called 43592
face 43519
cent 43476
group 43473
N@@ 43391
E@@ 43376
major 43277
o@@ 43273
big 43205
left 43192
However 43163
relevant 43126
d@@ 43071
body 42976
age 42954
products 42824
past 42813
results 42724
design 42576
light 42570
y@@ 42534
English 42522
policy 42424
students 42320
needs 42286
Assembly 42258
es 42234
After 42206
far 42115
city 41842
air 41786
job 41785
value 41746
necessary 41720
second 41646
making 41482
young 41357
view 41300
action 41300
heart 41278
above 41161
provided 41041
energy 40816
whole 40802
room 40735
God 40728
held 40714
main 40692
continue 40692
week 40617
current 40516
believe 40422
rate 40257
implementation 40118
International 40065
show 40008
line 39981
head 39919
W@@ 39859
environment 39811
region 39793
Then 39732
course 39693
question 39535
result 39492
general 39491
price 39467
issues 39445
training 39284
Some 39265
side 39250
various 39208
Secretary-General 39113
class 39043
open 38980
k@@ 38946
1994 38904
cannot 38810
five 38762
told 38747
enough 38739
dis@@ 38664
party 38662
ever 38645
related 38622
American 38621
hard 38512
effective 38490
times 38458
others 38448
play 38435
lot 38432
increase 38416
programme 38387
conditions 38379
once 38343
hope 38245
industry 38205
global 38134
four 37961
plan 37863
ers 37855
7 37790
whether 37684
live 37655
call 37612
assistance 37605
pay 37561
An 37503
why 37456
done 37405
free 37311
common 37240
Commission 37201
matter 37090
8 36907
B 36881
b 36830
several 36825
project 36752
early 36702
US 36661
20 36617
until 36611
al 36607
experience 36542
Now 36448
model 36433
least 36332
meet 36313
regional 36211
words 36201
staff 36161
ation 36144
military 36063
asked 35953
real 35928
'd 35912
basis 35832
companies 35826
p@@ 35818
mind 35798
President 35732
y 35597
legal 35589
decision 35452
an@@ 35360
analysis 35347
issue 35344
Mr 35193
al@@ 35147
key 35033
child 35012
cost 34988
1993 34873
building 34838
administrative 34758
30 34733
fact 34703
parties 34614
Republic 34283
accordance 34205
ensure 34158
m 34125
15 34096
Security 34051
months 34025
b@@ 33971
en@@ 33933
mother 33903
nothing 33862
office 33848
protection 33816
having 33787
strong 33715
ability 33708
investment 33704
improve 33693
n@@ 33690
9 33687
established 33643
son 33591
try 33492
father 33457
care 33406
particular 33397
woman 33385
didn 33307
developed 33278
Development 33235
car 33147
ated 33049
book 32954
g@@ 32903
oil 32902
saw 32877
account 32819
yet 32799
please 32654
O@@ 32624
interest 32619
Beijing 32586
m@@ 32580
makes 32575
recent 32535
test 32480
attention 32474
sure 32341
doing 32325
respect 32186
higher 32179
operation 32114
performance 32110
total 32082
position 32043
low 32032
seen 32015
eyes 31983
force 31976
session 31964
i@@ 31924
friends 31806
led 31795
available 31686
month 31616
population 31605
especially 31580
space 31534
society 31495
bring 31422
Law 31338
required 31322
team 31250
cases 31229
example 31069
progress 31063
structure 31051
levels 31036
construction 30966
living 30922
World 30839
hours 30692
certain 30669
soon 30640
programmes 30639
on@@ 30613
d 30613
l@@ 30553
leave 30511
3@@ 30496
ating 30471
12 30465
ago 30462
include 30434
Well 30429
red 30410
May 30406
de@@ 30215
article 30193
technical 30091
ting 30074
treatment 30061
start 29980
half 29900
I@@ 29899
product 29844
taking 29831
provisions 29813
cause 29812
type 29811
basic 29807
By 29766
however 29752
won 29666
draft 29653
run 29615
concerned 29606
forward 29600
property 29583
amount 29567
... 29525
’ 29505
f@@ 29501
percent 29496
along 29384
America 29362
h@@ 29242
clear 29212
difficult 29126
Our 29111
subject 29078
systems 29048
language 28996
Please 28929
changes 28851
prices 28803
Don 28790
Your 28788
specific 28767
morning 28756
natural 28755
close 28752
capital 28737
himself 28722
understand 28654
Special 28505
V@@ 28489
Let 28475
S 28379
began 28334
a@@ 28325
word 28305
Department 28285
looking 28276
ask 28168
war 28163
institutions 28156
top 28125
bad 28124
later 28099
bank 28048
5@@ 28018
ch@@ 27999
history 27997
11 27994
rather 27982
Is 27945
Why 27940
known 27883
u@@ 27850
risk 27843
c@@ 27794
though 27790
Conference 27770
door 27759
turn 27678
equipment 27641
Objective 27544
deal 27533
it@@ 27510
groups 27453
Africa 27434
projects 27418
almost 27411
environmental 27388
king 27340
table 27304
w@@ 27287
adopted 27263
material 27258
department 27236
ted 27226
ways 27187
ates 27114
gave 27092
l 27086
serious 27081
fully 27077
mean 27073
computer 27011
operations 26987
non-@@ 26970
idea 26944
proposed 26924
In@@ 26884
death 26845
n 26831
talk 26815
persons 26791
anything 26772
private 26766
read 26539
er@@ 26453
due 26420
considered 26389
date 26339
return 26320
requirements 26318
r@@ 26303
im@@ 26297
terms 26297
4@@ 26275
National 26269
reason 26217
importance 26185
c 26152
outside 26149
towards 26136
South 26129
ar@@ 26124
particularly 26105
Many 26079
decided 26072
practice 26035
ts 25991
addition 25951
appropriate 25938
promote 25894
culture 25874
received 25817
safety 25788
nature 25766
es@@ 25763
heard 25687
ro@@ 25686
friend 25683
quite 25632
wife 25614
easy 25535
true 25454
trying 25409
e-@@ 25387
goods 25349
third 25340
likely 25339
v@@ 25312
over@@ 25299
J@@ 25297
University 25233
looked 25181
someone 25165
g 25065
knowledge 25047
move 24998
European 24928
girl 24866
poor 24859
fire 24841
materials 24840
short 24826
coming 24807
Can 24777
methods 24743
rules 24725
themselves 24703
across 24687
comes 24680
50 24669
am@@ 24669
pressure 24656
happy 24554
wish 24554
develop 24531
Group 24511
lost 24506
network 24467
nuclear 24459
relationship 24437
directly 24429
responsibility 24411
approach 24390
exchange 24381
police 24352
individual 24344
stop 24326
14 24282
policies 24256
hold 24245
longer 24225
theory 24184
enterprises 24168
itself 24165
agreement 24120
reports 24117
share 24107
December 24076
di@@ 23995
st@@ 23964
Where 23953
Convention 23937
z@@ 23925
access 23897
moment 23826
buy 23823
usually 23790
learn 23751
ly 23750
cut 23748
demand 23737
Re@@ 23688
step 23687
paragraph 23686
workers 23679
parts 23666
brought 23652
needed 23637
at@@ 23594
six 23581
6@@ 23500
ad@@ 23462
Japan 23385
yourself 23374
or@@ 23347
planning 23329
everything 23327
While 23230
as@@ 23223
Y@@ 23187
delegation 23172
income 23093
court 23091
single 23085
en 23073
ant 23067
administration 23037
review 23021
road 22985
k 22957
increased 22950
personal 22909
rest 22906
cultural 22886
act 22877
boy 22858
offer 22838
16 22798
markets 22729
beautiful 22721
hear 22718
impact 22708
member 22706
Organization 22646
near 22618
front 22585
Yes 22583
j@@ 22575
plans 22555
therefore 22552
function 22538
regard 22535
lead 22508
sense 22480
getting 22477
list 22468
felt 22430
funds 22421
capacity 22410
works 22406
late 22393
hands 22392
behind 22383
Z@@ 22340
1996 22339
address 22330
= 22307
success 22304
7@@ 22273
expected 22265
authorities 22258
costs 22248
create 22233
ac@@ 22222
doesn 22180
white 22157
“ 22152
13 22141
25 22092
responsible 22083
principle 22059
personnel 22038
effects 22021
parents 21998
forces 21995
game 21985
sea 21962
questions 21936
continued 21929
bed 21928
term 21906
C 21856
18 21854
ic@@ 21846
regulations 21839
wanted 21816
Oh 21790
supply 21754
is@@ 21747
saying 21735
organization 21718
item 21717
ground 21657
D 21642
billion 21595
blood 21573
tax 21568
ti@@ 21549
letter 21516
banks 21497
news 21447
u 21418
1995 21415
provides 21378
enterprise 21346
modern 21338
traditional 21311
” 21297
became 21268
started 21262
relations 21254
simple 21215
_ 21198
eat 21166
el@@ 21149
21 21144
credit 21125
stay 21098
pre@@ 21083
consider 21073
cold 21039
Europe 21002
contract 20996
interests 20992
laws 20925
ous 20902
seems 20902
factors 20877
complete 20841
Office 20837
ations 20831
apply 20803
June 20790
civil 20787
p 20733
introduced 20723
status 20709
domestic 20708
ready 20665
speak 20661
points 20633
sent 20627
medical 20604
significant 20603
charge 20587
stage 20568
sound 20554
th 20493
ine 20468
former 20465
ab@@ 20465
lives 20444
standards 20412
Lord 20400
potential 20395
visit 20373
fall 20355
existing 20340
shows 20318
co@@ 20315
positive 20313
th@@ 20312
media 20309
2@@ 20282
Since 20281
ag@@ 20274
July 20271
Central 20229
carry 20171
central 20143
sector 20137
bit 20130
carried 20126
either 20124
criminal 20119
surface 20098
agencies 20073
turned 20023
concern 20010
music 20009
U@@ 20003
sh@@ 19990
U.S. 19988
met 19966
8@@ 19938
officials 19915
reform 19909
greater 19890
lower 19844
caused 19835
software 19813
Because 19808
size 19802
fine 19800
source 19767
additional 19736
crisis 19725
sub@@ 19709
whose 19687
learning 19670
鈥 19660
opportunity 19647
knew 19632
activity 19617
gas 19616
response 19574
request 19558
ic 19533
Asia 19504
build 19484
exercise 19473
answer 19466
September 19456
& 19435
> 19427
From 19426
involved 19423
story 19409
agreed 19406
standard 19400
le 19394
art 19393
departments 19392
alone 19379
similar 19360
active 19287
purpose 19279
Israel 19273
thus 19267
ol@@ 19261
17 19256
ship 19228
growing 19210
achieve 19197
mechanism 19194
con@@ 19171
During 19163
paid 19145
ten 19144
earth 19141
9@@ 19111
direct 19109
First 19087
science 19074
Bank 19068
reduce 19056
E 19035
establishment 19034
takes 19005
insurance 18988
board 18979
final 18911
O 18876
ator 18874
establish 18841
statement 18836
content 18832
19 18772
Her 18766
average 18764
Not 18758
representative 18752
joint 18681
budget 18655
est 18653
24 18627
principles 18617
consideration 18617
stability 18594
disease 18581
black 18558
unit 18555
March 18509
program 18508
sales 18474
deep 18458
reported 18451
stock 18448
range 18416
written 18346
increasing 18340
em@@ 18332
record 18322
books 18288
ter 18286
Even 18275
se@@ 18271
hour 18269
wrong 18256
influence 18233
ri@@ 18229
meetings 18219
understanding 18213
focus 18197
Most 18176
be@@ 18141
East 18141
actually 18137
site 18133
solution 18106
allow 18098
image 18093
thinking 18089
Governments 18067
quickly 18040
strength 18003
Member 18000
agenda 17994
minutes 17992
comprehensive 17992
note 17977
rates 17972
studies 17960
flow 17945
inside 17939
teaching 17922
discussed 17899
strategy 17898
rich 17875
prevent 17858
lo@@ 17832
added 17813
October 17810
regions 17781
stand 17760
else 17754
hot 17728
beginning 17725
als 17720
bodies 17713
limited 17698
reached 17690
effort 17686
ap@@ 17635
issued 17631
round 17616
tried 17585
ones 17584
official 17583
presented 17570
self-@@ 17565
approval 17561
ar 17559
per@@ 17506
nation 17500
everyone 17471
machine 17462
strengthen 17429
remember 17417
rise 17408
April 17392
Programme 17389
22 17366
communication 17355
seem 17348
Just 17344
African 17344
enjoy 17334
de 17323
remain 17319
below 17303
section 17303
concerning 17261
condition 17237
cover 17217
speed 17211
overall 17202
voice 17179
Board 17158
2008 17150
essential 17142
designed 17140
Economic 17140
document 17136
arms 17125
Of 17123
100 17119
transfer 17117
tions 17109
forms 17099
units 17093
weapons 17075
characteristics 17063
text 17060
evidence 17037
task 17031
M 16995
sp@@ 16986
inter@@ 16986
applied 16985
protect 16959
India 16952
Although 16950
mainly 16948
x 16943
le@@ 16939
ing@@ 16910
crime 16897
scientific 16861
patients 16860
weeks 16844
teacher 16841
running 16830
Are 16824
humanitarian 16818
functions 16801
card 16786
distribution 16775
sometimes 16766
series 16746
fast 16746
Con@@ 16739
23 16728
January 16704
schools 16703
ent 16698
president 16676
loss 16650
Shanghai 16630
North 16621
chance 16614
19@@ 16612
40 16610
documents 16595
Centre 16592
avoid 16571
to@@ 16553
fell 16536
rule 16523
governments 16523
wind 16500
31 16495
Its 16485
II 16485
myself 16484
studied 16465
wide 16463
ex@@ 16459
Information 16458
um 16455
ans 16447
Social 16436
Party 16435
damage 16430
fish 16427
pe@@ 16423
John 16412
conflict 16409
town 16377
om@@ 16371
facilities 16365
gone 16332
green 16329
physical 16329
prepared 16327
efficiency 16314
dead 16309
probably 16309
Human 16308
goal 16287
gold 16284
mission 16280
write 16278
procedures 16262
spirit 16250
items 16235
lack 16199
ice 16195
places 16185
balance 16170
firm 16154
goes 16148
steps 16131
walk 16126
base 16125
showed 16120
phone 16119
temperature 16115
sun 16111
ings 16110
export 16101
ha@@ 16097
recently 16094
professional 16047
ec@@ 16037
According 16018
el 16006
P 15992
actions 15983
heavy 15933
industrial 15929
send 15915
drug 15901
te@@ 15900
commercial 15889
leaders 15839
tree 15832
sleep 15813
trust 15776
French 15759
li@@ 15752
sign 15745
included 15730
applications 15709
nor 15705
cities 15676
regular 15674
matters 15670
providing 15670
break 15668
expressed 15660
yesterday 15659
leading 15646
York 15632
rural 15628
looks 15626
accept 15625
safe 15625
monitoring 15617
writing 15606
reach 15597
check 15596
1992 15587
travel 15582
ling 15579
seemed 15575
style 15563
48 15558
hair 15536
connection 15533
normal 15519
op@@ 15508
reasons 15464
T 15422
previous 15422
code 15372
feeling 15368
Therefore 15363
circumstances 15362
immediately 15357
noted 15356
ist 15353
processing 15335
tomorrow 15320
maintain 15315
event 15307
contact 15296
uses 15282
ul@@ 15281
November 15274
states 15268
annual 15256
created 15255
benefit 15220
enhance 15215
id@@ 15210
film 15186
authority 15180
die 15177
approved 15168
seven 15163
ed@@ 15154
built 15149
framework 15143
ons 15137
acts 15108
internal 15108
successful 15106
tion 15103
decisions 15087
primary 15083
receive 15072
British 15067
Such 15063
Al@@ 15051
h 15044
practical 15043
skin 15042
ds 15039
sustainable 15023
Rights 15020
follow 15011
debt 14994
F 14951
London 14929
throughout 14922
worked 14920
summer 14919
kept 14913
il@@ 14912
original 14905
complex 14904
traffic 14900
types 14899
waste 14894
train 14887
plant 14885
color 14877
context 14835
watch 14824
worth 14824
ethnic 14817
hit 14810
degree 14805
century 14799
fields 14798
gives 14795
wants 14791
urban 14783
remains 14781
scale 14756
competition 14754
benefits 14746
pro@@ 14734
gonna 14730
ness 14726
poverty 14696
difference 14691
Service 14666
fl@@ 14664
instead 14646
direction 14643
L 14638
August 14637
customers 14633
submitted 14632
weight 14618
post 14612
participation 14609
eye 14607
truth 14593
produce 14563
fear 14563
weather 14558
sides 14537
changed 14532
wall 14526
shown 14524
investors 14509
Internet 14503
box 14493
Here 14487
tr@@ 14487
27 14484
giving 14460
employment 14451
Olympic 14424
concept 14414
simply 14387
reading 14384
isn 14379
heat 14373
representatives 14363
events 14362
26 14353
Have 14350
husband 14346
choice 14329
affected 14326
Mar@@ 14322
reference 14314
beyond 14301
popular 14284
provision 14279
28 14275
easily 14272
allowed 14270
fund 14257
os@@ 14253
implement 14247
character 14246
opened 14246
dollars 14242
non-governmental 14230
freedom 14225
examination 14217
conduct 14212
require 14210
pass 14203
2007 14202
out@@ 14196
passed 14193
skills 14192
violence 14187
Two 14185
search 14184
improved 14180
stress 14160
ance 14118
nearly 14116
assets 14104
TV 14099
ent@@ 14081
serve 14081
ideas 14075
window 14065
manner 14043
file 14036
recommendations 14014
entire 14005
ad 14004
Those 14003
Who 14001
der 13996
feet 13985
mis@@ 13985
talking 13972
station 13958
save 13954
dark 13953
Fund 13951
survey 13924
aid 13921
2006 13921
users 13894
aspects 13889
drive 13883
us@@ 13882
t-@@ 13872
wait 13870
choose 13868
net 13855
Iraq 13853
opportunities 13851
largest 13831
Any 13820
priority 13816
grow 13801
dream 13794
opening 13763
.. 13760
earlier 13758
coordination 13750
born 13735
unto 13722
dog 13717
yuan 13705
mine 13700
si@@ 13689
Japanese 13685
pl@@ 13683
begin 13681
Court 13680
happened 13643
college 13625
An@@ 13586
measure 13579
anyone 13572
chemical 13570
spend 13558
chief 13546
sell 13529
doctor 13503
huge 13501
City 13486
etc 13471
died 13468
clearly 13461
maintenance 13445
y-@@ 13438
ity 13428
views 13428
equal 13427
ur@@ 13425
student 13419
piece 13417
Union 13417
cl@@ 13415
playing 13388
Women 13386
determined 13384
middle 13374
street 13373
useful 13370
car@@ 13359
clean 13352
Chapter 13317
emergency 13314
message 13300
includes 13299
spent 13291
welcome 13284
limit 13279
Other 13264
St@@ 13258
ir@@ 13256
target 13253
par@@ 13218
Their 13216
floor 13209
registration 13202
user 13201
baby 13199
famous 13175
individuals 13159
finally 13139
effectively 13137
Congress 13137
steel 13118
raised 13110
online 13100
Ch@@ 13084
trees 13073
ite 13068
pain 13064
he@@ 13063
tic 13049
lose 13035
played 13035
payment 13030
ch 13022
raise 13015
press 12999
ally 12998
interested 12990
contained 12981
29 12941
Korea 12939
2005 12939
fight 12932
Every 12931
elements 12924
factor 12917
bo@@ 12905
Taiwan 12904
Good 12885
manager 12884
brain 12863
add 12852
Today 12845
seek 12842
completed 12840
object 12830
nations 12829
conference 12817
improvement 12811
agree 12805
actual 12795
failure 12787
ahead 12782
conducted 12778
kinds 12767
memory 12762
core 12760
0@@ 12760
store 12752
features 12743
qu@@ 12741
Ex@@ 12725
advice 12716
achieved 12711
goals 12709
river 12703
tive 12699
win 12692
cash 12678
ies 12666
independent 12661
evaluation 12656
promoting 12655
Foreign 12654
assessment 12650
expect 12647
daily 12646
described 12644
Russian 12643
po@@ 12642
biggest 12642
mutual 12629
families 12624
critical 12620
et@@ 12614
rain 12613
compared 12611
climate 12603
followed 12598
s.@@ 12591
pollution 12585
transport 12576
highly 12575
drink 12570
discussion 12562
blue 12561
f 12552
sky 12543
ative 12537
causes 12524
evening 12521
brother 12518
resource 12514
enter 12512
animals 12501
re 12498
1.@@ 12494
perfect 12489
picture 12481
confidence 12480
ter@@ 12471
r 12471
ism 12466
et 12458
Sh@@ 12456
citizens 12451
sorry 12450
mo@@ 12449
generally 12440
election 12436
bear 12429
daughter 12422
duty 12418
commitment 12417
although 12399
toward 12395
whom 12390
advantage 12376
ding 12372
except 12366
Each 12361
Only 12345
France 12343
returned 12329
ors 12327
do@@ 12319
Health 12316
movement 12308
mass 12304
clothes 12302
Secretariat 12300
ancient 12298
signed 12297
glass 12295
Management 12292
bi@@ 12291
advanced 12291
trouble 12287
De@@ 12286
ia 12284
Once 12278
ve 12275
18@@ 12268
no@@ 12249
ked 12246
covered 12227
produced 12226
gets 12220
sc@@ 12209
experts 12207
cells 12202
killed 12199
phase 12193
En@@ 12178
published 12162
vote 12158
inspection 12142
attack 12141
bus 12141
鈥@@ 12134
relief 12127
afraid 12126
mouth 12121
completely 12111
details 12110
jobs 12107
hundred 12100
improving 12089
prevention 12061
standing 12056
relating 12055
agency 12052
affairs 12051
eight 12042
fundamental 12037
values 12033
organs 12012
February 12007
Public 12005
territory 12000
procedure 11999
moving 11998
Services 11991
speech 11988
stone 11970
investigation 11970
Ar@@ 11969
Agreement 11966
contributions 11965
and@@ 11960
arrangements 11949
Asian 11941
Finally 11940
latest 11939
armed 11929
proposal 11923
Executive 11919
stood 11907
opinion 11906
Action 11905
discuss 11896
System 11893
Also 11882
More 11880
West 11879
lines 11876
resolutions 11876
trading 11851
center 11842
me@@ 11837
cell 11829
`@@ 11822
currently 11810
meaning 11803
negotiations 11802
girls 11781
obtained 11779
ball 11776
knows 11775
60 11769
supported 11759
Russia 11754
couple 11734
external 11733
soil 11732
te 11728
requested 11724
calls 11706
challenges 11703
regarding 11699
under@@ 11685
Research 11668
requires 11666
married 11665
res 11662
sale 11661
learned 11657
cr@@ 11656
Chairman 11648
waiting 11640
sort 11632
long-term 11618
High 11618
consumption 11615
appear 11614
entitled 11606
concerns 11599
moved 11579
reduction 11567
encourage 11558
operating 11531
holding 11526
join 11526
securities 11526
for@@ 11512
season 11508
affect 11508
plants 11506
peaceful 11499
ph@@ 11498
ages 11496
contribution 11493
spread 11490
ne@@ 11490
justice 11455
mandate 11447
negative 11442
nice 11427
Day 11424
ical 11406
employees 11400
specified 11398
becomes 11397
rapid 11395
objective 11382
technique 11379
device 11376
marriage 11372
claim 11368
animal 11365
generation 11364
Administration 11356
2004 11354
ks 11351
Thank 11340
page 11330
Another 11306
se 11306
author 11304
speaking 11304
numbers 11295
1@@ 11294
N 11293
Would 11285
difficulties 11273
decide 11264
legislation 11264
teachers 11260
technologies 11253
wear 11249
um@@ 11235
Pro@@ 11225
Will 11223
x@@ 11218
sources 11204
| 11204
happiness 11183
thousand 11178
registered 11177
sex 11173
sports 11169
ality 11161
television 11157
unique 11155
couldn 11151
proposals 11147
figure 11140
perhaps 11135
Americans 11132
ton 11131
agricultural 11127
healthy 11125
committee 11123
purposes 11108
ence 11106
objectives 11085
warm 11077
Tibet 11070
thy 11064
les 11062
trend 11059
properties 11058
agreements 11058
housing 11054
G 11051
placed 11048
Yet 11044
ps 11040
forest 11035
committed 11028
doubt 11026
Under 11026
notice 11025
su@@ 11022
concrete 11019
offered 11017
determine 11017
widely 11016
fair 11012
announced 11008
element 11007
promotion 11004
Be 11003
R 10999
settlement 10995
Y 10992
forget 10985
Did 10981
49 10980
closed 10980
re-@@ 10978
up@@ 10974
cancer 10968
challenge 10965
engineering 10956
offices 10956
setting 10955
associated 10955
electric 10951
happen 10950
ish 10947
path 10943
thank 10933
medicine 10931
career 10923
supervision 10923
scope 10920
strengthening 10920
Based 10916
Minister 10915
ou@@ 10889
talks 10883
certainly 10882
helped 10872
assist 10868
lay 10866
sold 10866
the@@ 10864
sing 10864
behavior 10858
al-@@ 10856
lived 10850
Trade 10844
spring 10830
锛 10823
coal 10813
match 10811
university 10810
estimated 10809
Germany 10800
peace-keeping 10791
customer 10786
dinner 10782
preparation 10780
X@@ 10758
ill 10754
rose 10751
express 10747
addressed 10734
Obama 10733
sit 10732
shape 10730
47 10729
ment 10716
， 10716
hotel 10709
trans@@ 10688
increasingly 10687
collection 10681
becoming 10679
algorithm 10677
ters 10672
organized 10666
efficient 10657
participate 10657
hospital 10637
zone 10636
fresh 10632
abroad 10630
Secretary 10624
br@@ 10623
ard 10620
delivery 10611
ig@@ 10609
proper 10609
6.@@ 10599
contribute 10598
self 10597
ded 10595
island 10595
cor@@ 10592
UNDP 10568
changing 10565
man@@ 10563
ring 10554
master 10550
flowers 10544
articles 10543
bottom 10540
presence 10539
testing 10535
Th@@ 10533
majority 10533
Both 10526
version 10525
wood 10523
realize 10518
video 10477
ran 10473
35 10461
z 10460
officers 10460
closely 10458
electronic 10456
.The 10451
Ministry 10448
Co@@ 10446
Monday 10434
believed 10433
45 10425
pretty 10420
sat 10413
recognized 10411
Year 10402
director 10401
drugs 10396
analyzed 10392
expression 10391
guarantee 10389
dialogue 10388
dynamic 10382
lies 10379
bl@@ 10374
afternoon 10362
id 10356
drop 10351
ie 10347
solve 10340
illegal 10335
mode 10330
Thus 10330
agent 10329
democratic 10328
Before 10325
mon@@ 10314
Come 10312
senior 10305
ful 10292
Games 10291
lie 10291
ah 10288
fixed 10287
can@@ 10285
compensation 10277
Li@@ 10274
religious 10274
separate 10266
leadership 10264
rising 10264
threat 10252
accepted 10252
reduced 10247
advance 10237
secret 10234
finance 10233
shop 10222
autonomous 10217
mentioned 10197
sight 10196
economies 10188
Street 10172
ge@@ 10159
pattern 10158
Western 10158
formed 10156
Road 10153
suggested 10139
variety 10128
ten@@ 10127
refugees 10123
fuel 10116
gr@@ 10113
unless 10113
kill 10109
Tom 10103
failed 10101
executive 10100
bought 10085
Working 10077
foot 10067
reality 10063
thou 10061
David 10060
labour 10059
listen 10056
thousands 10052
ong 10041
implemented 10035
entered 10030
aim 10026
slow 10025
developments 10022
span 10018
competent 10006
dry 10002
stable 9999
accounting 9994
submit 9989
keeping 9981
Australia 9980
race 9977
go@@ 9973
appeared 9970
foundation 9970
Look 9959
draw 9950
broken 9950
organ 9950
Se@@ 9947
Administrative 9945
extent 9944
host 9941
minute 9938
noise 9933
buildings 9933
accident 9929
00 9929
leaves 9925
ang@@ 9925
ver@@ 9921
relatively 9920
powerful 9920
soul 9917
rec@@ 9904
2000 9903
aimed 9895
tri@@ 9885
dangerous 9884
ties 9870
friendly 9866
Britain 9864
rock 9847
Ad@@ 9846
ble 9845
com@@ 9845
S. 9842
herself 9838
* 9836
obligations 9830
researchers 9809
boat 9809
ren@@ 9808
location 9808
educational 9802
behalf 9801
democracy 9800
ized 9798
spending 9795
winter 9785
Control 9785
plane 9784
Take 9781
highest 9781
80 9779
leaving 9774
leader 9768
sister 9764
trip 9762
star 9761
ty 9749
scheme 9748
oc@@ 9745
clinical 9742
e.@@ 9737
ob@@ 9733
map 9728
beauty 9726
double 9724
suitable 9713
guy 9709
wasn 9692
av@@ 9690
differences 9687
western 9678
games 9676
signal 9671
integration 9669
peoples 9663
indicated 9663
ker 9655
ise 9655
der@@ 9655
greatly 9652
anti@@ 9652
output 9652
responsibilities 9643
House 9636
continues 9633
shares 9613
Mission 9598
ended 9591
boss 9587
garden 9583
driving 9576
anti-@@ 9575
relation 9575
handle 9575
strategies 9568
cars 9567
initial 9567
conclusion 9562
names 9560
Education 9553
component 9551
operational 9544
carrying 9537
loved 9536
appears 9532
index 9532
species 9531
ste@@ 9529
distance 9528
starting 9526
actively 9523
extremely 9517
flight 9515
movie 9514
Christmas 9507
d-@@ 9502
ology 9498
wine 9496
tea 9493
H 9492
1991 9479
permanent 9477
import 9469
notes 9468
wouldn 9465
desire 9464
Car@@ 9463
Last 9459
contains 9458
mechanisms 9453
female 9450
practices 9449
technological 9446
Region 9445
Friday 9444
enable 9444
ants 9437
excellent 9435
bright 9434
listed 9434
sites 9432
touch 9420
army 9413
integrated 9412
arrived 9412
border 9399
indeed 9395
currency 9387
ves 9385
Declaration 9384
selling 9382
Technology 9378
located 9374
– 9367
filled 9356
reasonable 9351
attempt 9342
Canada 9342
Application 9342
shot 9339
arm 9338
historical 9332
strategic 9332
defined 9329
gain 9329
background 9328
Great 9326
referred 9324
willing 9315
Second 9310
eating 9309
quarter 9305
bill 9304
Charter 9304
correct 9298
caught 9295
alization 9293
stated 9291
res@@ 9285
disaster 9280
diseases 9278
dollar 9274
labor 9274
dress 9270
adopt 9268
larger 9266
finished 9262
vehicles 9253
delegations 9253
length 9252
V 9249
ni@@ 9248
facilitate 9245
vehicle 9245
busy 9237
tool 9235
solid 9235
investigate 9230
os 9225
techniques 9215
creation 9212
Middle 9206
sir 9204
Affairs 9201
aware 9197
obtain 9194
ens 9189
haven 9188
structures 9183
components 9176
Institute 9176
Yeah 9169
losses 9163
marketing 9161
Business 9161
consultations 9156
release 9153
significance 9151
overseas 9151
Company 9148
explore 9148
processes 9144
tools 9142
U. 9140
financing 9140
mental 9139
hurt 9135
soft 9133
ut@@ 9128
troops 9128
ge 9125
copy 9124
ke 9124
village 9122
recovery 9120
K 9115
planned 9115
Washington 9112
Bush 9109
so@@ 9108
radio 9107
cur@@ 9106
patient 9105
fun 9101
2009 9081
wealth 9080
coffee 9073
walked 9070
ev@@ 9068
tasks 9067
32 9067
guide 9051
factory 9050
offers 9048
models 9043
explain 9042
Com@@ 9037
remained 9037
2003 9027
enemy 9023
we@@ 9021
detailed 9017
track 9016
debate 9002
follows 8993
fruit 8984
3.@@ 8983
Di@@ 8978
inflation 8976
Like 8971
Three 8969
ping 8965
tests 8961
Jesus 8951
duties 8950
forced 8947
Love 8944
aircraft 8944
infrastructure 8942
Study 8938
v 8929
facing 8928
carefully 8921
ics 8920
Palestinian 8917
recommended 8915
Sunday 8912
Could 8906
stopped 8903
ization 8902
transportation 8902
fit 8901
mobile 8885
wrote 8882
Moreover 8881
otherwise 8877
digital 8874
interesting 8871
mark 8870
ak@@ 8870
ry 8869
smile 8863
bar 8860
transition 8860
perform 8857
W 8857
exist 8855
corresponding 8853
70 8853
Life 8850
ators 8847
sitting 8840
risks 8840
instruments 8839
campaign 8834
prepare 8833
forth 8826
exactly 8815
Director 8814
metal 8805
claims 8804
sets 8803
worry 8803
manufacturing 8789
straight 8784
resistance 8783
screen 8783
Dis@@ 8782
adequate 8771
website 8766
broad 8766
purchase 8765
ang 8759
seeing 8754
ve@@ 8751
ing-@@ 8740
end@@ 8738
Un@@ 8733
ore 8729
accounts 8729
gradually 8727
link 8719
Earth 8716
storage 8714
str@@ 8712
milk 8706
Use 8705
partner 8705
determination 8699
ery 8698
vi@@ 8698
experiment 8692
OF 8688
Association 8683
— 8676
spot 8674
answered 8672
database 8672
36 8667
No. 8660
situations 8659
count 8652
dr@@ 8651
judge 8650
German 8644
bilateral 8643
bridge 8638
ends 8636
residents 8632
Q@@ 8631
catch 8628
greatest 8627
aged 8618
acid 8617
Gu@@ 8617
2.@@ 8612
atic 8609
bar@@ 8605
youth 8598
Be@@ 8598
Maybe 8596
heads 8596
partners 8595
profit 8592
instance 8590
telephone 8588
volume 8588
birth 8587
immediate 8586
seat 8585
ati@@ 8584
funding 8581
severe 8574
33 8571
plays 8569
School 8569
released 8563
disarmament 8561
England 8554
LORD 8553
conflicts 8544
firms 8544
46 8544
wave 8528
trial 8527
named 8511
fly 8510
solutions 8509
existence 8505
weak 8503
respectively 8501
26@@ 8501
Li 8497
laid 8487
pick 8485
recognition 8478
scientists 8476
dec@@ 8470
engaged 8463
maybe 8461
controlled 8461
neither 8454
impossible 8451
uc@@ 8441
Or 8436
suggest 8435
thee 8434
Cooperation 8432
wh@@ 8430
reflect 8430
Chief 8422
horse 8417
entry 8414
records 8412
county 8410
attitude 8410
centre 8406
engine 8401
interpretation 8385
figures 8384
work@@ 8382
allows 8379
appeal 8378
despite 8378
proved 8376
kids 8374
Force 8372
mountain 8370
bird 8369
fat 8365
judicial 8362
gi@@ 8360
frequency 8356
relative 8349
iron 8343
200 8343
soldiers 8337
prior 8333
display 8327
du@@ 8326
IN@@ 8325
feelings 8324
identify 8323
mining 8316
Through 8315
brand 8313
treated 8310
error 8310
slowly 8307
dont 8307
ists 8306
+ 8301
Tuesday 8300
programs 8299
hole 8296
90 8287
fighting 8285
formation 8284
ber@@ 8283
continuing 8282
Advisory 8280
expansion 8276
combined 8275
high-@@ 8275
suddenly 8264
ching 8255
load 8253
layer 8253
possibility 8252
ho@@ 8243
consequences 8243
effectiveness 8235
THE 8233
helps 8232
Mrs. 8232
dealing 8232
port 8231
receiving 8227
crimes 8225
corporate 8223
statements 8218
communications 8216
respective 8208
consumer 8206
whatever 8206
Report 8198
ordered 8197
AN@@ 8193
Ordinance 8193
identified 8189
warning 8179
faith 8179
bu@@ 8170
non@@ 8170
500 8170
investigated 8165
injury 8150
edge 8146
south 8146
posts 8140
on-@@ 8137
sons 8133
meat 8132
dance 8128
suit 8128
scene 8125
ay 8121
UN 8121
moon 8115
a-@@ 8112
objects 8108
players 8087
industries 8087
ically 8086
statistics 8081
adoption 8081
suffering 8074
rapidly 8074
undertaken 8071
manage 8063
creating 8062
sectors 8059
defense 8059
regulation 8056
businesses 8053
orders 8036
5.@@ 8036
lots 8035
in-@@ 8032
specialized 8032
instrument 8030
valuable 8028
hopes 8027
fourth 8025
Regulations 8025
gu@@ 8024
# 8024
formal 8023
Members 8017
2001 8017
extra 8010
consumers 8005
ma 8002
danger 7994
multilateral 7994
civilian 7993
micro@@ 7992
ourselves 7986
academic 7985
34 7983
tend 7982
violation 7977
els 7973
\ 7973
supplies 7972
watching 7970
hi@@ 7966
sweet 7965
Conclusion 7964
loans 7963
sufficient 7960
missions 7957
Iran 7956
grade 7952
requests 7950
spoke 7950
Section 7947
tonight 7946
Pacific 7943
informed 7942
mat@@ 7940
Per@@ 7939
ly@@ 7939
concluded 7939
intended 7938
AR@@ 7937
thoughts 7931
boys 7929
El@@ 7928
seriously 7927
discovered 7926
chapter 7915
houses 7906
male 7905
tired 7905
combination 7903
ement 7901
White 7899
invited 7896
ell@@ 7891
appearance 7891
Ro@@ 7885
back@@ 7884
min@@ 7883
elections 7874
province 7873
st 7870
District 7867
cast 7860
consensus 7859
ra@@ 7856
signs 7856
ina 7854
walking 7854
super@@ 7853
respond 7852
RE@@ 7848
reporting 7848
Protection 7847
urgent 7846
finding 7846
wonder 7845
ably 7840
thanks 7838
Over 7832
39 7831
requirement 7831
awareness 7827
unable 7822
ines 7821
Sometimes 7815
broke 7812
owned 7811
moral 7809
vision 7809
quick 7809
till 7807
victims 7807
bound 7804
est@@ 7804
sl@@ 7801
gl@@ 7798
all@@ 7798
ying 7798
ye 7796
maximum 7793
selected 7787
contain 7786
au@@ 7786
observed 7781
ents 7781
IT 7775
corner 7773
nine 7773
independence 7772
consultation 7772
introduce 7771
parameters 7771
smaller 7768
Le@@ 7765
Bar@@ 7761
fill 7755
Mo@@ 7735
Bureau 7734
Meanwhile 7733
increases 7732
prescribed 7730
enforcement 7726
believes 7723
divided 7720
sensitive 7717
cards 7716
multiple 7709
37 7708
involving 7705
expensive 7699
Which 7694
positions 7694
pleased 7688
cross 7685
birds 7685
ay@@ 7683
square 7683
institution 7680
ll 7677
extended 7676
reaction 7670
Food 7665
finish 7664
shoes 7656
treat 7655
guidelines 7655
Division 7655
implementing 7652
River 7651
none 7651
atmosphere 7650
Authority 7650
seeking 7645
song 7644
miles 7634
offering 7634
focused 7634
player 7633
park 7630
elected 7628
characteristic 7627
51 7627
Wednesday 7626
easier 7623
launched 7623
ars 7618
demands 7612
block 7610
careful 7605
s-@@ 7605
Miss 7601
thesis 7598
row 7597
pieces 7594
innovation 7593
ster 7591
ant@@ 7591
restaurant 7588
comments 7585
adjustment 7585
banking 7584
44 7580
41 7574
helping 7573
deeply 7570
managers 7565
UN@@ 7565
served 7564
Province 7561
liquid 7560
ments 7554
Agency 7553
expert 7552
gate 7546
carbon 7545
cutting 7543
interview 7541
-based 7531
meant 7530
Water 7522
Furthermore 7520
ley 7509
medium 7508
pi@@ 7504
Afghanistan 7504
Summit 7501
telling 7500
expenses 7499
dy 7491
fault 7491
Time 7481
ms 7481
stick 7478
38 7476
advantages 7474
bs 7470
holiday 7469
feature 7466
bearing 7466
falling 7462
establishing 7461
Mary 7458
shared 7456
era 7456
cycle 7452
asking 7449
gift 7445
detail 7444
Ab@@ 7441
faced 7436
quiet 7434
U 7433
discrimination 7431
participants 7430
membership 7427
ned 7426
ide 7426
charges 7425
powers 7425
topic 7423
pleasure 7420
monitor 7419
wild 7418
Egypt 7415
Bo@@ 7415
satisfaction 7408
officer 7408
promise 7406
Bosnia 7405
certificate 7404
prove 7403
Tr@@ 7402
experienced 7402
ci@@ 7401
Plan 7401
supports 7399
ses 7398
sick 7394
chain 7394
plastic 7387
agriculture 7387
motion 7381
crucial 7380
acting 7379
25@@ 7377
package 7373
attached 7372
War 7371
library 7370
command 7366
via 7366
43 7364
Financial 7364
plate 7361
4.@@ 7359
equity 7358
decline 7357
ke@@ 7356
structural 7354
imposed 7351
realized 7349
earthquake 7345
fail 7345
Thursday 7343
managed 7343
la@@ 7341
confirmed 7340
ze 7338
tu@@ 7337
competitive 7337
1990 7336
Unit 7328
ary 7324
calling 7320
guidance 7319
equality 7310
ched 7308
minimum 7308
delay 7307
observe 7307
attacks 7306
beat 7294
thin 7294
forever 7294
worse 7292
decades 7289
battle 7289
loan 7287
principal 7285
achievements 7285
Paris 7281
dated 7280
mail 7278
spokesman 7272
west 7271
wonderful 7268
joined 7266
resulting 7263
silver 7263
remove 7262
secure 7256
letters 7256
wishes 7253
non 7253
pointed 7251
ming 7246
co-@@ 7245
supporting 7243
Go 7235
sanctions 7232
obvious 7231
simulation 7226
ation@@ 7217
studying 7216
newspaper 7216
dropped 7215
properly 7214
Arab 7209
smoke 7208
appointed 7205
1,@@ 7202
joy 7197
north 7195
partnership 7194
ep@@ 7187
Children 7186
7.@@ 7185
stocks 7184
cool 7180
vital 7180
grew 7178
expand 7176
stars 7175
Make 7175
of@@ 7163
initiative 7161
attend 7160
King 7159
selection 7159
hearing 7157
Federal 7153
drawing 7142
writer 7137
ns 7134
tic@@ 7133
initiatives 7125
taste 7123
Police 7123
frame 7121
ideal 7120
depends 7120
ner 7118
faces 7117
languages 7115
football 7112
air@@ 7111
Perhaps 7108
10@@ 7108
sw@@ 7101
ches 7100
courses 7099
Rwanda 7099
twice 7097
X 7096
pair 7096
minister 7092
reducing 7092
Wang 7089
Mon@@ 7087
multi-@@ 7083
one-@@ 7082
violations 7082
evaluate 7080
Does 7076
Pakistan 7075
buying 7073
communities 7073
appreciation 7070
Web 7070
replied 7070
mar@@ 7064
Bill 7064
ast@@ 7063
Despite 7062
putting 7061
decade 7056
ins 7054
lady 7052
ordinary 7052
鈥檚 7052
bag 7049
Pre@@ 7040
Michael 7026
characters 7023
ff 7021
rice 7018
ological 7015
performed 7015
alism 7015
discussions 7014
drawn 7011
Jack 7011
occurred 7001
constant 6999
electricity 6997
Inter@@ 6997
liability 6994
IC@@ 6992
push 6989
temporary 6989
networks 6984
experiences 6984
tears 6983
universal 6983
ain 6981
rent 6981
reply 6979
stations 6979
recognize 6978
tourism 6972
diagnosis 6972
older 6971
indicate 6971
ingly 6966
evil 6965
UK 6964
storm 6957
terrorism 6955
onto 6954
aren 6952
handling 6947
annex 6947
guess 6946
club 6941
extend 6941
000 6939
1997 6936
2002 6936
sample 6932
integrity 6930
ning 6925
izing 6925
ao 6924
fashion 6924
angry 6919
facts 6918
southern 6912
producing 6911
truly 6911
happens 6910
schedule 6895
driver 6892
significantly 6891
resolve 6891
exports 6889
ver 6886
ships 6885
owner 6882
multi@@ 6882
outstanding 6880
images 6879
miss 6873
weekend 6871
regime 6871
well-@@ 6869
glad 6865
virus 6865
fe@@ 6865
mistake 6864
classes 6857
struggle 6855
Man@@ 6853
Qu@@ 6850
prison 6850
farmers 6848
Iraqi 6842
cry 6839
ensuring 6839
ai@@ 6829
Dr. 6827
measurement 6827
ering 6825
devices 6821
minority 6819
relationships 6818
grown 6816
Representative 6816
her@@ 6815
Instead 6814
reflected 6810
snow 6805
Red 6805
Part 6803
capable 6803
strange 6802
mal@@ 6797
ial 6794
42 6793
Science 6791
gh@@ 6789
quantity 6786
cre@@ 6784
composition 6783
harm 6781
platform 6774
encouraged 6774
difficulty 6771
EN@@ 6770
destruction 6769
sts 6766
20@@ 6764
Olympics 6762
tor 6760
provinces 6755
pre-@@ 6755
friendship 6754
er-@@ 6754
connected 6749
28@@ 6747
criteria 6741
revised 6739
empty 6738
sion 6733
ian 6732
Federation 6732
tw@@ 6727
chairman 6727
17@@ 6722
continuous 6722
files 6721
75 6720
Civil 6719
Q 6718
Hey 6715
Peace 6715
ass@@ 6709
mer@@ 6708
az@@ 6706
rare 6703
teams 6700
prefer 6699
Hu@@ 6699
hand@@ 6698
bringing 6691
sur@@ 6689
har@@ 6685
deposit 6683
branch 6683
conversation 6679
shopping 6676
considerable 6674
utilization 6674
ites 6672
execution 6671
sought 6670
0 6668
stuff 6665
brings 6663
down@@ 6659
input 6659
ously 6654
dreams 6653
emerging 6653
Get 6647
Indian 6645
pu@@ 6637
turning 6635
ber 6634
authorized 6633
ving 6632
linked 6629
8.@@ 6629
dispute 6621
refer 6617
alternative 6616
proof 6615
SC@@ 6611
Industry 6610
Saturday 6600
intellectual 6599
grain 6598
salary 6592
client 6592
vast 6590
EU 6587
teach 6586
Yugoslavia 6585
consistent 6580
millions 6580
savings 6579
Methods 6578
literature 6572
represented 6571
guys 6570
crowd 6569
Constitution 6569
east 6563
suffered 6563
estate 6563
ending 6562
ler 6560
pace 6558
ceremony 6556
suggests 6553
aries 6553
ratio 6552
AL@@ 6552
explained 6551
anger 6551
fee 6551
occupied 6546
remote 6539
Par@@ 6538
iz@@ 6532
airport 6531
showing 6528
raising 6528
options 6527
commitments 6526
hardly 6524
Israeli 6524
limits 6521
church 6520
emphasis 6518
transmission 6517
sexual 6513
presents 6511
identity 6510
remaining 6509
familiar 6506
treaty 6505
Sha@@ 6502
ill@@ 6501
Commissioner 6501
ats 6497
Without 6496
fi@@ 6492
ade 6488
inner 6488
ped 6484
contents 6482
III 6481
For@@ 6480
mostly 6480
clients 6478
He@@ 6471
sentence 6468
novel 6468
ure 6463
15@@ 6462
collective 6460
ought 6458
^ 6458
introduces 6457
Several 6457
district 6452
combat 6451
eventually 6449
substantial 6449
Post 6448
welcomed 6447
journey 6445
division 6445
yellow 6442
patterns 6440
birthday 6439
UNICEF 6439
cat 6434
occur 6434
ess 6433
George 6431
Among 6420
abuse 6416
Analysis 6416
exchanges 6416
mechanical 6415
expenditure 6415
cup 6406
definition 6404
containing 6400
represent 6398
jurisdiction 6390
gender 6384
declared 6384
IS@@ 6381
band 6380
stories 6380
granted 6379
upper 6379
Italy 6379
Treaty 6376
alized 6372
recorded 6371
300 6367
audience 6365
bid 6356
wearing 6354
Am@@ 6349
likes 6348
About 6347
appointment 6345
maintaining 6344
surprise 6343
ak 6341
sed 6339
considering 6337
centres 6333
Ac@@ 6332
raw 6332
secondary 6330
introduction 6328
strongly 6326
grass 6324
license 6324
designated 6324
tor@@ 6323
Though 6315
option 6314
Singapore 6313
usual 6313
Su@@ 6311
phenomenon 6309
protected 6306
diplomatic 6302
achievement 6301
sha@@ 6286
y.@@ 6283
suggestions 6282
sharp 6281
fees 6279
shift 6278
Agenda 6278
perspective 6277
ud@@ 6276
smoking 6276
typical 6273
sharing 6272
frequently 6264
rel@@ 6261
flat 6259
meal 6255
Cor@@ 6255
sum 6252
operate 6251
ru@@ 6245
Scheme 6243
successfully 6242
Herzegovina 6242
timely 6239
supposed 6238
ongoing 6236
tics 6236
stressed 6236
pictures 6232
reviewed 6228
Latin 6228
computers 6228
sk@@ 6222
SCO 6222
9.@@ 6217
bone 6212
roads 6211
ys 6210
drinking 6207
commodity 6207
ou 6205
voluntary 6204
alive 6192
ily 6185
ER@@ 6181
pull 6180
conservation 6180
coat 6178
politics 6178
Cl@@ 6177
sounds 6176
title 6174
oriented 6174
applicable 6172
heading 6171
sad 6163
motor 6161
burden 6160
holds 6158
server 6158
compliance 6158
begun 6157
substantive 6156
dear 6153
painting 6150
stands 6150
missing 6149
bigger 6148
ize 6147
ash 6145
estimates 6145
saving 6144
ale 6140
advertising 6135
web 6135
Using 6134
ency 6134
latter 6133
wedding 6132
gap 6131
fied 6128
commission 6127
homes 6126
chair 6115
suffer 6114
diet 6112
Harry 6109
origin 6102
w 6101
examine 6101
everybody 6094
findings 6094
og@@ 6092
Ne@@ 6090
appreciate 6090
channel 6082
Having 6081
sand 6079
Center 6079
grave 6079
Third 6078
welfare 6074
customs 6071
flying 6069
brief 6069
flower 6068
aspect 6066
col@@ 6063
yes 6061
wise 6060
ging 6058
experimental 6058
reconstruction 6058
comfortable 6055
union 6055
accurate 6054
largely 6053
achieving 6052
repair 6050
are@@ 6049
absence 6040
adding 6038
faster 6033
outcome 6033
fore@@ 6032
0.@@ 6032
den@@ 6031
Mainland 6030
Sea 6023
55 6023
lunch 6022
dust 6022
false 6016
.I 6012
aging 6007
marine 6005
favorite 6004
represents 6003
waters 6000
punishment 6000
ticket 5999
detection 5999
losing 5999
links 5998
root 5996
turns 5994
paying 5994
therapy 5989
sovereignty 5982
intelligence 5979
numerous 5979
belief 5979
describe 5979
talked 5976
jointly 5975
passing 5971
venture 5970
fin@@ 5965
entirely 5965
profits 5961
Ms. 5961
regarded 5960
bread 5960
shut 5959
hundreds 5957
closer 5956
iness 5955
assembly 5954
unemployment 5953
Air 5953
lights 5950
investments 5947
household 5945
rehabilitation 5945
hoped 5944
approaches 5940
Global 5934
marked 5929
ky 5921
poly@@ 5918
inc@@ 5916
papers 5916
patent 5915
throw 5909
ride 5907
maintained 5906
inform 5905
estimate 5902
undertake 5898
deliver 5897
satisfied 5896
ai 5895
slightly 5895
driven 5891
merely 5888
rescue 5888
o-@@ 5888
proportion 5887
observers 5886
extension 5886
targets 5884
overcome 5884
guard 5884
Wall 5879
oo@@ 5879
fifth 5879
removed 5878
teeth 5876
contracts 5874
twenty 5873
printing 5872
ely 5872
Design 5871
es.@@ 5866
Im 5863
escape 5862
skill 5854
fishing 5850
salt 5848
arrangement 5843
owners 5841
aff@@ 5833
thinks 5830
launch 5829
CH@@ 5828
pol@@ 5827
valid 5826
Standing 5824
complicated 5823
marry 5817
oral 5817
Regional 5816
applying 5814
institutional 5814
worst 5809
professor 5807
reliable 5804
sal@@ 5800
doctors 5800
marks 5798
identification 5795
agents 5795
leads 5794
ear 5790
capability 5790
feels 5788
apart 5787
angle 5787
contrast 5785
neck 5785
smooth 5784
tur@@ 5784
opposite 5781
rooms 5780
engage 5779
circuit 5776
examples 5775
translation 5774
cy@@ 5773
satellite 5770
College 5765
Sir 5760
formulated 5759
lasting 5756
war@@ 5755
strict 5754
lock 5754
comment 5753
wisdom 5753
Mexico 5752
automatic 5751
charged 5749
struck 5748
ger 5743
gun 5743
ease 5741
Island 5739
des@@ 5739
amounts 5738
alize 5737
See 5736
feed 5735
AS@@ 5731
Thanks 5729
Park 5725
Professor 5725
headquarters 5724
fer@@ 5713
ently 5712
ES 5707
fur@@ 5706
sheet 5705
subjects 5705
streets 5702
bul@@ 5699
Democratic 5699
AC@@ 5698
distributed 5696
pr@@ 5695
lying 5695
conventional 5694
ational 5693
hydro@@ 5691
ised 5683
fellow 5682
chosen 5681
visited 5681
flows 5680
spoken 5678
extensive 5678
noticed 5678
reserve 5677
ders 5672
ink 5671
constantly 5671
ach@@ 5669
understood 5669
listening 5665
Man 5663
percentage 5663
锛@@ 5662
cooperate 5661
Min@@ 5658
measured 5656
controls 5649
heaven 5649
terrible 5647
theme 5646
ass 5645
ownership 5643
productive 5641
hate 5632
walls 5632
confident 5629
A. 5628
ished 5628
Me@@ 5627
ma@@ 5622
delivered 5622
nose 5621
ow@@ 5617
stream 5614
Besides 5613
causing 5612
fo@@ 5611
legitimate 5611
giant 5608
replace 5605
tough 5599
constitute 5598
lets 5597
previously 5595
-up 5593
transformation 5592
fication 5591
Mc@@ 5590
pure 5589
outer 5589
trends 5589
fallen 5585
Power 5584
honor 5583
blind 5583
visitors 5582
watched 5581
socialist 5581
Rec@@ 5580
taught 5578
falls 5578
yield 5577
Spanish 5576
Korean 5576
sugar 5574
recommendation 5574
sin 5572
jump 5572
14@@ 5572
runs 5569
theoretical 5569
refused 5566
accuracy 5566
commodities 5557
farm 5555
electrical 5552
stronger 5550
collaboration 5547
ret@@ 5546
Peter 5544
kers 5541
clothing 5537
massive 5537
calculation 5531
territorial 5530
Rapporteur 5529
victory 5528
eli@@ 5525
steady 5523
deals 5522
Po@@ 5522
od@@ 5520
equivalent 5518
ours 5517
gained 5517
leg 5514
Planning 5514
TE@@ 5510
water@@ 5509
reforms 5509
2,@@ 5509
normally 5506
year-old 5505
gross 5505
follow-up 5503
tie 5499
Project 5498
employed 5496
prosperity 5492
low-@@ 5490
foods 5487
proud 5480
entity 5478
arbitration 5478
lift 5475
kin@@ 5475
resulted 5474
composed 5474
squ@@ 5473
mineral 5470
opinions 5470
af@@ 5469
honest 5468
AD@@ 5466
mountains 5465
Lo@@ 5464
calm 5463
payments 5463
infection 5458
ecological 5453
AND 5452
creative 5444
colleagues 5442
two-@@ 5441
depend 5440
pool 5438
association 5438
Smith 5436
pulled 5436
concentration 5436
disputes 5436
judgment 5435
dogs 5434
preparing 5433
okay 5431
pri@@ 5430
tall 5427
strengthened 5427
Building 5427
ung 5423
implications 5422
begins 5421
expanded 5420
discharge 5416
Still 5416
Gr@@ 5413
bottle 5411
blow 5411
Pl@@ 5410
incident 5410
Indeed 5408
puts 5406
sions 5399
biological 5399
protecting 5398
Policy 5397
counter 5392
tis 5391
displaced 5391
Meeting 5384
kitchen 5383
picked 5382
No@@ 5382
Wan 5381
desk 5380
convenient 5377
radi@@ 5376
flexible 5376
waves 5373
Go@@ 5372
candidates 5372
Training 5372
regularly 5371
informal 5370
courts 5369
silence 5367
Nothing 5365
indigenous 5364
tes 5362
surprised 5361
category 5361
OK 5360
tested 5358
54 5358
Tribunal 5357
ocean 5356
interface 5354
Give 5351
pa@@ 5350
functional 5350
strike 5349
53 5349
mixed 5348
enhanced 5348
hat 5343
atory 5342
ING 5342
committees 5340
HK@@ 5339
revenue 5338
worldwide 5338
keeps 5337
77 5334
surgery 5333
messages 5331
imagine 5328
machines 5324
arrive 5322
revealed 5321
consists 5318
courage 5317
Col@@ 5317
hall 5315
sudden 5313
ff@@ 5303
Br@@ 5303
dle 5302
SA@@ 5300
exists 5299
aims 5296
argument 5294
sessions 5290
pursue 5284
mistakes 5284
cha@@ 5281
decrease 5280
por@@ 5276
covering 5275
legs 5273
opposition 5272
afford 5271
California 5271
Brazil 5269
acy 5268
ls 5267
oned 5266
tradition 5264
recommend 5263
shoulder 5259
ear@@ 5258
wi@@ 5257
Customs 5257
Keep 5256
qualified 5252
regret 5251
Support 5251
destroyed 5249
cul@@ 5248
Results 5248
magazine 5247
an-@@ 5246
saved 5245
Community 5244
Haiti 5244
thick 5241
universities 5239
ric@@ 5238
Should 5236
select 5236
federal 5233
hell 5232
attended 5231
luck 5230
65 5230
ears 5227
ths 5223
collected 5222
worker 5220
employee 5219
Co 5219
comparison 5217
eng@@ 5212
Tibetan 5209
somebody 5206
regulatory 5205
consent 5204
serving 5204
Environmental 5201
habit 5200
inter 5196
radiation 5195
mention 5193
balanced 5192
enjoyed 5191
eliminate 5191
Sudan 5191
enti@@ 5190
taxes 5189
sa@@ 5186
Har@@ 5186
settled 5184
representation 5183
HK 5178
applicant 5175
ther@@ 5174
ur 5172
Tell 5172
everywhere 5172
machinery 5170
Work 5169
expectations 5168
organize 5168
height 5167
breath 5165
zed 5161
Okay 5151
med 5149
Joint 5149
Further 5148
smart 5146
58 5145
52 5145
Environment 5142
biennium 5142
succeed 5141
Never 5140
clock 5140
~ 5137
ana 5137
sees 5137
totally 5136
Land 5132
personality 5131
Right 5129
cu@@ 5128
burning 5128
scheduled 5127
transaction 5124
tical 5124
monthly 5124
tly 5122
Mor@@ 5121
Sub@@ 5121
head@@ 5119
protein 5115
ey 5115
collect 5114
permit 5113
encouraging 5112
roll 5111
format 5108
wing 5105
lessons 5104
organic 5103
Geneva 5103
earnings 5102
northern 5101
bonds 5099
asset 5098
mood 5098
tells 5096
yl@@ 5095
lin@@ 5095
sive 5092
humans 5091
elderly 5091
Dr 5089
fying 5088
verification 5088
camera 5087
print 5086
Paul 5085
pal@@ 5085
Lu@@ 5083
derived 5082
interaction 5081
starts 5081
fr@@ 5077
mor@@ 5077
historic 5076
newly 5074
enhancing 5074
intergovernmental 5074
Her@@ 5072
visual 5071
UNHCR 5071
contributed 5064
che@@ 5061
tons 5061
zones 5060
invention 5060
iting 5059
forming 5058
aw@@ 5057
tight 5057
prime 5056
ny 5055
Christ 5055
ca@@ 5054
measuring 5054
fiscal 5050
Kingdom 5050
ick 5049
powder 5048
audit 5048
Everyone 5046
windows 5046
tim@@ 5043
sport 5042
to-@@ 5038
hy@@ 5038
makers 5037
penalty 5037
examined 5034
sil@@ 5030
tion@@ 5029
eg@@ 5027
refers 5020
reflects 5019
younger 5016
grant 5015
urged 5015
OR@@ 5014
que 5012
claimed 5011
drew 5009
equally 5009
switch 5007
co 5002
planet 5001
cat@@ 5000
breaking 4999
Dec@@ 4999
tour 4996
aside 4996
intention 4996
depth 4995
obligation 4994
hu@@ 4992
secretariat 4992
Data 4989
genetic 4986
Population 4982
priorities 4982
owing 4981
completion 4980
shadow 4980
Res@@ 4979
indicates 4978
detention 4978
gains 4977
Review 4976
tiny 4973
religion 4971
enormous 4971
route 4970
600 4968
dly 4968
experiments 4963
assigned 4963
talent 4962
pipe 4961
possibly 4959
spare 4957
wet 4956
evolution 4955
pages 4954
branches 4954
ot@@ 4953
internet 4953
generated 4953
click 4953
Him 4950
boost 4950
clo@@ 4949
ture 4948
Greek 4947
arranged 4945
discipline 4944
eggs 4944
degrees 4942
hang 4938
railway 4938
hill 4935
Long 4934
Spain 4931
shareholders 4929
IV 4927
char@@ 4927
categories 4927
reputation 4925
mankind 4919
legislative 4919
Ge@@ 4918
wake 4917
ase 4915
attractive 4912
ges 4912
ra 4909
flood 4909
participating 4909
automatically 4908
passengers 4908
post@@ 4906
ID 4905
worried 4904
ward 4897
acute 4896
29@@ 4896
So@@ 4895
helpful 4893
coverage 4889
sen@@ 4888
declaration 4888
56 4886
wheel 4883
< 4881
Territories 4872
bn 4870
Mother 4870
hor@@ 4869
programming 4869
cheap 4868
cream 4867
pers 4866
ser@@ 4864
ute 4864
ile 4864
colour 4860
promised 4859
Men 4859
covers 4858
land@@ 4857
tension 4857
invest 4855
Green 4853
samples 4852
corruption 4852
Note 4851
handed 4848
vulnerable 4848
tobacco 4846
winning 4846
bro@@ 4844
conferences 4842
IT@@ 4838
ered 4838
ide@@ 4836
emotional 4835
alia 4835
involves 4834
k-@@ 4834
Legislative 4834
formula 4832
citizen 4831
gre@@ 4829
magnetic 4828
16@@ 4828
tube 4824
publication 4824
define 4823
golden 4819
1998 4817
Jerusalem 4816
ist@@ 4815
column 4812
} 4812
controlling 4811
absolutely 4811
Im@@ 4810
occasion 4810
Mi@@ 4809
AIDS 4809
Local 4809
Prime 4808
Parties 4808
secretary 4806
tender 4801
solar 4800
minorities 4799
burn 4799
primarily 4798
analyze 4798
tone 4796
exploration 4793
hardware 4789
philosophy 4787
dem@@ 4786
namely 4786
certificates 4786
pen@@ 4784
Following 4784
stores 4780
amp 4778
liked 4778
directors 4778
guests 4777
extreme 4774
warned 4773
ain@@ 4772
{ 4771
destroy 4769
laser 4766
fy 4765
lam@@ 4764
description 4762
3-@@ 4760
strictly 4757
register 4757
candidate 4757
Construction 4757
camp 4755
bas@@ 4753
tors 4750
rely 4749
favour 4749
knowing 4748
Remember 4747
ane 4747
ER 4747
Zhang 4746
Somalia 4745
lawyer 4744
400 4744
involve 4743
deployment 4742
Bur@@ 4740
cal@@ 4740
AP@@ 4739
acceptance 4739
shock 4739
fiber 4738
exception 4737
arrested 4736
thereof 4734
entering 4734
Ms 4733
reserves 4732
proceedings 4731
disabled 4731
istic 4729
Sun 4729
ell 4727
productivity 4727
paragraphs 4727
bond 4723
boundary 4723
Safety 4723
alcohol 4722
witness 4719
contrary 4718
rational 4718
convinced 4716
EC@@ 4715
oning 4715
managing 4712
finds 4710
Father 4709
ved 4706
plus 4705
hal@@ 4705
brown 4703
ee 4702
mid-@@ 4700
accused 4698
replaced 4697
sy 4695
ft 4695
imports 4693
string 4693
explanation 4691
smell 4688
tre@@ 4686
discusses 4684
27@@ 4683
tional 4681
servant 4680
criticism 4680
email 4679
ened 4678
Justice 4678
wire 4677
66 4677
stages 4675
ple 4673
acquisition 4673
00@@ 4671
substance 4669
calculated 4667
assess 4666
gen@@ 4665
documentation 4664
generate 4663
Act 4663
illness 4656
unity 4655
answers 4654
ann@@ 4652
200@@ 4652
comfort 4651
cuts 4651
chicken 4650
circle 4649
blame 4648
cleaning 4648
trained 4646
ali@@ 4645
narrow 4645
lucky 4640
eastern 4639
coordinate 4638
symbol 4637
gathered 4637
meter 4637
portion 4636
sm@@ 4635
mer 4635
prospects 4635
lake 4633
statistical 4633
capabilities 4631
retail 4629
Macao 4626
domain 4625
sending 4624
zing 4623
30@@ 4620
adjust 4619
density 4619
survival 4618
approximately 4616
commerce 4615
pot 4610
participated 4610
gar@@ 4610
ast 4608
Energy 4608
Lebanon 4608
lesson 4607
captain 4607
Measures 4607
channels 4606
top@@ 4605
ven@@ 4603
breakfast 4603
servants 4603
ening 4602
moves 4602
favor 4598
Pr@@ 4596
fairly 4593
vessels 4593
ot 4592
ances 4591
installation 4591
ure@@ 4591
LE@@ 4591
ited 4590
nobody 4588
fails 4587
assume 4586
lu@@ 4585
ip@@ 4584
Kowloon 4582
sustained 4580
CO@@ 4575
anc@@ 4571
Cultural 4570
exploitation 4569
refuse 4568
apartment 4566
pres@@ 4565
observation 4564
tures 4563
mines 4563
Or@@ 4562
exam 4562
coordinated 4562
yours 4561
monetary 4554
wash 4553
expanding 4552
brothers 4550
Next 4550
abilities 4548
plenty 4546
transferred 4546
occurs 4544
1999 4543
Labour 4543
pat@@ 4542
returns 4541
summit 4541
TR@@ 4540
ads 4539
lending 4538
fac@@ 4537
ole 4536
soci@@ 4535
roof 4533
transactions 4531
directed 4530
Italian 4529
involvement 4525
behaviour 4524
cloud 4523
furniture 4523
tissue 4523
Jo@@ 4523
summary 4520
adult 4520
Chen 4518
loc@@ 4515
rap@@ 4514
cried 4513
AT@@ 4513
Treasury 4511
ising 4510
hidden 4508
Ma@@ 4507
Pe@@ 4503
swimming 4501
linear 4498
arts 4497
spite 4497
conclusions 4497
Festival 4497
invitation 4497
obviously 4496
earn 4494
stipulated 4494
laugh 4493
dish 4493
As@@ 4491
victim 4490
recession 4487
thermal 4487
affecting 4486
ities 4485
Whether 4484
Being 4482
precious 4481
Protocol 4481
definitely 4478
hom@@ 4477
signing 4477
harder 4474
ged 4471
ton@@ 4471
San 4469
imp@@ 4468
disasters 4468
separation 4465
vegetables 4463
receipt 4462
allowing 4460
demonstrated 4460
heavily 4459
defence 4459
att@@ 4456
rid 4454
whenever 4453
cable 4453
ari@@ 4453
expertise 4453
architecture 4451
attempts 4451
lat@@ 4447
Islamic 4447
and-@@ 4445
ids 4442
organizational 4442
imported 4442
singing 4441
Sal@@ 4440
visiting 4440
Limited 4440
Listen 4439
acceptable 4437
intervention 4437
Lee 4436
sun@@ 4434
seats 4434
fans 4433
hol@@ 4433
Brown 4433
un 4432
ban 4431
periods 4431
Code 4428
'clock 4428
hearts 4428
wished 4427
coast 4426
dies 4423
decision-making 4423
button 4421
comply 4420
Space 4418
adults 4417
ban@@ 4417
formulation 4417
graduate 4416
57 4416
seed 4415
13@@ 4414
plain 4412
Eastern 4409
sleeping 4409
honour 4408
3,@@ 4408
ol 4406
TI@@ 4404
unknown 4403
Housing 4403
Bi@@ 4400
presentation 4399
Caribbean 4399
Legal 4396
pan@@ 4395
Four 4395
la 4394
WTO 4394
forecast 4391
Fourth 4391
laboratory 4388
dressed 4387
voltage 4387
hide 4386
rolling 4385
award 4385
uniform 4383
ack 4382
star@@ 4379
reconciliation 4379
ey@@ 4378
killing 4377
permission 4377
exposure 4376
pilot 4376
IN 4375
restricted 4375
funded 4370
static 4366
donor 4365
wor@@ 4364
constructive 4364
virtual 4363
ail 4360
men@@ 4360
resolved 4360
attract 4359
preventing 4359
PC 4359
Henry 4358
provisional 4358
85 4355
mut@@ 4353
pounds 4353
default 4352
ty@@ 4352
Cuba 4352
necessarily 4351
tied 4350
Sp@@ 4348
pump 4348
Society 4348
thereby 4347
contacts 4344
Fe@@ 4340
em 4338
everyday 4337
form@@ 4336
Rules 4336
To@@ 4335
restrictions 4335
shipment 4335
lips 4333
declined 4333
headed 4332
Trans@@ 4331
para 4331
procurement 4330
Cha@@ 4329
fil@@ 4328
racial 4326
fix 4324
Queen 4320
Google 4319
bur@@ 4318
devoted 4318
parent 4318
profound 4314
innovative 4314
Cal@@ 4314
movements 4313
civilization 4313
analysts 4313
commonly 4312
paint 4310
revolution 4310
beneficial 4310
thr@@ 4308
subsequent 4305
jo@@ 4303
ude 4301
dri@@ 4301
loves 4300
silent 4298
AM@@ 4298
EM@@ 4298
diversity 4297
describes 4297
occupation 4296
somewhat 4296
peak 4294
landscape 4291
ess@@ 4291
Quality 4290
by@@ 4289
fewer 4287
dealt 4287
mainland 4286
specifically 4286
lit@@ 4284
qui@@ 4282
damaged 4282
manufacture 4281
psychological 4281
transparency 4281
beside 4280
ier 4280
suggestion 4279
emb@@ 4277
1-@@ 4277
Indonesia 4276
demonstrate 4275
sake 4273
gene 4273
governance 4269
passage 4269
unusual 4267
absolute 4267
settle 4266
C. 4263
mix 4262
PO@@ 4262
installed 4261
visits 4261
vacation 4258
threw 4256
solving 4255
obstacles 4255
complaints 4254
crops 4253
alist 4253
ON@@ 4251
harmony 4251
fortune 4249
d.@@ 4249
films 4247
economics 4247
sol@@ 4246
concepts 4246
reaching 4245
shaped 4244
ST@@ 4241
dependent 4241
Exchange 4241
geographical 4241
bor@@ 4240
2-@@ 4240
strain 4237
copies 4235
territories 4235
surely 4233
vessel 4233
lion 4232
governing 4232
ick@@ 4231
threats 4229
ish@@ 4226
arrival 4226
chemicals 4226
Commercial 4225
humanity 4224
impose 4224
Permanent 4224
ine@@ 4223
optical 4223
shouldn 4222
Unfortunately 4222
any@@ 4221
ath@@ 4220
nearby 4219
lands 4219
filter 4218
hel@@ 4217
cloth 4216
Microsoft 4216
allocation 4216
photo 4215
symptoms 4215
Ste@@ 4214
violent 4214
Nevertheless 4214
modified 4212
performing 4212
widespread 4211
bio@@ 4211
mate 4210
Within 4209
syn@@ 4208
campus 4208
gri@@ 4207
Letter 4206
Try 4204
Medical 4203
logic 4201
onic 4198
guilty 4198
promoted 4197
Greece 4195
colors 4193
anywhere 4193
stayed 4192
realization 4192
speaker 4190
Ltd 4190
val@@ 4189
presidential 4189
Requests 4187
pursuant 4186
Recalling 4186
carrier 4185
ous@@ 4185
tongue 4184
Zealand 4183
mad 4179
shirt 4178
dad 4177
ences 4176
applies 4173
judges 4172
64 4172
precision 4171
acquired 4170
communicate 4166
hoping 4166
configuration 4164
pocket 4162
beer 4162
hum@@ 4162
restore 4161
pul@@ 4160
cooperative 4160
closing 4159
heating 4158
somewhere 4158
vers 4157
tered 4155
hath 4154
firmly 4152
impression 4152
liver 4150
61 4150
locked 4146
solved 4145
migration 4145
tickets 4144
tin 4144
innocent 4143
native 4142
preventive 4141
cap@@ 4140
score 4140
mortgage 4139
Vienna 4139
valve 4137
Technical 4137
essence 4136
wheat 4136
ography 4136
James 4136
beings 4135
IC 4131
fired 4130
ef@@ 4128
fluid 4128
fears 4128
cake 4124
59 4124
mil@@ 4123
anniversary 4122
darkness 4120
forum 4120
expenditures 4120
trafficking 4120
lab@@ 4119
repeated 4119
logical 4119
Political 4118
cross-@@ 4117
childhood 4115
ES@@ 4114
Criminal 4113
ements 4112
accidents 4111
cotton 4108
roles 4108
Thailand 4108
restructuring 4107
68 4103
remarkable 4102
e. 4101
95 4101
songs 4100
harmonious 4097
flexibility 4097
1,000 4095
discount 4091
ir 4090
maritime 4090
mouse 4089
compare 4089
zero 4086
Taking 4086
artificial 4084
ion 4081
admit 4080
breast 4079
modernization 4079
exhibition 4079
ya 4078
zz@@ 4077
fingers 4077
,@@ 4077
emphasized 4075
enc@@ 4075
Ob@@ 4071
three-@@ 4065
p.m. 4065
rough 4064
suppose 4064
minor 4063
Area 4062
resume 4061
panel 4059
ham@@ 4059
tail 4058
safeguard 4058
Angola 4056
clouds 4055
egg 4055
ination 4055
donors 4052
confirm 4048
signals 4048
equ@@ 4046
Method 4045
Army 4044
parallel 4043
analyses 4042
injured 4042
necessity 4041
belong 4041
bri@@ 4040
wider 4039
theories 4038
ach 4037
nationality 4037
destination 4036
beach 4035
parameter 4035
exact 4035
dying 4033
god 4032
instructions 4031
Offr 4031
Decade 4029
yn@@ 4027
elling 4027
5-@@ 4026
prohibited 4023
don@@ 4022
municipalities 4022
choices 4021
printed 4020
ame 4020
availability 4019
belt 4017
Mal@@ 4013
01 4010
considers 4005
produces 4002
conclude 4001
ners 3999
depression 3999
admitted 3999
entrance 3998
ultimate 3995
ulation 3994
seconds 3994
shipping 3994
fate 3993
weapon 3992
bing 3991
vo@@ 3991
Ver@@ 3989
custom 3988
withdrawal 3987
operators 3986
coach 3985
compound 3984
electro@@ 3983
publications 3981
Sch@@ 3980
facility 3978
TH@@ 3977
arrange 3976
short-term 3974
photos 3973
ov@@ 3972
Bl@@ 3972
imprisonment 3969
crazy 3968
meters 3968
elsewhere 3967
residential 3967
cultures 3967
illicit 3967
Croatia 3967
199@@ 3966
mom 3964
survive 3963
urge 3962
ae 3962
recall 3962
ash@@ 3959
cargo 3959
Home 3958
Tokyo 3955
arising 3954
accompanied 3951
excess 3949
visible 3948
belongs 3946
mirror 3945
terrorist 3945
SO@@ 3944
Prevention 3943
deposits 3942
tering 3942
reliability 3941
Black 3938
cer@@ 3938
substances 3938
sole 3938
lovely 3935
exciting 3934
regards 3934
badly 3932
variable 3932
tank 3931
La@@ 3930
Robert 3929
Wh@@ 3928
800 3928
post-@@ 3927
apple 3926
routine 3925
funny 3920
perfectly 3918
Commerce 3918
wages 3918
entities 3918
maker 3916
gro@@ 3915
inv@@ 3915
convention 3914
satisfy 3913
Apple 3913
den 3913
habits 3911
leaf 3909
Put 3908
Sam@@ 3905
eless 3905
Prince 3904
exposed 3904
sor@@ 3904
injection 3904
continent 3904
Bu@@ 3903
ular 3903
hyper@@ 3903
cra@@ 3901
sheep 3900
mothers 3900
Little 3898
Em@@ 3898
72 3898
kid 3897
Sustainable 3895
ware 3894
spiritual 3893
conducting 3891
sections 3888
ne 3886
tape 3884
magic 3884
tendency 3884
Liu 3884
arm@@ 3882
voting 3882
pressing 3882
towns 3882
consciousness 3880
collapse 3879
passenger 3879
preliminary 3877
M. 3877
loving 3875
ose 3874
stones 3871
mid@@ 3870
doors 3869
superior 3868
resident 3868
nervous 3867
62 3867
sword 3866
B. 3866
05 3865
Family 3865
stuck 3864
Finance 3864
kiss 3862
Countries 3862
Small 3861
ong@@ 3861
rejected 3860
67 3860
63 3860
Australian 3860
copyright 3859
touched 3858
AS 3856
sequence 3856
bal@@ 3856
pleasant 3856
ards 3855
win@@ 3854
burst 3854
thirty 3854
Students 3853
ets 3853
highway 3853
worthy 3851
zhou 3851
dic@@ 3851
operative 3851
authors 3848
populations 3848
surrounding 3846
tries 3845
classification 3844
allocated 3844
pur@@ 3843
my@@ 3843
UNPROFOR 3843
Fl@@ 3841
Secondly 3841
forests 3837
typically 3836
designing 3836
addressing 3836
finger 3835
actor 3833
systematic 3833
Fifth 3832
shell 3831
Old 3831
newspapers 3830
vocational 3829
exercises 3827
yard 3827
hasn 3826
off@@ 3826
circulation 3825
oring 3825
so-called 3823
ing.@@ 3822
pe 3821
integral 3818
propose 3817
IS 3816
exceed 3816
disposal 3816
all-@@ 3814
stroke 3814
Ireland 3813
initiated 3813
Given 3811
minds 3807
om 3805
grounds 3804
bills 3804
Sorry 3804
tin@@ 3803
contemporary 3802
tation 3801
09 3801
ori@@ 3799
Martin 3799
ju@@ 3797
stomach 3797
invite 3796
missed 3795
Headquarters 3793
soldier 3792
beam 3792
pride 3791
1989 3790
arrest 3789
sec@@ 3788
bags 3787
optimization 3786
praise 3786
our@@ 3785
dy@@ 3784
tan@@ 3783
permitted 3783
continuously 3782
prospect 3782
emissions 3781
sentenced 3781
bil@@ 3779
utility 3779
mere 3779
Five 3779
treating 3778
ious 3778
constitutes 3778
gifts 3775
phones 3775
chest 3774
acc@@ 3774
Ma 3773
73 3773
founded 3769
movies 3769
oxygen 3766
Mark 3766
log 3766
topics 3766
UR@@ 3765
generations 3765
AN 3764
Tri@@ 3764
lim@@ 3762
1. 3761
classroom 3760
excited 3760
Bri@@ 3759
satisfactory 3757
operator 3754
intensity 3753
Master 3753
le-@@ 3752
Ber@@ 3751
Pi@@ 3750
ws 3749
pen 3747
dignity 3745
murder 3744
connect 3743
pushed 3743
Officer 3742
mi@@ 3742
ented 3740
affects 3740
civilians 3740
ans@@ 3739
flu@@ 3734
cant 3733
negotiation 3733
preceding 3732
stupid 3731
uh 3731
cooking 3731
Studies 3730
shan 3728
genuine 3727
stored 3726
Disarmament 3726
cure 3725
gear 3725
TA@@ 3725
WHO 3724
intelligent 3723
rocks 3723
knife 3722
News 3721
Ser@@ 3720
ment@@ 3720
coastal 3720
basketball 3718
partly 3718
TS 3716
grateful 3711
EL@@ 3711
prisoners 3711
J 3708
residence 3708
Reserve 3707
commit 3704
IP@@ 3702
artist 3701
apparent 3701
fies 3700
ath 3700
Supreme 3698
happening 3698
binding 3698
Carrie 3697
jumped 3697
ha 3696
errors 3696
commissions 3695
CC@@ 3694
forgotten 3692
chronic 3692
indicators 3692
flo@@ 3691
basically 3691
Open 3691
700 3691
Forum 3691
excessive 3690
corn 3689
Form 3689
attracted 3685
flag 3685
intense 3684
split 3683
Tai 3682
DC 3682
lowest 3679
underground 3678
improvements 3677
premises 3676
ind@@ 3675
ut 3675
Jane 3674
array 3674
bike 3672
graph 3672
99 3672
anti 3672
checked 3668
rush 3667
equation 3667
serves 3666
pose 3666
Burundi 3666
sted 3665
ta@@ 3665
ils 3665
Network 3665
cas@@ 3664
executives 3663
ica 3662
brush 3662
tro@@ 3660
au 3660
ID@@ 3660
holder 3659
induced 3658
hungry 3658
desert 3657
eness 3657
truck 3656
ta 3656
functioning 3656
Dynasty 3656
proceed 3656
Si@@ 3656
Te@@ 3653
licence 3652
Organisation 3652
CHAPTER 3651
mm 3649
Turkey 3648
discover 3645
aggression 3644
Ambassador 3643
stem 3642
oma 3641
US@@ 3641
fa@@ 3639
snow@@ 3638
adi@@ 3638
designs 3636
ah@@ 3634
SH@@ 3634
mu@@ 3632
guest 3630
loud 3630
missile 3630
bel@@ 3629
Cre@@ 3628
chart 3628
secrets 3628
intensive 3627
wanna 3627
ene 3625
threatened 3624
ory 3623
announcement 3621
ills 3621
interference 3620
realistic 3619
person@@ 3619
Clinton 3617
signature 3617
athletes 3616
Georgia 3616
vibration 3616
relate 3615
ow 3614
Very 3614
speakers 3613
Dad 3613
ce 3612
mortality 3612
oneself 3610
book@@ 3610
preserve 3609
welcomes 3609
bling 3608
ei@@ 3608
punished 3607
asleep 3607
freely 3604
harmful 3604
Provision 3600
Cap@@ 3599
ka 3598
Model 3598
checking 3598
chose 3597
treaties 3596
naturally 3594
relatives 3594
inf@@ 3593
ox@@ 3593
replacement 3592
da 3591
tower 3589
guns 3589
discovery 3589
couples 3588
locations 3588
handled 3588
briefly 3587
76 3586
Jim 3585
ium 3584
4,@@ 3584
shore 3583
dedicated 3582
buried 3579
meets 3577
Standard 3577
qualities 3576
removal 3573
chances 3573
fre@@ 3573
dancing 3572
Everything 3572
IL@@ 3571
remembered 3569
metres 3567
frequent 3567
We@@ 3565
mit@@ 3565
seal 3563
chemistry 3563
ishing 3561
formulate 3561
PR@@ 3561
Ji@@ 3560
Shi@@ 3560
argue 3560
gran@@ 3559
profile 3559
globalization 3559
expense 3557
Basic 3555
cro@@ 3554
divorce 3554
cook 3553
optimal 3552
Decides 3552
Tax 3551
rubber 3549
D. 3548
ruling 3548
copper 3547
emerged 3547
lawyers 3546
pursuit 3546
wings 3546
autumn 3544
She@@ 3543
submission 3543
4-@@ 3543
und@@ 3542
entertainment 3542
curve 3541
hood 3541
Hello 3541
auto 3541
Ben@@ 3540
ire 3540
earned 3539
holy 3538
reflection 3537
drinks 3536
schemes 3536
ures 3535
ON 3535
10.@@ 3534
fruits 3533
Dear 3533
Fi@@ 3531
deemed 3530
hypo@@ 3529
correctly 3529
excuse 3528
rivers 3528
han@@ 3528
employer 3527
2010 3526
feedback 3526
hospitals 3525
bly 3524
Joe 3523
drove 3521
sensor 3520
municipal 3520
refugee 3520
Implementation 3520
ect 3519
Press 3519
keys 3518
2. 3518
exclusive 3516
06 3516
passion 3515
tourist 3515
crack 3513
Military 3512
advisory 3512
cope 3508
ome 3507
shops 3507
Mom 3507
wound 3506
sub-@@ 3505
Industrial 3505
tables 3502
leg@@ 3502
societies 3502
long-@@ 3500
88 3499
employers 3498
prize 3498
Registration 3498
plan@@ 3497
hon@@ 3497
muscle 3497
Roman 3496
anybody 3495
osis 3495
acted 3495
71 3493
fan 3492
relates 3491
loose 3490
08 3490
adapt 3488
characterized 3487
William 3487
composite 3487
vertical 3486
photo@@ 3485
fun@@ 3484
Christian 3484
ac 3484
chip 3482
Iranian 3482
feeding 3481
crop 3480
Pol@@ 3479
possess 3478
Yang 3477
crew 3476
ports 3476
rarely 3475
cher 3473
fed 3473
dirty 3472
surplus 3472
dimension 3471
Assistant 3471
enemies 3469
cli@@ 3469
oh 3467
tolerance 3467
Contract 3467
bon@@ 3464
Cup 3464
TO 3464
instruction 3464
filed 3464
unified 3463
assessed 3463
deployed 3463
shoot 3462
98 3462
trademark 3461
Chicago 3460
stake 3459
black@@ 3458
celebrate 3458
ack@@ 3457
determining 3457
alarm 3457
electoral 3455
Mrs 3454
container 3454
suppliers 3453
constructed 3452
Soviet 3450
im 3450
69 3448
del@@ 3446
encourages 3445
update 3443
ther 3442
provincial 3442
incidents 3442
lonely 3441
Investment 3441
corporation 3441
complexity 3440
seized 3438
chi@@ 3437
validity 3437
stamp 3436
comm@@ 3436
preferred 3435
departure 3434
manufacturers 3434
competence 3434
conformity 3434
acquire 3434
RO@@ 3432
auction 3432
reward 3432
amazing 3431
extraordinary 3431
cap 3430
gs 3429
margin 3429
heritage 3428
toxic 3428
feasibility 3427
Ti@@ 3426
accordingly 3425
unlikely 3423
Hon@@ 3423
Dr@@ 3422
ris@@ 3422
packing 3421
County 3421
ek 3421
dare 3418
you@@ 3418
GDP 3417
Gl@@ 3417
pon@@ 3417
universe 3417
Assistance 3417
non-proliferation 3417
glasses 3415
twelve 3412
waited 3411
MO@@ 3410
matrix 3408
sn@@ 3408
fire@@ 3408
constitutional 3407
separated 3406
holes 3405
preparations 3405
producers 3405
tar@@ 3403
Resources 3402
150 3401
Jones 3400
bell 3400
At@@ 3399
Mike 3397
school@@ 3397
Val@@ 3397
carries 3396
Products 3396
constraints 3395
ums 3395
broader 3394
com 3394
Covenant 3392
74 3391
tively 3390
tennis 3389
analyzes 3388
glory 3387
AT 3387
Sichuan 3387
chocolate 3385
tip 3385
crystal 3384
spectrum 3384
onal 3384
suspect 3384
denied 3382
fathers 3382
AC 3382
households 3381
fu@@ 3380
il 3379
ran@@ 3378
HIV 3378
she@@ 3376
pack 3375
mature 3375
bo 3374
observations 3372
tically 3370
homework 3370
Ministers 3370
spar@@ 3369
lamp 3368
07 3367
alizing 3367
tle 3366
SA 3366
adds 3364
suspended 3361
leather 3360
assistant 3359
returning 3358
Me 3357
Lesson 3357
defend 3356
shake 3356
tourists 3354
enthusiasm 3354
separately 3354
5,000 3354
Fin@@ 3353
ace 3352
sincere 3351
ram@@ 3349
boo@@ 3349
invested 3349
half-@@ 3348
equipped 3348
Richard 3348
bath 3347
seeds 3345
luxury 3344
guided 3344
reverse 3344
asks 3343
ides 3343
directions 3343
rats 3343
ams 3340
advised 3340
Welcome 3339
Young 3336
Market 3334
juice 3334
immune 3333
bacteria 3333
shed 3332
dramatic 3332
possession 3332
holidays 3331
Times 3330
gue 3330
temple 3329
representing 3329
duc@@ 3328
ades 3327
silk 3327
Du@@ 3327
ays 3326
graphic 3324
play@@ 3324
creates 3324
retirement 3324
pay@@ 3323
Gen@@ 3322
correlation 3321
Later 3321
upset 3318
Change 3318
des 3318
dimensional 3317
remarks 3316
governmental 3316
ore@@ 3315
washing 3315
ere 3313
anymore 3313
remind 3312
sup@@ 3312
Northern 3312
Bay 3311
tips 3309
sin@@ 3309
hero 3308
ministers 3307
Was 3307
relax 3305
med@@ 3305
PL@@ 3304
Whatever 3304
cam@@ 3303
originally 3302
numerical 3302
q@@ 3300
sacrifice 3299
cement 3298
Morgan 3298
tens 3297
accelerate 3297
pic@@ 3296
ba 3296
posed 3295
farmer 3295
villages 3295
distinct 3293
tropical 3293
reproductive 3293
itation 3293
Jordan 3293
Deputy 3292
repeat 3290
ake 3290
run@@ 3289
Think 3289
blocks 3289
ultimately 3288
exit 3288
rac@@ 3287
borne 3287
vary 3287
Manager 3287
dozen 3286
forgot 3285
romantic 3284
Station 3284
adjusted 3282
memories 3281
arise 3280
Staff 3279
Des@@ 3277
ices 3277
concert 3273
tom@@ 3273
accomplished 3273
outs 3272
steam 3271
exp@@ 3271
reveal 3270
day@@ 3269
allowance 3268
Has 3265
Ru@@ 3264
League 3263
qualifications 3262
equitable 3262
Guangdong 3261
approve 3260
bre@@ 3260
Spring 3260
displayed 3259
din@@ 3259
filling 3259
02 3258
analyzing 3256
abandoned 3256
workshop 3256
lists 3256
inate 3255
feasible 3254
wore 3254
inevitable 3253
wage 3253
aking 3253
gentle 3252
Trust 3251
stri@@ 3250
shelter 3250
lifted 3250
Engineering 3250
conc@@ 3249
03 3248
gn@@ 3247
Big 3247
Shenzhen 3247
92 3246
Upon 3246
L.@@ 3246
Charles 3245
ii 3245
rolled 3244
focusing 3244
Gar@@ 3244
96 3242
debts 3241
desired 3239
contributing 3239
ME@@ 3238
Hotel 3238
Learn 3238
transparent 3237
deaths 3237
inter-@@ 3236
gather 3235
abide 3235
moments 3234
bled 3233
depending 3232
subsidiary 3232
Rome 3232
val 3231
uncertainty 3231
hi 3231
Cur@@ 3230
EN 3230
grows 3230
IAEA 3230
pension 3229
LO@@ 3229
bitter 3228
viewed 3228
disk 3228
proliferation 3228
Panel 3228
regardless 3226
recommends 3226
e.g. 3226
Moscow 3225
hung 3224
transform 3224
investor 3224
adverse 3224
compete 3223
usage 3223
fever 3223
assumed 3223
detect 3222
taxi 3222
sis 3221
hanging 3221
yp@@ 3221
deficit 3220
underlying 3220
Ukraine 3220
stepped 3219
Academy 3218
Pen@@ 3217
isi@@ 3216
Cambodia 3216
fifty 3215
Char@@ 3215
Foundation 3215
telecommunications 3215
apparently 3214
undertaking 3213
Figure 3212
pec@@ 3211
mixture 3210
86 3209
Rel@@ 3208
roots 3208
fulfil 3207
voters 3205
organisations 3205
nursing 3204
Communist 3204
ord@@ 3203
ces 3202
Moses 3202
anyway 3201
horses 3201
particles 3201
Art 3201
loading 3201
atives 3200
No.@@ 3200
12.@@ 3199
Fed 3195
inventory 3195
vice 3194
transit 3193
ese 3192
1994-1995 3192
94 3191
opposed 3191
elimination 3190
Insurance 3189
spr@@ 3188
The@@ 3188
districts 3188
Corporation 3187
ji@@ 3187
processed 3185
supplier 3185
tremendous 3184
conversion 3183
shooting 3182
soup 3181
ail@@ 3181
swim 3181
purchasing 3181
pending 3180
Sur@@ 3180
ashes 3180
duration 3179
na 3179
dered 3179
crash 3178
AL 3177
random 3176
pregnant 3176
grand 3175
ailing 3175
pled 3175
investigations 3174
78 3174
emotions 3173
ately 3172
applicants 3172
CS@@ 3172
shortage 3172
kes 3171
Ah 3170
lifetime 3170
influenced 3170
sof@@ 3169
concentrate 3169
failing 3168
lend 3168
bones 3167
instant 3166
chamber 3166
Vi@@ 3166
sixth 3166
Library 3166
hur@@ 3165
bomb 3165
Hu 3164
aviation 3164
imagination 3163
orientation 3162
thoroughly 3162
logistics 3160
affair 3159
angel 3159
Others 3158
beneath 3158
specify 3155
cop@@ 3155
Main 3154
pursued 3154
China-@@ 3154
mice 3153
Language 3153
ama 3152
artistic 3150
painful 3150
81 3150
defeat 3149
Ap@@ 3149
93 3148
spo@@ 3147
readers 3146
boards 3146
trace 3144
Mer@@ 3143
Child 3143
ue 3141
Ed@@ 3140
borders 3140
hurry 3139
Hongkong 3139
ens@@ 3139
suspected 3138
surveillance 3137
elled 3136
Noting 3136
ancy 3135
epidemic 3135
emphasize 3135
distant 3134
guaranteed 3134
precise 3133
ured 3131
flesh 3129
momentum 3127
observer 3126
ble@@ 3126
tends 3125
graduates 3125
suspension 3125
tations 3125
Ming 3125
pile 3123
ign@@ 3123
Islands 3123
advise 3122
fulfill 3120
Computer 3119
drivers 3118
professionals 3118
Property 3118
existed 3117
partial 3116
bet 3116
ney 3114
Nor@@ 3113
shi@@ 3112
91 3112
gener@@ 3112
Tur@@ 3111
injuries 3111
Hall 3111
hear@@ 3110
Capital 3110
CI@@ 3110
dates 3109
quit 3107
ger@@ 3107
recover 3106
fool 3104
searching 3104
11.@@ 3104
limitation 3103
fabric 3102
thro@@ 3101
Transport 3101
Southern 3100
Elizabeth 3099
deserve 3098
tel@@ 3098
treasure 3098
alleged 3098
Coordination 3097
． 3096
dissemination 3095
Argentina 3094
velocity 3093
climb 3093
Wu 3093
ation-@@ 3091
Free 3091
sel@@ 3090
valley 3090
Excuse 3090
endorsed 3090
compulsory 3089
ables 3089
foreigners 3087
complaint 3087
reviews 3086
engagement 3086
factories 3086
ga@@ 3086
flu 3086
sti@@ 3085
festival 3084
emp@@ 3084
restaurants 3082
Palestine 3082
declare 3081
girlfriend 3080
terminal 3080
Treatment 3080
brilliant 3080
module 3079
Customer 3079
unprecedented 3078
Scientific 3077
intend 3077
poses 3076
recording 3075
autonomy 3075
sharply 3075
Do@@ 3074
diverse 3074
79 3074
demonstration 3073
eling 3073
manual 3073
Liberia 3073
organizing 3071
Survey 3071
gathering 3071
Accordingly 3070
politicians 3068
Much 3065
listened 3065
elec@@ 3064
occasions 3064
ound 3064
updated 3063
€ 3061
hai 3060
extraction 3060
bus@@ 3060
museum 3058
slip 3056
add@@ 3056
VI 3056
responses 3055
high-level 3053
accomplish 3052
PA 3052
23@@ 3052
executed 3051
guarantees 3051
izes 3051
flew 3050
82 3048
promises 3048
centers 3047
brave 3045
internationally 3045
uncle 3045
app@@ 3045
Certificate 3045
boxes 3045
profession 3044
mol@@ 3043
evident 3043
compromise 3043
tide 3043
7-@@ 3042
walks 3041
speaks 3040
Museum 3040
ax@@ 3039
nerve 3039
economists 3036
one@@ 3036
900 3035
Str@@ 3034
weakness 3034
methodology 3033
subregional 3033
kin 3030
outlook 3030
Works 3030
colleges 3029
bars 3028
hydraulic 3027
part@@ 3026
spl@@ 3026
Gaza 3026
ple@@ 3025
Mag@@ 3024
gratitude 3023
kingdom 3023
Actually 3023
staying 3022
backed 3019
actors 3018
preservation 3018
ries 3016
til@@ 3016
liable 3014
cho@@ 3013
hire 3013
repeatedly 3013
eth@@ 3012
classical 3012
mandates 3011
assignment 3010
pho@@ 3009
rev@@ 3008
aming 3008
Mac@@ 3008
Mil@@ 3007
Daniel 3007
consequence 3006
prince 3006
Bal@@ 3005
loaded 3004
uck 3004
Set 3004
sto@@ 3004
navigation 3003
respected 3003
here@@ 3003
Between 3003
Ter@@ 3002
awarded 2999
engineer 2999
ption 2998
iously 2996
promptly 2996
Due 2995
resistant 2995
Atlantic 2994
ino 2994
CO 2994
countryside 2994
deeper 2993
Ri@@ 2993
Joseph 2993
sting 2992
Coun@@ 2991
compl@@ 2991
87 2990
83 2989
kick 2989
aggressive 2987
clearance 2987
spots 2986
borrow 2984
warming 2984
withdraw 2984
assisted 2983
strive 2983
pushing 2982
bears 2982
holders 2981
jet 2980
break@@ 2980
Team 2980
5,@@ 2980
Ho@@ 2979
fracture 2979
12@@ 2979
pping 2979
budgetary 2979
mathematical 2977
wooden 2976
bra@@ 2976
crude 2976
berg 2975
broadcast 2975
insul@@ 2974
bol@@ 2972
Companies 2972
pop 2972
tunnel 2971
possibilities 2971
sum@@ 2971
tech 2971
decreased 2970
DE@@ 2970
frozen 2969
atively 2969
packed 2969
Natural 2968
predict 2968
Test 2968
Lake 2967
eager 2967
hadn 2966
crying 2965
Yu@@ 2965
bow 2964
drought 2964
assure 2963
acknowledged 2963
nutrition 2962
seminars 2962
worn 2961
potentially 2961
promulgated 2960
welding 2959
mp@@ 2959
Ger@@ 2958
Nature 2957
1988 2957
ship@@ 2956
thorough 2956
Cr@@ 2956
dev@@ 2955
ard@@ 2955
large-scale 2955
operated 2955
Until 2954
sul@@ 2953
concentrated 2953
Professional 2952
ron 2952
that@@ 2950
tooth 2949
settlements 2949
ough@@ 2948
passes 2946
state-owned 2945
valued 2944
menu 2944
literary 2943
ading 2943
favorable 2942
buyers 2942
IP 2940
talents 2940
Fr@@ 2939
plenary 2939
def@@ 2938
winner 2938
offence 2938
Hospital 2937
keen 2937
conscious 2937
contr@@ 2936
focuses 2935
protective 2934
neuro@@ 2934
responded 2934
parking 2934
i.e. 2934
honey 2933
USA 2933
arian 2933
04 2933
Por@@ 2933
capture 2931
Hol@@ 2931
Airport 2931
reservoir 2930
tt@@ 2930
interior 2929
ement@@ 2929
Vol@@ 2928
Bre@@ 2927
meaningful 2927
journalists 2927
barriers 2926
quietly 2926
dictionary 2926
pale 2925
s. 2924
entr@@ 2924
Mis@@ 2923
rer 2923
emotion 2923
rises 2921
simultaneously 2921
Vietnam 2921
classic 2919
sem@@ 2918
Order 2918
aked 2917
joining 2916
Cross 2916
cooling 2915
wireless 2915
drunk 2915
Mat@@ 2914
1990s 2912
illing 2912
wa@@ 2909
tumor 2909
sovereign 2909
budgets 2909
DNA 2909
genes 2908
Republican 2904
ug@@ 2903
Switzerland 2902
considerations 2902
centuries 2901
gray 2901
delayed 2901
Canadian 2900
wounded 2900
alists 2899
didnt 2898
fiftieth 2898
Ocean 2896
curriculum 2895
singer 2895
qualification 2893
subsidies 2893
periodic 2893
twenty-@@ 2892
peacekeeping 2892
eve 2889
pet 2889
Lehman 2889
Hel@@ 2888
hunger 2888
besides 2887
virtue 2887
counter@@ 2886
ave 2886
liber@@ 2885
multi 2885
spec@@ 2885
ever@@ 2882
oul@@ 2882
fuzzy 2882
favourable 2882
folk 2880
disappeared 2880
rest@@ 2879
corporations 2879
thrown 2879
impl@@ 2879
1st 2879
willingness 2878
islands 2878
Learning 2878
coordinates 2877
exc@@ 2875
eligible 2873
advancement 2873
mel@@ 2872
united 2872
protocol 2871
collecting 2870
antly 2869
ental 2869
thread 2868
install 2868
quarters 2867
resort 2866
Sweden 2866
robot 2865
harvest 2865
t.@@ 2865
UNCTAD 2865
Town 2864
interim 2864
packaging 2863
ups 2861
risen 2861
Personal 2861
eaten 2861
flame 2859
NO@@ 2859
Whoever 2858
Statistics 2856
steadily 2855
wed 2855
tracking 2855
,000 2854
time-@@ 2852
convenience 2852
isolated 2851
mutually 2850
cigarette 2849
ined 2848
ate@@ 2848
pricing 2848
flights 2848
enjoying 2847
Youth 2846
ao@@ 2846
explosion 2846
hired 2846
Provisions 2845
e-mail 2844
RMB 2844
norms 2843
gotta 2841
IM@@ 2840
battery 2840
preparatory 2840
babies 2839
UNFPA 2839
writers 2838
sized 2838
Scientists 2838
mill 2837
damages 2836
'I 2836
sing@@ 2836
sentences 2836
shoulders 2835
IR@@ 2835
diplomacy 2835
Ca@@ 2834
popul@@ 2834
ham 2833
i-@@ 2832
resumed 2832
www.@@ 2831
tal@@ 2830
89 2830
or-@@ 2829
incorporated 2829
gently 2828
votes 2828
capacities 2828
explains 2826
enabled 2826
essentially 2825
Sha 2825
integrate 2823
independently 2822
fought 2822
Marine 2822
Tang 2820
ignore 2819
dering 2819
seminar 2819
coordinating 2819
lawful 2818
planted 2817
burned 2817
Gre@@ 2816
anxiety 2816
Crime 2815
manufacturer 2814
initially 2814
Operations 2814
wal@@ 2813
ap 2813
Bas@@ 2812
enabling 2811
supplied 2811
coating 2808
suicide 2808
unexpected 2807
retain 2807
arguments 2807
targeted 2807
aying 2805
Sol@@ 2805
transmitted 2805
constitution 2804
bite 2803
checks 2803
stranger 2803
breaks 2802
diamond 2802
riding 2802
joke 2801
uni@@ 2801
well-being 2801
owed 2800
eth 2800
daughters 2800
Han 2799
24@@ 2799
dose 2799
ust@@ 2799
assessments 2799
foster 2799
reporters 2798
iled 2798
Cy@@ 2797
84 2797
a.@@ 2796
dynamics 2795
traveling 2795
tragedy 2794
adopting 2794
8-@@ 2793
influences 2792
TO@@ 2792
absorption 2791
j 2791
MI@@ 2791
associations 2790
first-@@ 2790
ush 2789
comp@@ 2789
Club 2789
int 2789
gentleman 2789
Award 2787
amid 2786
skilled 2786
IF@@ 2785
delicate 2785
Program 2785
Op@@ 2785
woods 2784
prominent 2784
motor@@ 2783
consistently 2783
Export 2783
Modern 2782
arch@@ 2781
let@@ 2781
mud 2781
consult 2780
rain@@ 2780
Journal 2779
physics 2779
throat 2778
dimensions 2778
reserved 2778
alloy 2778
expressions 2778
Sr 2778
rows 2776
accurately 2776
shoe 2776
slight 2775
AD 2775
Nuclear 2775
forgive 2775
sponsors 2775
dishes 2774
crowded 2774
prof@@ 2774
masses 2774
dawn 2774
ba@@ 2773
ank 2773
cont@@ 2772
Wil@@ 2772
eng 2771
ayed 2771
decides 2770
conducive 2770
UL@@ 2770
law@@ 2770
Agriculture 2770
ner@@ 2769
FAO 2769
assured 2768
dro@@ 2767
3. 2767
entrusted 2767
boom 2766
Electronic 2766
infl@@ 2765
Netherlands 2765
calculate 2764
97 2764
Rem@@ 2763
variation 2762
Securities 2762
salaries 2761
row@@ 2760
painted 2760
.It 2760
ili@@ 2759
china 2758
publicity 2757
deputy 2757
notify 2757
encountered 2757
psychology 2756
socio-economic 2756
Early 2755
smiled 2755
verify 2754
bidding 2754
grid 2754
roc@@ 2754
pregnancy 2754
Nobody 2754
a.m. 2753
ater 2752
construct 2752
pressed 2752
Guangzhou 2752
detected 2751
severely 2750
producer 2749
tal 2749
Je@@ 2749
prompt 2749
bedroom 2748
ray 2748
lighting 2747
advances 2747
pity 2746
sensitivity 2746
editor 2746
shortly 2746
synthesis 2744
restoration 2744
piano 2743
pray 2743
introducing 2743
History 2742
lease 2741
brands 2741
expects 2740
summarized 2740
rope 2740
artists 2739
solidarity 2739
generous 2738
Best 2737
None 2736
seller 2736
conventions 2736
weren 2736
Ba@@ 2736
connections 2736
Ham@@ 2736
st-@@ 2735
night@@ 2735
modest 2735
controller 2735
Ir@@ 2735
rival 2733
finite 2732
Unless 2731
sth 2731
Hy@@ 2729
Ten@@ 2729
pped 2727
succeeded 2727
lung 2726
ises 2725
rail 2725
promising 2725
tear 2724
casting 2724
retired 2724
fined 2724
Up 2723
appoint 2723
Thomas 2723
aling 2722
ub@@ 2722
with@@ 2722
annually 2720
advertisement 2720
C.@@ 2720
combine 2719
Malaysia 2719
laughter 2718
breathing 2717
vis@@ 2716
requiring 2716
yeah 2716
Can@@ 2715
recruitment 2715
gravity 2715
Ju@@ 2713
ians 2713
amed 2713
defects 2712
Non-@@ 2712
net@@ 2711
uring 2710
efficiently 2710
bases 2710
discussing 2708
crossed 2708
PDF 2708
Kuwait 2708
carriage 2707
Ill 2707
bowl 2704
ys@@ 2704
ulated 2703
Real 2703
recalled 2703
Light 2703
ains 2701
torture 2701
attacked 2700
prosecution 2700
renewed 2699
meals 2698
priest 2697
ural 2696
knee 2695
scientist 2694
ugly 2694
ologists 2694
stamps 2694
Sports 2694
odd 2693
SE@@ 2693
grades 2692
purchased 2692
contest 2692
zer 2691
120 2688
dam@@ 2687
rank 2687
molecular 2686
reservation 2686
indispensable 2685
choosing 2685
opens 2684
kindness 2684
nic@@ 2683
shook 2683
hem@@ 2682
handsome 2682
tum@@ 2681
calendar 2681
horizontal 2680
competitiveness 2680
hard@@ 2678
fal@@ 2678
Shall 2678
fusion 2677
Senate 2677
congresses 2677
affection 2676
Oil 2676
pit 2674
attach 2674
Rev@@ 2674
SP@@ 2674
sisters 2673
dominant 2673
hedge 2673
aded 2672
Persons 2672
nights 2671
Check 2670
List 2670
2,000 2670
ining 2669
generating 2669
youre 2669
‘ 2668
Humanitarian 2668
Strategy 2667
bit@@ 2667
economist 2667
Under@@ 2667
segment 2666
develops 2665
fraud 2663
subjected 2663
outlined 2662
ush@@ 2661
resist 2658
grace 2657
bankruptcy 2657
Uni@@ 2656
virtually 2656
Mel@@ 2656
Norway 2656
bun@@ 2655
Pri@@ 2654
analysed 2654
PS 2654
mess 2653
boring 2653
red@@ 2653
ella 2652
moderate 2651
Notice 2651
idi@@ 2650
distinction 2650
infected 2649
Preparatory 2649
Del@@ 2648
Muslim 2648
Similarly 2648
over-@@ 2647
verse 2647
Drug 2647
sorrow 2646
cluster 2646
download 2646
occupational 2646
appeals 2646
attitudes 2645
terror 2644
computing 2643
complain 2643
AP 2643
Royal 2643
Lands 2643
check@@ 2642
jacket 2641
ok 2640
oper@@ 2640
esti@@ 2640
CE@@ 2639
assisting 2639
wealthy 2638
lover 2636
DVD 2636
winds 2636
scholars 2636
pays 2634
lit 2634
Los 2633
nit@@ 2632
Experts 2632
designer 2631
degradation 2631
precisely 2631
publishing 2631
Sure 2631
PC@@ 2631
shame 2630
disorder 2630
eas@@ 2630
offset 2630
lecture 2629
2nd 2628
ep 2627
inclusion 2627
capita 2627
BO@@ 2626
Major 2626
Election 2625
lifting 2624
TION 2624
surveys 2623
nurse 2623
syndrome 2622
Ask 2622
Operation 2622
ashed 2621
enables 2621
matching 2621
Stanley 2621
abundant 2620
Yuan 2619
impacts 2619
ceiling 2617
py 2617
reflecting 2617
spell 2616
ethics 2616
tile 2616
vacuum 2616
Enterprises 2616
illa 2615
Again 2614
sion@@ 2614
Sen@@ 2613
capit@@ 2613
consolidation 2613
ologist 2613
shaft 2612
diabetes 2612
guards 2612
threshold 2611
blo@@ 2610
phrase 2610
Corp. 2610
roughly 2609
inquiry 2609
steal 2609
radar 2608
bes 2605
NGOs 2605
pin@@ 2604
Pur@@ 2604
ich 2603
Culture 2603
floating 2602
rings 2602
unnecessary 2601
reader 2601
cheaper 2601
Currently 2601
rat 2600
fatigue 2599
ied 2599
unhappy 2599
Wen 2599
patience 2598
6-@@ 2598
appraisal 2597
slept 2597
10,000 2597
agrees 2596
gun@@ 2595
pos@@ 2595
journal 2595
Stop 2594
Gulf 2594
hoc 2594
sou@@ 2593
Austria 2593
installations 2592
freight 2592
teen 2591
intr@@ 2591
clever 2591
ounding 2591
landing 2591
sheets 2590
Out 2590
fic@@ 2590
bent 2590
Swiss 2589
I. 2589
sman 2588
ATION 2588
human@@ 2588
mas@@ 2587
label 2587
acknowledge 2587
stolen 2587
pm 2587
membrane 2586
icity 2586
Territory 2586
Room 2586
pulse 2585
Production 2585
orange 2584
ome@@ 2584
efficacy 2583
congress 2583
scores 2582
expecting 2582
Goldman 2582
authorization 2582
pursuing 2581
workshops 2581
bles 2580
somehow 2578
Looking 2578
by-@@ 2578
Digital 2578
there@@ 2577
Po 2577
oms 2577
sponsored 2577
tier 2575
spirits 2575
pressures 2573
ministry 2573
anticipated 2573
accountability 2573
barrel 2573
decisive 2572
Relations 2572
Windows 2571
MS 2571
vegetable 2571
divide 2571
considerably 2570
lord 2570
ress 2569
en-@@ 2569
CD 2569
Almost 2569
CON@@ 2569
Class 2568
Is@@ 2568
stretch 2568
gh 2566
bulk 2566
identifying 2566
sophisticated 2566
inadequate 2566
Along 2566
Bob 2565
letting 2563
smo@@ 2563
dge 2562
long@@ 2562
cease 2562
wars 2561
ishes 2561
Sk@@ 2561
bubble 2561
Er@@ 2560
Bon@@ 2560
trick 2560
accounted 2560
bicycle 2559
aching 2559
ential 2558
gam@@ 2558
layout 2558
wo@@ 2558
boats 2557
lows 2557
pillar 2557
medal 2555
inspired 2555
drops 2555
issuing 2555
proposes 2555
trac@@ 2554
My@@ 2553
Z 2553
revision 2553
HO@@ 2552
yl 2551
Developing 2551
new@@ 2550
asting 2550
ros@@ 2550
cancel 2549
Wal@@ 2549
investing 2549
ed-@@ 2549
imaging 2548
analytical 2548
crossing 2548
revenues 2548
attempted 2547
camps 2546
lar@@ 2545
argued 2545
seldom 2545
Out@@ 2544
negotiating 2544
Principles 2544
pun@@ 2543
phenomena 2543
whereas 2542
Add 2542
temperatures 2541
musical 2540
ith 2540
ranks 2539
posted 2537
illegally 2537
ex 2536
craft 2536
ty-@@ 2536
tives 2536
gy 2536
portfolio 2536
Additional 2535
seismic 2534
dom 2534
free@@ 2533
Che@@ 2533
AB@@ 2533
scared 2532
hills 2532
CT 2531
Cat@@ 2530
ethical 2530
port@@ 2530
Susan 2529
accepting 2528
spreading 2528
Kar@@ 2528
captured 2526
cheese 2526
Field 2526
de-@@ 2526
subsequently 2525
.鈥 2525
loop 2524
Afghan 2523
alike 2522
anxious 2522
perceived 2521
appreciated 2521
aps 2521
conviction 2519
ailed 2519
Fre@@ 2519
cultivation 2519
Hi 2519
CC 2518
lab 2518
beef 2518
rep@@ 2517
immigration 2517
OAU 2517
princess 2516
governor 2516
Id 2516
strip 2515
Effect 2514
ket 2513
hunting 2513
Nigeria 2513
pig 2512
drag 2512
analyst 2512
100@@ 2512
Johnson 2512
hen@@ 2512
Point 2511
quarantine 2511
Subcommittee 2511
grasp 2510
Daily 2510
notion 2509
tent 2508
ingredients 2508
delicious 2507
ruled 2507
creativity 2506
elegant 2506
Fil@@ 2506
quar@@ 2506
dull 2506
fax 2505
wives 2505
ster@@ 2505
IMF 2505
BS 2504
Back 2504
Notes 2504
fled 2503
modeling 2502
ignored 2501
Holy 2501
nonlinear 2501
admission 2501
legally 2501
volunteers 2501
accommodation 2500
ini@@ 2500
Practice 2500
cease-fire 2500
personally 2499
scal@@ 2499
midnight 2499
comparative 2499
Pat@@ 2498
leisure 2497
flowing 2497
seventh 2497
km 2494
San@@ 2494
drama 2492
devil 2492
differential 2492
Say 2492
va 2491
quantitative 2491
lob@@ 2490
noon 2489
ford 2489
automobile 2489
Someone 2488
owns 2487
surge 2487
ison 2487
knocked 2486
shower 2486
creatures 2486
fold 2486
prediction 2486
noble 2486
smiling 2486
Suddenly 2486
hydrogen 2485
hygiene 2485
pink 2484
displacement 2484
predicted 2484
wolf 2484
migrant 2484
deliberations 2484
classified 2483
Sun@@ 2482
styles 2481
cattle 2481
plates 2480
colored 2479
ere@@ 2479
house@@ 2478
ared 2478
gged 2478
boyfriend 2477
educated 2477
grey 2477
developers 2476
enhancement 2476
buyer 2476
deny 2475
inhabitants 2474
desirable 2474
mile 2474
deformation 2474
toys 2474
Rio 2474
ladies 2473
insufficient 2473
creature 2473
unions 2471
real@@ 2471
Xinjiang 2471
slope 2470
spatial 2470
traditions 2470
Chi@@ 2470
conscience 2470
dioxide 2469
tra@@ 2469
Against 2469
infant 2468
breeding 2468
forty 2467
outline 2467
auto@@ 2466
poetry 2466
Everybody 2466
engineers 2466
Poland 2466
above-mentioned 2466
differ 2464
Reform 2464
blade 2464
fierce 2464
stock@@ 2464
safely 2464
Bro@@ 2463
challenging 2463
Jean 2463
tribute 2462
Frank 2461
threatening 2461
ze@@ 2461
`I 2461
cut@@ 2460
reception 2460
afterwards 2460
struggling 2459
cord 2459
ada 2459
ED@@ 2458
Philippines 2458
royal 2458
Tin 2458
0,000 2457
tackle 2456
gotten 2456
statutory 2456
circular 2455
ket@@ 2455
objection 2455
Bosnian 2455
speci@@ 2455
freedoms 2455
kilometres 2455
pop@@ 2454
transfers 2454
charity 2451
.A 2451
Ros@@ 2450
El 2449
Enterprise 2448
rental 2448
Autonomous 2448
Over@@ 2447
6,@@ 2446
motivation 2446
Senior 2446
nec@@ 2445
earliest 2445
Analy@@ 2445
acti@@ 2445
receives 2445
neighbouring 2445
attending 2445
ve-@@ 2445
St. 2444
surrounded 2443
sells 2443
initi@@ 2443
enters 2443
grav@@ 2442
bers 2442
ached 2442
premium 2441
modification 2441
euro 2441
Recently 2441
wil@@ 2440
temporarily 2439
tensions 2439
4. 2439
proves 2438
muscles 2438
witnessed 2438
Card 2438
v. 2437
privacy 2437
confirmation 2437
Sales 2437
Au@@ 2436
tract 2436
midst 2435
utter 2435
custody 2435
queen 2433
economically 2431
Blue 2431
taxation 2431
stu@@ 2430
upgrade 2430
Parliament 2430
Money 2430
incurred 2430
reservations 2430
self-determination 2430
wherever 2429
Soon 2429
nor@@ 2428
Turkish 2428
focal 2428
author@@ 2427
Myanmar 2427
indication 2427
fulness 2427
delays 2427
cru@@ 2426
specially 2426
restored 2426
GM 2425
sooner 2425
les@@ 2425
recovered 2425
1980 2425
sphere 2424
substantially 2424
wondered 2424
obtaining 2422
Inc 2422
bold 2421
oxide 2421
approached 2421
passport 2421
fragile 2421
proven 2420
assurance 2420
Software 2420
Regulation 2420
layers 2419
ometer 2418
magnitude 2418
Movement 2418
racism 2418
mathematics 2417
ki 2417
knock 2416
Urban 2415
FOR 2414
counties 2414
quantities 2413
emission 2412
timing 2412
stimulus 2411
incentives 2411
protest 2411
avoided 2410
Ke@@ 2410
mag@@ 2409
washed 2408
insisted 2407
Head 2407
amendment 2407
mobilization 2407
tru@@ 2406
endless 2405
Circular 2405
tual 2404
revolutionary 2404
asses 2404
allegations 2404
meantime 2403
mystery 2403
Son 2403
rocket 2402
globe 2402
year@@ 2402
barely 2401
Wor@@ 2400
Angeles 2400
repl@@ 2400
Don@@ 2400
certification 2399
surprising 2399
settings 2399
Too 2399
performances 2398
aesthetic 2398
Different 2398
enter@@ 2397
sunshine 2397
employ 2397
abstract 2396
semi-@@ 2396
petroleum 2396
oid 2395
emergencies 2395
sincerely 2395
time@@ 2395
SS 2395
Clinical 2394
extending 2394
surgical 2393
coun@@ 2393
reaches 2393
Whenever 2392
correction 2392
UNITA 2392
striking 2391
Hence 2391
Unlike 2390
amendments 2390
abl@@ 2389
Pal@@ 2389
th-@@ 2388
cri@@ 2388
witnesses 2388
extract 2387
1987 2387
Super@@ 2386
conservative 2386
apping 2385
q 2385
poll 2385
publicly 2385
mighty 2385
trap 2384
Doctor 2384
Ni@@ 2384
Happy 2384
thief 2384
esses 2383
panic 2381
ght 2380
arity 2380
impressive 2380
specifications 2380
Better 2379
clay 2379
circles 2378
versions 2378
ata 2378
Date 2378
voted 2378
Something 2378
Wong 2378
Captain 2377
substitute 2377
son@@ 2376
boundaries 2374
associate 2374
Tel 2374
ographic 2373
accessible 2373
Church 2372
destiny 2372
cruel 2371
owe 2369
constituted 2369
at-@@ 2368
perception 2367
conception 2367
reinforced 2367
imperative 2367
13.@@ 2367
toll 2366
encounter 2365
happily 2365
neighbours 2365
liquidity 2364
limitations 2364
Traffic 2364
prisoner 2364
hin@@ 2363
blast 2363
alter 2363
isation 2363
Texas 2362
mounted 2361
Grand 2361
eds 2361
Wait 2361
tless 2360
sorts 2359
OR 2359
Systems 2359
trigger 2358
disappointed 2357
insist 2356
Sec@@ 2356
9-@@ 2356
Welfare 2356
CPC 2356
negotiate 2355
way@@ 2355
za 2354
Star 2354
Sam 2353
demanded 2353
pin 2353
laughed 2352
Pres@@ 2352
HA 2352
respects 2352
uation 2351
Activities 2351
Pearl 2350
impressed 2349
neighbor 2349
ette 2348
seeks 2348
Fire 2348
P-@@ 2348
notification 2348
isolation 2347
width 2347
Often 2347
Premier 2347
alo@@ 2345
screw 2345
stand@@ 2344
tioned 2343
monopoly 2343
of-@@ 2343
awards 2342
Table 2341
coefficient 2341
distinguished 2340
lip 2340
fri@@ 2340
deadline 2340
prevented 2339
Neither 2339
fier 2337
Gi@@ 2337
extr@@ 2337
defendant 2335
pharmaceutical 2335
trials 2334
0-@@ 2334
rage 2333
guiding 2333
Observer 2333
intends 2332
Six 2332
wind@@ 2331
placement 2331
officially 2330
enting 2330
counted 2330
barrier 2328
sho@@ 2328
bride 2328
hun@@ 2328
CEO 2328
mercy 2328
dressing 2327
regulate 2327
variables 2327
Spirit 2327
behold 2327
basin 2326
deserves 2326
Kim 2326
basket 2325
Hor@@ 2324
HKSAR 2324
troubled 2323
competitors 2323
occurrence 2323
identical 2323
Calls 2323
paintings 2322
Mobile 2322
palace 2322
flies 2321
rear 2321
snake 2320
swear 2320
full-@@ 2320
consolidated 2320
drilling 2319
Tourism 2319
plat@@ 2318
Chang@@ 2318
voices 2318
Questions 2318
laughing 2317
despair 2316
poet 2316
rod 2315
Round 2315
organisation 2315
Nor 2314
Ko@@ 2313
dol@@ 2313
bab@@ 2312
read@@ 2312
neighbors 2311
pitch 2311
furnace 2311
Anyone 2311
VE 2309
Music 2309
relay 2308
liberty 2308
ops 2308
combining 2308
eradication 2308
therapeutic 2307
7,@@ 2307
council 2306
Harvard 2305
oph@@ 2305
matic 2305
contractual 2305
Read 2305
Number 2305
14.@@ 2305
cour@@ 2304
Steve 2304
aluminum 2303
tion-@@ 2303
essay 2303
grandfather 2302
plo@@ 2302
contractor 2302
Fo@@ 2302
references 2302
Valentine 2301
hotels 2301
Ford 2301
CSCE 2301
edition 2300
demanding 2300
ided 2300
icate 2300
belonging 2300
conf@@ 2299
ken 2299
Long@@ 2298
ump 2298
questioned 2298
engaging 2298
ric 2297
particle 2297
persistent 2295
dar@@ 2295
Stamp 2295
humor 2294
compounds 2294
facilitating 2294
fol@@ 2293
alert 2293
incidence 2293
stairs 2293
suits 2293
super 2292
gods 2292
fulfilled 2292
credibility 2292
them@@ 2292
embargo 2292
announce 2291
dium 2291
raises 2291
crises 2291
inch 2290
Task 2290
Import 2290
four-@@ 2289
financed 2289
radical 2288
hence 2288
10-@@ 2288
show@@ 2287
Denmark 2286
absorbed 2286
pound 2285
obliged 2284
asted 2284
amended 2284
Student 2284
tivity 2283
alistic 2283
drafting 2283
loads 2282
probability 2282
medi@@ 2282
defect 2282
visa 2282
keeper 2282
reduces 2282
Medicine 2282
oming 2281
ed.@@ 2281
soccer 2280
aw 2280
examining 2280
delight 2280
Inspection 2277
repatriation 2276
exercising 2275
hazardous 2275
.com 2275
stat@@ 2274
ab 2274
Tre@@ 2274
deb@@ 2274
indicating 2274
orderly 2273
cou@@ 2273
pleas@@ 2273
plot 2272
vel@@ 2272
ink@@ 2272
mal 2271
instances 2271
Macau 2271
Platform 2271
publish 2271
Administrator 2271
magazines 2271
accumulation 2270
dam 2270
Emergency 2270
optimistic 2268
ero@@ 2267
inform@@ 2267
12-@@ 2267
Officials 2267
currencies 2266
Theory 2266
beating 2266
payable 2266
n-@@ 2265
ands 2265
ope 2265
environments 2265
proceeds 2265
poultry 2264
masters 2263
op 2263
BR@@ 2263
Cyprus 2263
Tu@@ 2261
convey 2261
graduation 2260
butter 2259
Barack 2259
slide 2259
reconsideration 2259
pole 2258
audio 2258
escaped 2258
stopping 2257
counsel 2257
5. 2257
glance 2256
inherent 2256
fat@@ 2255
moisture 2255
viable 2255
popularity 2255
Bel@@ 2254
evaluated 2254
conform 2254
orbit 2254
peasants 2254
concerted 2254
Mu@@ 2254
UNESCO 2254
lig@@ 2253
listing 2253
Nowadays 2253
metals 2252
conjunction 2252
ples 2252
edly 2251
farming 2251
nation@@ 2251
jury 2251
laying 2250
utmost 2250
themes 2250
termination 2249
Dutch 2248
ED 2248
mul@@ 2248
rotation 2248
doc@@ 2248
Generally 2248
geological 2247
weekly 2247
Investigation 2247
Ag@@ 2247
matches 2247
Country 2247
reminded 2246
blessed 2246
marking 2246
modes 2245
fitting 2244
Ly@@ 2244
fake 2244
Dalai 2244
mount 2243
researches 2243
milli@@ 2243
him@@ 2242
confusion 2241
rushed 2241
Inv@@ 2241
incomes 2241
dent 2240
asis 2239
safeguarding 2239
medicines 2238
golf 2237
beliefs 2237
pit@@ 2236
lessly 2236
attaches 2236
Branch 2236
accord 2235
bother 2234
deadly 2234
bility 2234
mild 2234
sters 2234
plasma 2233
eller 2233
apples 2233
Keywords 2233
ases 2232
fancy 2232
criminals 2232
act@@ 2231
algorithms 2231
engines 2231
stops 2231
reactions 2231
supervise 2231
IG@@ 2230
calculating 2229
some@@ 2229
sit@@ 2228
wrapped 2228
CR@@ 2228
traders 2227
wondering 2226
zes 2226
calcium 2226
Sup@@ 2226
convened 2226
Rather 2225
infectious 2225
1980s 2225
ety 2224
decent 2224
oldest 2223
Mount 2223
stimulate 2223
shine 2223
altogether 2223
vol@@ 2222
sav@@ 2222
Book 2222
launching 2222
rating 2221
250 2221
AG@@ 2221
water-@@ 2220
Arts 2220
tragic 2219
posing 2219
anch@@ 2219
Saudi 2219
stretched 2218
postal 2218
medium-term 2218
kil@@ 2217
bare 2217
Performance 2216
entrepreneurs 2216
threaten 2216
responding 2216
safeguards 2216
removing 2215
Judah 2215
lip@@ 2215
inging 2215
sunlight 2214
Anti@@ 2214
junior 2214
Hollywood 2214
routes 2214
50@@ 2213
placing 2213
P.@@ 2213
ection 2212
facial 2211
in-depth 2211
ual 2210
Ben 2210
creditors 2209
ro 2209
toy 2209
respondents 2209
ax 2208
shelf 2208
main@@ 2208
mid 2208
breeze 2208
attribute 2208
worship 2208
sectoral 2208
ories 2207
definite 2207
Stock 2207
corrosion 2206
addresses 2206
grandmother 2206
uded 2205
alities 2205
detained 2205
differently 2204
elastic 2204
Helen 2203
Palestinians 2203
mes@@ 2202
Rol@@ 2202
tale 2201
hostile 2201
ature 2200
excitement 2199
care@@ 2198
bla@@ 2198
script 2198
pledged 2198
Certainly 2198
class@@ 2197
poem 2197
thickness 2197
bat@@ 2197
consolidate 2197
blank 2196
B.@@ 2196
codes 2196
Assessment 2196
relaxed 2194
dramatically 2194
champion 2194
sle@@ 2193
lifestyle 2192
biology 2192
lah 2192
shit 2192
instability 2191
BC 2190
probe 2190
Portugal 2190
Cairo 2190
clean@@ 2190
gang 2190
warehouse 2189
undertakings 2188
Sil@@ 2187
administering 2187
dil@@ 2186
Effects 2186
ashing 2185
radioactive 2185
toilet 2183
adjustments 2183
Paper 2183
Compared 2182
incentive 2182
solely 2182
Fu@@ 2181
mapping 2180
uncertain 2180
consist 2180
arbitrary 2179
shade 2179
temper 2178
prevailing 2178
Consequently 2178
lic@@ 2177
smuggling 2177
sb 2177
Type 2176
vaccine 2175
forestry 2175
van 2174
travelling 2173
Democrats 2173
ful@@ 2172
synthetic 2172
Find 2172
Discrimination 2172
breathe 2171
Florida 2171
thrust 2171
hop@@ 2171
hiding 2170
rid@@ 2170
DO@@ 2170
stresses 2170
swing 2170
filing 2170
celebration 2170
Air@@ 2169
verified 2169
prosperous 2169
100,000 2169
theatre 2168
key@@ 2168
Micro@@ 2167
supervisory 2167
directory 2167
eliminated 2166
UNOSOM 2166
therein 2165
ins@@ 2165
robust 2165
grief 2165
udes 2165
deeds 2165
greenhouse 2164
gated 2164
gates 2163
inheritance 2163
Mongolia 2163
bathroom 2163
asts 2163
secured 2162
billions 2162
Acting 2161
node 2161
luggage 2160
McCain 2160
critics 2160
grow@@ 2160
yer 2160
exceeding 2160
bits 2159
spe@@ 2159
dat@@ 2159
dual 2159
planes 2159
breach 2159
contractors 2159
hair@@ 2158
Download 2158
obstacle 2157
Total 2156
ranging 2156
nowadays 2156
climbed 2156
atomic 2155
cle@@ 2155
ache 2155
attributes 2155
absorb 2155
CF@@ 2154
purchases 2154
blog 2153
-to-@@ 2152
lining 2152
Experience 2152
cow 2151
resolving 2151
criterion 2151
cy 2150
Key 2150
seas 2150
draws 2149
sympathy 2149
disabilities 2149
minimize 2148
itated 2148
diesel 2148
War@@ 2147
enjoys 2147
Sa@@ 2146
maid 2146
ti 2146
Jud@@ 2146
equations 2145
Cro@@ 2144
metric 2144
-year-old 2144
anim@@ 2144
emergence 2143
Direc@@ 2143
nat@@ 2142
reporter 2142
16.@@ 2142
Yu 2141
oud 2141
VII 2141
diversification 2141
CL@@ 2140
wool 2140
promotes 2140
hoo@@ 2139
erosion 2138
renewal 2138
Private 2138
reasonably 2138
mask 2138
socialism 2137
Always 2137
transnational 2137
A.@@ 2137
ony 2136
Concerning 2136
far@@ 2135
mic 2135
dried 2135
envisaged 2135
slowdown 2135
sne@@ 2134
ideological 2133
g-@@ 2133
overwhelming 2133
Hope 2132
merger 2131
hast 2131
Mic@@ 2131
maintains 2131
brains 2130
tap 2130
tible 2129
pipeline 2129
Tong 2129
Hill 2128
tial 2128
emerge 2127
disciplinary 2127
brac@@ 2127
immigrants 2127
confused 2126
bury 2126
exclusively 2126
futures 2125
shorter 2125
cited 2125
shy 2125
sealed 2125
Guide 2125
aves 2124
Steel 2124
abundance 2124
torch 2123
ex-@@ 2123
conv@@ 2123
aspirations 2123
dangers 2123
crown 2122
behaviors 2122
apparatus 2122
alised 2122
sustain 2122
n. 2121
kilometers 2121
pulling 2121
SD 2121
Lin 2121
accelerated 2121
powered 2120
bonus 2120
cabinet 2120
Except 2120
expressing 2119
adhere 2119
relevance 2119
opponent 2118
enjoyment 2117
ity-@@ 2117
Ive 2117
worries 2116
ea 2116
liabilities 2116
campaigns 2116
Sm@@ 2116
formally 2115
Emperor 2115
founding 2114
wicked 2114
garbage 2113
congratulate 2113
influenza 2113
thirty-@@ 2113
feared 2113
nut 2113
execute 2113
tted 2112
connecting 2112
progressive 2112
oun@@ 2111
specification 2111
institute 2111
Acc@@ 2111
cleared 2110
dating 2110
sodium 2110
Cheung 2110
Monitoring 2110
mobilize 2110
permits 2109
Gal@@ 2109
Phase 2109
resin 2108
grants 2108
Show 2107
locally 2107
assumption 2107
catalyst 2106
lacking 2106
distinguish 2105
ill-@@ 2104
swe@@ 2104
inated 2104
cooked 2104
Otherwise 2104
E-@@ 2104
Ha@@ 2103
wrong@@ 2103
bore 2103
modify 2103
Gold 2103
judgement 2102
psych@@ 2102
complement 2101
upward 2101
equilibrium 2101
irrigation 2101
offensive 2101
Independent 2101
but@@ 2100
tory 2100
adequately 2100
Mozambique 2100
adventure 2099
sweat 2099
balls 2099
exceptional 2098
Death 2098
closure 2098
sign@@ 2098
div@@ 2097
worlds 2097
mayor 2097
shield 2096
MA 2096
transformed 2096
exhausted 2096
scenes 2096
varied 2095
favourite 2094
climbing 2094
continuation 2094
diameter 2093
ki@@ 2093
Vice 2093
diagnostic 2093
invasion 2093
zo@@ 2093
reveals 2092
Princess 2092
flash 2091
approaching 2091
igh@@ 2091
nationals 2091
3rd 2090
employing 2090
od 2090
reg@@ 2089
Cap 2089
inj@@ 2088
fare 2087
ski 2087
Annual 2087
parks 2086
economical 2086
cognitive 2086
ank@@ 2086
ambitious 2085
yang 2085
asc@@ 2084
UNDCP 2084
nationwide 2083
projected 2083
justified 2082
rigid 2082
trains 2082
urges 2082
electron 2081
preserved 2081
Media 2081
log@@ 2080
tant 2080
asi@@ 2080
Fore@@ 2080
scenery 2079
presidency 2079
analyse 2079
Serbia 2079
Ram@@ 2079
Recognizing 2079
geographic 2078
Age 2078
fuels 2078
wastes 2078
PRC 2078
ter-@@ 2077
charm 2077
friction 2077
agged 2077
fits 2076
photograph 2076
bic@@ 2075
hat@@ 2075
dig 2075
Benjamin 2075
Process 2075
foolish 2074
atten@@ 2074
IA 2074
cave 2073
occasionally 2073
ained 2073
render 2073
On@@ 2072
aining 2072
Valley 2072
halt 2072
Making 2072
interfere 2071
8,@@ 2071
oured 2070
uan 2070
cats 2070
continually 2070
neighborhood 2069
eu@@ 2068
displays 2067
drives 2067
it.@@ 2067
improves 2066
prayer 2066
pledge 2066
poured 2066
positively 2066
Offices 2066
ben@@ 2065
nal 2064
chat 2064
embrace 2064
Chemical 2064
nest 2063
unlike 2063
neutral 2062
gg@@ 2062
flavor 2061
consistency 2060
retained 2060
password 2060
combating 2060
clubs 2059
heated 2059
vain 2059
landed 2059
rendered 2059
quoted 2059
enacted 2059
Weapons 2059
partially 2058
reaffirmed 2058
scattered 2057
Credit 2057
itate 2056
emperor 2056
smoothly 2055
Firstly 2055
50,000 2055
highlight 2054
mysterious 2054
fel@@ 2054
Estate 2054
accommodate 2053
num@@ 2053
abnormal 2053
troubles 2053
durable 2053
dness 2052
good-@@ 2052
naked 2052
breakdown 2052
actress 2052
Rent 2052
planting 2051
Cas@@ 2051
comprises 2051
sink 2051
Competition 2051
tracks 2050
Common 2050
surfaces 2050
jail 2050
eries 2050
Qing 2050
retro@@ 2049
indicator 2048
ulating 2048
coll@@ 2048
Product 2048
SU@@ 2047
tening 2047
condemned 2047
wildlife 2046
tious 2046
generator 2046
es-@@ 2046
Were 2046
inter-agency 2046
highlighted 2045
pan 2045
hybrid 2045
Chamber 2045
stro@@ 2044
Researchers 2044
iling 2044
Dar@@ 2044
ker@@ 2043
sid@@ 2043
admire 2043
remuneration 2042
l-@@ 2042
drying 2042
1986 2042
preference 2041
faults 2041
races 2040
consulting 2040
offences 2040
lers 2039
tiger 2039
AM 2039
reads 2038
desperate 2038
sky@@ 2038
5th 2038
sauce 2037
reviewing 2037
arose 2037
Senator 2037
harsh 2036
colonial 2036
hook 2036
utilized 2035
1985 2035
hosted 2034
beans 2034
abandon 2034
Mediterranean 2033
bridges 2033
cin@@ 2032
query 2032
depressed 2032
reinforce 2032
accumulated 2032
cents 2031
vitamin 2031
short@@ 2031
disability 2030
sanitation 2030
violated 2030
acking 2030
appetite 2029
fro@@ 2028
pets 2028
110 2028
Ren@@ 2028
traditionally 2028
3,000 2028
ough 2027
sand@@ 2027
converted 2027
sy@@ 2026
persuade 2025
math 2025
Knowledge 2025
pupils 2024
supplement 2024
Apart 2024
Tower 2024
Chung 2024
containers 2023
optimum 2023
nan@@ 2023
renewable 2023
Ku@@ 2023
Pan@@ 2023
Traditional 2023
examinations 2022
environmentally 2022
apartheid 2021
inevitably 2021
varieties 2021
Tony 2020
fertility 2020
drank 2020
preferential 2020
silly 2019
readily 2019
subprogramme 2018
dirt 2017
itor 2017
TA 2017
well-known 2016
beaten 2016
pigs 2016
icated 2016
Cam@@ 2016
roses 2015
pie 2015
Current 2015
confidence-building 2015
rou@@ 2014
administered 2014
unfair 2014
4th 2014
quick@@ 2014
brick 2013
rape 2013
berry 2013
blew 2012
recipient 2012
posi@@ 2012
mediation 2012
intent 2011
dominated 2011
deck 2011
sen 2011
eh 2011
elaborate 2011
Mac 2011
disappear 2010
sible 2010
stre@@ 2010
adaptive 2010
21st 2009
shaking 2008
compensate 2008
expectation 2008
spaces 2007
EC 2007
licensing 2007
maturity 2007
Rom@@ 2007
Bible 2007
sewage 2006
double-@@ 2006
AI@@ 2006
duck 2005
finishing 2005
attain 2005
Words 2005
broadcasting 2004
Sy@@ 2004
indirect 2004
Watch 2004
Higher 2004
Line 2003
ust 2003
networking 2003
ffs 2002
Jackson 2002
grammar 2002
aring 2002
tended 2002
demonstrates 2002
ager 2002
Rice 2002
Uganda 2001
shar@@ 2000
part-time 2000
intensify 2000
enforce 2000
fitness 1999
explored 1999
Recent 1999
terrorists 1999
Jacob 1999
villagers 1998
ility 1998
damn 1997
ologic 1997
disclosure 1997
endo@@ 1997
11@@ 1997
deterioration 1997
doubts 1996
punish 1996
suff@@ 1996
Level 1996
dependence 1995
estimation 1995
knees 1995
vic@@ 1995
determin@@ 1994
high@@ 1993
traits 1993
ano 1993
Uruguay 1993
err@@ 1992
supporters 1992
eternal 1992
burnt 1991
illed 1991
shots 1991
mus@@ 1991
gay 1991
ulate 1990
urgently 1990
lens 1990
Internal 1990
graphy 1990
roller 1989
ester 1989
sail 1989
Poor 1989
supplementary 1989
passive 1988
home@@ 1988
Kenya 1988
RC 1988
servicing 1988
curious 1987
cent@@ 1987
gen 1987
succession 1987
capacity-building 1987
chaos 1986
uck@@ 1986
scrap@@ 1986
Lam@@ 1986
deputies 1986
spray 1985
ows 1985
evolved 1985
Heads 1985
aches 1984
backward 1984
Ra@@ 1983
funeral 1983
exchanged 1983
single-@@ 1983
electronics 1983
baseball 1983
locate 1982
inspiration 1982
wanting 1982
clinic 1982
AR 1982
assign 1982
interviews 1982
Call 1982
Sarah 1981
ano@@ 1981
Governing 1981
ch-@@ 1980
obey 1980
useless 1980
UNAMIR 1980
bunch 1979
founder 1979
gentlemen 1979
compression 1978
caring 1977
costly 1977
alls 1976
cylinder 1975
nuts 1975
int@@ 1975
borrowing 1974
nail 1974
diagram 1974
deficiency 1974
grand@@ 1974
Exc@@ 1974
OBJECTIVE 1974
baggage 1973
shining 1972
dining 1972
Movie 1972
ghost 1971
sensing 1971
bankers 1971
supper 1971
tariff 1971
ca 1970
lovers 1970
realities 1970
genius 1969
tune 1969
Fac@@ 1969
axis 1968
lin 1968
lev@@ 1968
Exhibition 1968
batch 1968
minerals 1968
bush 1967
True 1967
dream@@ 1966
utilize 1966
Mus@@ 1966
phases 1965
dismissed 1965
buses 1964
itch 1964
titles 1964
photographs 1963
forecasts 1963
Square 1963
invented 1963
life-@@ 1963
faithful 1962
Lady 1962
farms 1961
thanked 1961
testimony 1961
alleviate 1961
altered 1960
no-@@ 1960
fu 1960
tap@@ 1960
forthcoming 1960
slipped 1960
lean 1960
hatred 1960
sco@@ 1959
nevertheless 1959
-1 1959
pointing 1959
expresses 1959
encouragement 1959
distress 1958
SE 1958
counting 1958
Xinhua 1958
not@@ 1957
liquidation 1957
clearing 1956
NATO 1956
league 1955
outbreak 1955
mos@@ 1955
shocked 1954
flour 1954
fixed-term 1954
ko 1953
wholly 1953
ry@@ 1953
translated 1953
tun@@ 1953
neural 1953
internally 1952
freeze 1952
Yi 1951
embedded 1951
ament 1951
Tai@@ 1951
hosts 1951
Regarding 1951
vis 1950
infrared 1949
varying 1949
Self-@@ 1949
Heaven 1948
foot@@ 1947
Index 1947
met@@ 1946
105 1946
dom@@ 1946
clause 1946
transitional 1946
Final 1946
LE 1945
XX@@ 1945
parliament 1944
amine 1944
manufactured 1944
1978 1944
investigating 1944
agging 1944
Behold 1944
vent 1943
Mul@@ 1943
kle 1943
castle 1943
Summer 1943
Garden 1943
enquiries 1943
worm 1942
failures 1942
charming 1942
gases 1941
the-@@ 1941
delighted 1941
governed 1941
sacred 1941
saith 1941
inations 1940
anda 1940
sentiment 1940
compatible 1940
pap@@ 1939
ce@@ 1939
alling 1939
defining 1939
Tor@@ 1939
mad@@ 1939
Annex 1939
physically 1938
Finland 1936
blocked 1936
nearest 1936
vigorous 1936
hazard 1935
Bor@@ 1935
tactics 1935
Large 1935
SI@@ 1934
bet@@ 1934
rated 1934
Observatory 1934
Song 1933
ogy 1932
commits 1931
avoiding 1931
bless 1931
remedy 1931
Ful@@ 1931
seize 1930
missiles 1930
tery 1930
texts 1930
Zone 1930
beds 1929
explosive 1929
tax@@ 1929
realizing 1929
confrontation 1928
fast@@ 1928
selecting 1928
turmoil 1927
packages 1927
doesnt 1927
consisting 1926
une 1926
countermeasures 1926
20,000 1926
heart@@ 1925
drill 1925
provider 1925
consume 1925
tire 1924
E. 1924
Question 1924
dic 1923
oversight 1923
clerk 1923
foundations 1923
satellites 1923
You@@ 1923
Coordinator 1923
lac@@ 1922
microwave 1922
allo@@ 1922
Lu 1921
Electric 1921
speculation 1921
motivated 1921
CE 1920
idity 1920
trips 1920
profitable 1920
lied 1920
forbidden 1920
purple 1919
inspections 1919
strikes 1918
ball@@ 1918
Wi@@ 1918
erv@@ 1918
novels 1917
nom@@ 1917
relieve 1917
reiterated 1917
ji 1917
transmitting 1917
throwing 1916
touching 1916
gradual 1916
TC 1916
whis@@ 1915
mainstream 1915
stan@@ 1915
fucking 1914
compact 1914
translate 1914
cultivated 1913
bec@@ 1913
Strengthening 1913
vector 1912
full-time 1912
combustion 1911
akes 1911
Comprehensive 1911
Qi@@ 1910
aunt 1910
managerial 1910
consultants 1910
Loc@@ 1909
monkey 1908
modern@@ 1908
pass@@ 1908
incredible 1908
commander 1908
five-@@ 1908
kets 1907
nitrogen 1906
Ph@@ 1906
oven 1905
certified 1905
colleague 1905
PRO@@ 1905
initiate 1905
Promotion 1905
Tajikistan 1905
wat@@ 1904
p-@@ 1904
orally 1904
carpet 1903
nam@@ 1903
warn 1903
workplace 1903
readiness 1903
mon 1902
band@@ 1902
Rose 1902
WH@@ 1902
mandatory 1902
destructive 1902
frontier 1902
Off@@ 1902
Liverpool 1901
well@@ 1901
Travel 1901
1.5 1901
Stephen 1900
multinational 1900
inal 1899
ater@@ 1899
organised 1899
genocide 1898
drainage 1898
Chinas 1898
envelope 1897
needle 1897
inches 1897
absent 1897
Hom@@ 1896
sty@@ 1896
Ten 1896
wheels 1895
bamboo 1895
Serb 1895
Bridge 1894
rs 1894
Tim@@ 1893
New@@ 1893
Jews 1893
picking 1893
nationalities 1893
woke 1893
aled 1893
High@@ 1892
meteorological 1892
Chelsea 1892
eful 1892
rivals 1892
banned 1891
writes 1891
se-@@ 1891
Access 1891
Commander 1891
desertification 1890
Lim@@ 1890
Ping 1890
rude 1889
exploring 1889
rence 1889
gging 1889
unemployed 1889
controversial 1889
1984 1889
prejudice 1889
trunk 1888
symbol@@ 1888
coupled 1888
polar 1887
eliminating 1887
Serbs 1887
Had 1887
ock 1887
jiang 1887
troop 1887
gaining 1887
talented 1886
tran@@ 1886
prob@@ 1886
honesty 1885
six-@@ 1885
lazy 1884
direc@@ 1884
awake 1884
Help 1884
road@@ 1884
ref@@ 1884
Speci@@ 1884
mic@@ 1883
miserable 1883
kings 1882
specialist 1882
attempting 1882
call@@ 1882
Price 1882
Jiang 1882
opera 1881
umbrella 1881
Teaching 1881
fulfilling 1880
Colombia 1880
W. 1880
designers 1879
casual 1879
other@@ 1878
ME 1877
hard-@@ 1876
offshore 1876
Defense 1876
outdoor 1875
staffing 1875
manners 1874
reject 1874
demographic 1874
Click 1874
ment-@@ 1873
fires 1873
arly 1873
soap 1873
cit@@ 1872
Records 1872
Somali 1872
servers 1872
cab@@ 1872
Yesterday 1872
.He 1872
Win@@ 1871
volunteer 1871
providers 1871
consultant 1871
adjusting 1870
Lin@@ 1870
pil@@ 1869
rey 1869
restrict 1869
traded 1869
scenario 1868
Shan 1868
industrialized 1868
violate 1867
reportedly 1867
DP 1867
Bangladesh 1867
sits 1866
short-@@ 1866
quest 1866
hometown 1866
unc@@ 1865
eighth 1865
Reading 1865
ratification 1865
Immigration 1865
Uh 1864
shapes 1864
ani 1864
materi@@ 1864
mak@@ 1864
Vo@@ 1863
consumed 1863
circumstance 1863
thetic 1863
Francisco 1863
hil@@ 1862
olds 1862
bureau 1862
statute 1862
trades 1862
Spe@@ 1862
tense 1861
undermine 1861
pants 1860
ambition 1860
restriction 1860
tightly 1859
processor 1859
aker 1859
forty-ninth 1859
storms 1858
level@@ 1858
bottles 1858
servic@@ 1858
ser 1858
Earlier 1858
pine 1857
MP@@ 1857
kindly 1857
draw@@ 1856
theater 1856
Radio 1856
CP@@ 1855
Commonwealth 1855
FA@@ 1855
cleansing 1854
suspend 1854
Palace 1853
swept 1853
texture 1853
react 1852
slowing 1852
insects 1852
gir@@ 1852
monitored 1852
ind 1852
supportive 1852
ratified 1852
sends 1851
arr@@ 1851
yen 1851
maps 1851
justify 1850
burg 1850
hunt 1850
libraries 1850
Refugees 1850
stor@@ 1849
sizes 1849
allies 1848
confined 1848
Fine 1848
iring 1848
ranking 1848
Vir@@ 1847
nt 1847
peasant 1846
overnight 1846
apologize 1845
orous 1845
Madrid 1845
mates 1845
aster 1845
shouted 1845
casualties 1845
sponsor 1845
municipality 1845
textile 1844
residual 1843
scandal 1843
1949 1843
past@@ 1842
excluding 1842
stole 1842
inger 1842
huh 1842
bin@@ 1841
inks 1841
consecutive 1841
nes@@ 1841
inferior 1841
frightened 1841
ication 1840
kidney 1840
cadres 1840
alled 1839
dissertation 1839
politically 1839
Ban@@ 1839
sticks 1839
iii 1839
Commun@@ 1838
sni@@ 1837
activated 1837
Republicans 1837
experiencing 1837
gol@@ 1837
consultative 1837
collar 1836
aci@@ 1836
elementary 1836
fraction 1836
ested 1836
attraction 1836
heal 1836
accession 1835
fox 1835
motherland 1835
reb@@ 1834
counterparts 1834
Lau@@ 1834
Zhou 1834
fence 1833
circum@@ 1833
aks 1833
repu@@ 1833
path@@ 1832
reluctant 1832
liaison 1832
beloved 1832
Educational 1832
cigarettes 1831
policeman 1831
rub 1831
Ur@@ 1830
Plant 1830
skirt 1830
evaluating 1830
amounted 1830
loo@@ 1829
ts@@ 1829
Habitat 1829
penalties 1829
selfish 1829
protests 1829
Hand@@ 1829
ez 1828
doubled 1827
etc. 1826
convicted 1826
Cases 1826
Articles 1826
lightning 1825
nowhere 1825
Mur@@ 1825
contingent 1825
researched 1824
magnificent 1824
measurements 1824
columns 1823
trusted 1823
bi 1822
ols 1822
blessing 1821
pollutants 1821
systematically 1820
determines 1820
gy@@ 1820
pling 1820
emi@@ 1820
interactive 1820
Dan@@ 1820
protects 1820
Top 1820
bleeding 1819
encing 1819
Climate 1819
ew 1819
Agricultural 1819
Applications 1819
flat@@ 1818
meanwhile 1818
ped@@ 1817
adjacent 1816
Alice 1816
Scotland 1816
websites 1816
age@@ 1816
sufficiently 1816
straw 1816
Place 1816
Mao 1816
Patent 1816
convert 1815
slo@@ 1815
catching 1815
attendance 1814
NE@@ 1814
specialists 1814
impe@@ 1813
confidential 1813
Mars 1813
collapsed 1813
elder 1813
Usually 1813
inclined 1813
fifteen 1812
T-@@ 1812
subway 1812
lane 1811
meth@@ 1811
subtle 1811
endure 1811
Representatives 1811
minded 1811
mechanics 1811
Hold 1811
inspect 1811
colorful 1810
EX@@ 1810
cautious 1810
Catherine 1810
issuance 1810
Alan 1809
suited 1808
bay 1808
ST 1808
Ty@@ 1808
Care 1808
bug 1807
Hon 1807
arriving 1807
loyal 1806
Ev@@ 1806
rit@@ 1805
continental 1805
Met@@ 1805
Ki@@ 1805
unclear 1804
fame 1804
fond 1804
Shel@@ 1803
cross@@ 1803
speeds 1803
fam@@ 1803
divisions 1803
urgency 1803
celebrated 1802
negotiated 1801
Monetary 1801
18.@@ 1801
cousin 1800
wears 1800
competing 1800
Status 1800
Wei 1799
backs 1799
aver@@ 1799
ques 1799
horizon 1798
idal 1798
May@@ 1798
9,@@ 1798
neglect 1797
Den@@ 1797
formulating 1797
Official 1797
assessing 1796
second-@@ 1796
Used 1796
refuses 1796
ever-@@ 1796
morality 1796
liqu@@ 1796
actu@@ 1796
chains 1795
ILO 1795
drum 1794
wins 1794
nurses 1794
Case 1794
dial 1794
forty-@@ 1794
educ@@ 1793
deepen 1793
sampling 1792
dairy 1792
criticized 1792
Write 1792
Conclusions 1792
electromagnetic 1791
Gates 1791
Comp@@ 1791
lav@@ 1790
unt 1790
fid@@ 1790
eg 1790
interpret 1790
intermediate 1790
ich@@ 1789
rad@@ 1789
Xi@@ 1789
valuation 1789
tangible 1789
cultivate 1789
possessed 1789
Mountain 1789
withdrawn 1788
F. 1788
headache 1788
stal@@ 1788
BP 1788
mother@@ 1788
deciding 1787
macroeconomic 1787
structured 1787
maternal 1786
happier 1786
zy 1785
regulated 1785
idle 1784
relics 1784
Series 1784
Turn 1784
Urges 1784
Dan 1783
Chile 1782
fle@@ 1781
Bat@@ 1781
proc@@ 1780
monitors 1780
advertisements 1780
198@@ 1780
companion 1779
disc 1779
lately 1779
auditing 1779
Photo@@ 1779
life@@ 1779
Sydney 1778
ghts 1778
mers 1778
mounting 1778
Goods 1778
institutes 1778
cage 1777
distribute 1777
treatments 1777
Speaking 1777
grab 1777
hid 1776
comparable 1776
participant 1776
advocate 1776
tanks 1775
constructing 1775
101 1775
Water@@ 1774
chang@@ 1774
helicopter 1774
wai@@ 1774
pour 1773
wont 1772
liberation 1772
umb@@ 1772
micro-@@ 1772
commands 1772
Sum@@ 1772
endeavour 1772
Cs 1772
curb 1772
gas@@ 1771
vocabulary 1771
sam@@ 1771
poison 1769
Sim@@ 1769
Citigroup 1769
Simon 1768
immense 1768
chips 1768
Black@@ 1768
migrants 1766
rays 1766
clam@@ 1765
blowing 1765
fer 1764
incorporate 1764
aboard 1763
efully 1763
stance 1762
DS 1762
'The 1762
bin 1761
nie 1761
convince 1761
coherent 1760
Things 1760
declining 1760
lov@@ 1759
licensed 1759
sli@@ 1759
undoubtedly 1759
rejection 1759
Santa 1759
Athens 1759
Wat@@ 1759
seated 1759
hostilities 1759
restraint 1758
cinema 1757
forums 1757
graduated 1757
ost 1757
miracle 1757
contracted 1756
dist@@ 1756
screening 1756
infringement 1756
proceeded 1756
CD@@ 1756
Yahoo 1756
livestock 1756
praised 1755
Asst 1755
behave 1754
horror 1754
cancelled 1754
Really 1754
tab@@ 1753
transmit 1753
march 1752
Jin@@ 1752
ounded 1752
Committees 1752
wilderness 1751
Salvador 1751
Syrian 1751
ull 1750
aria 1750
axial 1750
refined 1750
altitude 1749
enclosed 1749
Speech 1749
co-operation 1749
Inter-@@ 1749
vari@@ 1748
adapted 1748
Albert 1748
UNRWA 1748
sang 1747
survived 1746
reductions 1746
Chan 1746
Obviously 1746
inputs 1746
Thirdly 1746
plug 1745
dropping 1745
shallow 1745
candle 1745
eman 1745
Berlin 1745
xi@@ 1745
Session 1745
mentally 1744
breed 1744
el-@@ 1744
han 1744
LL@@ 1744
proteins 1743
loses 1743
Experimental 1743
6. 1743
ight 1742
van@@ 1742
Fer@@ 1742
Nobel 1742
automation 1742
Conservation 1742
encies 1741
plac@@ 1741
tastes 1741
hearted 1741
dragon 1741
bullet 1740
Communications 1740
warmth 1739
conver@@ 1739
lay@@ 1739
Jewish 1738
odds 1738
invisible 1737
airline 1737
UC@@ 1737
molecules 1737
trapped 1736
eding 1736
ona 1736
reactor 1736
matched 1736
II@@ 1736
wards 1734
cameras 1734
disclosed 1734
oped 1734
classmates 1734
intensified 1734
15.@@ 1734
bacterial 1733
timetable 1733
micro 1732
complementary 1732
kg 1732
MA@@ 1731
coalition 1731
PLA 1731
ninth 1731
ena 1730
complained 1730
hen 1730
Revolution 1730
Wa@@ 1730
Television 1730
atics 1729
mist 1729
Waste 1729
chairs 1728
Green@@ 1728
influential 1728
Arabia 1728
contracting 1728
disturbed 1727
alliance 1727
upstairs 1726
comparing 1726
steep 1726
lun@@ 1725
congratulations 1725
door@@ 1725
borrowed 1724
tting 1724
Catholic 1723
bull 1723
Up@@ 1723
Es@@ 1723
yst@@ 1723
healing 1722
spin 1722
Copenhagen 1722
slave 1721
coupling 1721
Czech 1721
confiscated 1721
itors 1721
recruited 1721
candy 1720
ance@@ 1720
jum@@ 1720
ASEAN 1720
VIII 1720
UNEP 1720
Eve 1719
assi@@ 1719
vine 1719
drain 1719
Hun@@ 1719
Progress 1719
elect 1719
Financing 1719
worrying 1718
ark 1718
shalt 1718
vigorously 1718
mold 1717
trillion 1717
Andrew 1716
intake 1716
aer@@ 1716
adaptation 1716
garage 1716
paren@@ 1716
crum@@ 1716
fairness 1716
oceans 1715
cerebral 1715
strangers 1715
may@@ 1714
ensures 1714
vitality 1714
thats 1714
ideology 1714
induc@@ 1713
Kin@@ 1713
Xiao 1712
visitor 1712
tel 1712
cleaner 1712
artery 1712
acqu@@ 1712
cavity 1711
torn 1711
album 1711
interrupted 1711
operates 1711
Equ@@ 1711
Employment 1710
ode 1710
Ta@@ 1710
Golden 1710
adopts 1710
bench 1710
Ho 1710
icating 1709
indoor 1709
Guidelines 1709
nominated 1709
bes@@ 1708
Issue 1708
fighters 1707
Abraham 1707
yan 1706
recognizes 1706
class1 1706
fiction 1705
centr@@ 1705
clarify 1705
downturn 1705
dozens 1705
Considering 1705
judged 1704
um-@@ 1704
Low 1704
rein@@ 1704
Coll@@ 1704
Village 1704
debris 1703
anted 1703
blamed 1703
tag 1703
proceeding 1702
subsistence 1702
adj@@ 1702
decoration 1702
Registry 1702
Lincoln 1701
Sciences 1701
complications 1701
Pic@@ 1701
carcinoma 1701
Yellow 1701
Baghdad 1700
defensive 1700
regulators 1700
assembled 1700
cycles 1700
maxim@@ 1700
factions 1700
dor@@ 1699
Determination 1699
harmon@@ 1699
yourselves 1698
mixing 1698
fications 1698
Libyan 1698
Guinea 1698
grinding 1697
prec@@ 1697
alk@@ 1697
prompted 1697
Pu@@ 1697
tops 1697
） 1697
romance 1696
alongside 1696
outcomes 1696
hand-@@ 1696
thine 1695
ashamed 1695
shear 1695
minimal 1695
Elimination 1695
emia 1694
Def@@ 1694
hammer 1694
sadness 1694
quote 1694
n.@@ 1694
WFP 1694
vely 1693
coin 1693
Reuters 1693
low@@ 1693
freezing 1692
stared 1692
appropriately 1692
renal 1692
litigation 1692
refrain 1691
Bear 1690
hollow 1690
solic@@ 1690
Strategic 1690
sa 1689
ventures 1689
licenses 1689
shortcomings 1688
shut@@ 1688
rabbit 1688
inning 1687
fts 1687
refusal 1687
polymer 1687
liberal 1687
sailing 1687
projec@@ 1686
learnt 1686
cleaned 1686
fantastic 1685
carriers 1685
obesity 1685
lec@@ 1685
tenth 1685
unfortunate 1684
staring 1684
Tar@@ 1684
winners 1684
stainless 1684
amp@@ 1683
exporters 1683
shipped 1683
dia 1683
glorious 1682
humble 1682
raft 1681
alternatives 1681
elite 1681
tac@@ 1681
silicon 1681
stop@@ 1680
throne 1680
solvent 1680
scarce 1680
quake 1680
nd 1680
ministries 1680
Ethiopia 1680
kins 1679
exploit 1679
ules 1679
optimize 1678
lawsuit 1678
paths 1678
2.5 1678
spouse 1677
supermarket 1677
literally 1677
ym@@ 1677
ignorance 1676
Lama 1676
repairs 1675
Film 1675
now@@ 1675
conce@@ 1674
Sin@@ 1674
ly-@@ 1674
Amendment 1674
Port 1674
wounds 1674
sunny 1673
rum@@ 1673
Venezuela 1673
reimbursement 1673
potatoes 1673
beast 1673
J. 1673
Governor 1673
Autom@@ 1673
ounds 1673
expiration 1673
gic 1672
ago@@ 1672
Prov@@ 1672
awful 1671
distinctive 1671
alien 1671
commanded 1671
claiming 1671
Forms 1671
unacceptable 1671
Dem@@ 1671
Provide 1671
yields 1670
sch@@ 1670
Egyptian 1670
describing 1669
remark 1669
thor@@ 1668
ecosystem 1668
souls 1668
aj@@ 1668
instantly 1667
Full 1667
tian 1667
wid@@ 1666
Friends 1666
argues 1665
zoo 1665
reck@@ 1664
industrialization 1664
sensors 1663
seasons 1663
Certain 1663
strongest 1662
1982 1662
Especially 1662
Teacher 1662
pharmac@@ 1661
imposing 1661
ceased 1661
volumes 1660
Living 1659
reasoning 1659
weigh 1659
occurring 1659
extradition 1659
mented 1658
ideals 1658
deliberately 1658
exercised 1658
Ric@@ 1658
accompany 1658
Bulgaria 1658
lively 1658
documented 1658
wit@@ 1657
lic 1657
explanations 1657
oxidation 1657
Zhejiang 1657
Sou@@ 1657
switching 1656
ort 1656
infinite 1656
ried 1656
trail 1655
recycling 1655
illustrate 1655
cough 1655
Aud@@ 1655
arch 1655
desires 1654
figured 1654
attorney 1654
cute 1654
prerequisite 1653
neutr@@ 1653
Communication 1653
Labor 1652
Louis 1651
remo@@ 1651
atmospheric 1651
curtain 1651
colours 1651
20th 1651
Huang 1650
charging 1650
breakthrough 1650
ven 1650
donation 1650
fleet 1650
forcing 1650
Parents 1650
gent 1649
teenth 1649
acks 1649
Fortunately 1649
appointments 1649
prevail 1649
folded 1649
sect 1648
kissed 1648
tren@@ 1648
poems 1648
misery 1647
sequ@@ 1647
hip 1647
pick@@ 1647
Brothers 1647
rested 1647
hey 1647
stered 1647
Integrated 1647
.We 1647
Timor 1647
frog 1646
acet@@ 1646
scan 1646
wasted 1646
Subject 1646
iso@@ 1645
Web@@ 1645
phen@@ 1644
successor 1644
Fair 1644
Hum@@ 1643
fatal 1643
gasoline 1643
Dialogue 1643
Paragraph 1643
Register 1643
depend@@ 1642
quanti@@ 1642
pipes 1642
undergoing 1642
week@@ 1642
tened 1642
collision 1642
anno@@ 1641
clim@@ 1641
gram 1641
delegates 1641
Paulson 1641
loyalty 1641
Asia-Pacific 1641
expl@@ 1640
LL 1640
notably 1640
Former 1640
A-@@ 1639
venue 1639
strengths 1639
Thou 1639
invalid 1639
Seven 1639
alisation 1638
pel 1638
understands 1638
forecasting 1638
hiring 1638
contributes 1638
liberalization 1638
splendid 1638
iding 1638
plas@@ 1637
IV@@ 1637
priests 1637
ames 1637
Address 1637
Peace-keeping 1637
tray 1636
handful 1636
renew 1636
Growth 1636
electr@@ 1636
Cheng 1635
advancing 1635
potato 1634
state-@@ 1634
inity 1634
firing 1634
suspicion 1634
ails 1634
pockets 1634
Anti-@@ 1634
Efforts 1634
hos@@ 1633
di 1633
Nicaragua 1633
selective 1632
infections 1632
gauge 1632
Appeal 1632
ander 1631
Edward 1631
aly@@ 1631
optimism 1631
rhythm 1631
Allow 1631
ola 1630
Poly@@ 1630
twin 1630
comprising 1630
overhead 1630
gal@@ 1629
symbols 1629
formerly 1629
trucks 1628
Job 1628
partnerships 1628
shirts 1627
curiosity 1627
Hydro@@ 1627
Standards 1627
wholesale 1627
gambling 1626
inherited 1626
databases 1626
friend@@ 1626
bye 1625
Morocco 1625
shareholder 1625
develop@@ 1625
uncomfortable 1624
richest 1624
females 1624
inviting 1623
pork 1623
incomplete 1623
ions 1623
tiv@@ 1623
killer 1623
mur@@ 1623
mac@@ 1623
Years 1623
Aff@@ 1623
（ 1623
kar@@ 1622
owl 1622
linguistic 1622
Investors 1622
cing 1622
essi@@ 1621
io 1621
arc 1621
imagined 1621
practically 1621
weigh@@ 1620
Lou@@ 1620
keyboard 1620
stric@@ 1620
chlor@@ 1620
integrating 1620
fitted 1620
enced 1620
fried 1620
ecting 1620
grou@@ 1619
respon@@ 1619
ceramic 1619
Evaluation 1619
torate 1619
slower 1619
hitting 1619
tex@@ 1618
'We 1618
suggesting 1617
sounded 1617
oping 1617
sustainability 1617
chers 1616
ult 1616
disappointment 1615
universally 1615
Hi@@ 1615
wood@@ 1615
ington 1615
Belgium 1615
intentions 1614
Ear@@ 1614
Tal@@ 1614
seas@@ 1612
defeated 1612
zinc 1612
phrases 1612
francs 1612
Contact 1611
ply 1611
eded 1611
ackers 1610
terminate 1610
lateral 1610
deploy 1610
utes 1609
downtown 1609
bending 1608
Name 1608
mod@@ 1608
wn 1607
da@@ 1607
devote 1607
Yao 1607
simulated 1607
did@@ 1607
Nanjing 1607
disorders 1606
year-@@ 1606
requesting 1606
longest 1605
pragmatic 1605
mix@@ 1605
legacy 1605
prolonged 1605
tured 1605
tain@@ 1605
chem@@ 1605
jec@@ 1605
jam@@ 1604
sim@@ 1604
itable 1604
onom@@ 1604
vir@@ 1604
Syria 1604
backup 1604
Fax 1604
farther 1604
130 1604
dest 1603
Soci@@ 1603
viruses 1603
Multi@@ 1603
Ad 1603
flooding 1601
accustomed 1601
bull@@ 1601
oli@@ 1601
mandated 1601
heav@@ 1600
disadvantages 1600
ems 1600
prone 1599
fastest 1599
explicit 1599
oppose 1599
serum 1598
dre@@ 1598
Tianjin 1598
liz@@ 1598
XML 1597
Charlie 1597
rolls 1597
hurts 1597
17.@@ 1597
Nov@@ 1596
zi 1596
Cold 1596
tici@@ 1596
studio 1596
purely 1595
leap 1595
pond 1595
Zaire 1595
fisheries 1595
aqu@@ 1594
t. 1594
LA@@ 1594
Nearly 1594
Start 1594
gym 1593
Yan@@ 1593
minim@@ 1593
custom@@ 1593
1979 1592
ville 1592
flav@@ 1592
unlawful 1592
panels 1592
7. 1592
horrible 1591
regulating 1591
Shakespeare 1591
medals 1591
eting 1591
dense 1591
Supplementary 1591
Blood 1591
Net 1590
atin 1590
spac@@ 1590
hes 1590
m-@@ 1589
disposition 1589
ligh@@ 1589
legend 1589
cheque 1589
bean 1588
nour@@ 1588
occup@@ 1588
sickness 1588
ition 1588
establishes 1588
pairs 1587
ook 1587
ech@@ 1587
farmland 1587
repe@@ 1587
gesture 1587
Lam 1587
TER 1586
usion 1586
eff@@ 1586
damaging 1586
unilateral 1586
Prof. 1586
6th 1586
Consul@@ 1586
Wu@@ 1585
atism 1585
manip@@ 1585
faint 1585
reunification 1585
rewards 1585
forty-eighth 1585
dreamed 1584
exceeded 1584
ells 1584
flown 1584
dumping 1583
deli@@ 1583
prints 1583
eld 1583
Statement 1583
Ken@@ 1582
bands 1582
linking 1582
guides 1582
ram 1582
icks 1581
dwell 1581
40@@ 1581
Mir@@ 1581
Mun 1581
abuses 1580
surveyed 1580
reiterate 1580
obli@@ 1580
ree 1580
Star@@ 1579
emphasizes 1579
eption 1579
resting 1578
Gas 1578
Workers 1578
Select 1578
Algeria 1578
lor@@ 1577
macro@@ 1577
ape 1576
TER@@ 1576
Zh@@ 1576
liquor 1576
ren 1576
ho 1576
Sino-@@ 1576
mand@@ 1576
stealing 1576
Shar@@ 1575
neys 1575
primitive 1575
blanket 1575
GE 1574
uphold 1574
six@@ 1574
boots 1574
Christ@@ 1574
La 1574
procedural 1574
fool@@ 1573
prote@@ 1573
lined 1573
counts 1573
Universal 1573
limiting 1572
duly 1572
I.@@ 1572
neg@@ 1571
confronted 1571
lacks 1571
wan@@ 1571
males 1571
chess 1570
reas@@ 1570
guilt 1570
4,000 1570
referring 1569
convergence 1569
ruin 1569
vit@@ 1569
som@@ 1569
surrender 1569
blown 1569
jumping 1569
gan@@ 1569
Asi@@ 1568
deprived 1568
GA 1568
merits 1568
volatile 1568
ogen@@ 1567
AA 1567
ender 1567
upgrading 1567
Dont 1566
immunity 1566
sales@@ 1566
Dong@@ 1566
Resource 1566
garment 1565
discretion 1565
dings 1565
energetic 1565
cables 1565
Vari@@ 1565
Bil@@ 1565
township 1565
folks 1564
verbal 1564
ght@@ 1564
ares 1564
thermo@@ 1564
turing 1564
que@@ 1564
id-@@ 1563
spiral 1563
varies 1563
cav@@ 1563
assault 1563
Wen@@ 1563
stipulations 1563
ticism 1562
overview 1562
compiled 1562
rebuild 1562
you.@@ 1562
24.@@ 1562
referendum 1561
pig@@ 1561
opponents 1561
QU@@ 1561
lem@@ 1561
Together 1561
impulse 1561
Hen@@ 1561
bronze 1561
yed 1561
traction 1560
oe 1560
multipl@@ 1560
elders 1560
shifting 1560
agon@@ 1560
trousers 1559
phy@@ 1559
presenting 1559
retreat 1559
Ann 1559
Guatemala 1559
Search 1559
gli@@ 1558
visi@@ 1558
shu@@ 1558
waist 1558
Prize 1558
Mas@@ 1558
insect 1557
Bring 1557
lap 1557
stag@@ 1556
rang 1556
vill@@ 1556
bath@@ 1556
Monte 1556
effec@@ 1556
mom@@ 1556
wishing 1556
Document 1556
lasted 1555
answering 1555
2008-@@ 1555
sensible 1554
awa 1554
executing 1554
Clo@@ 1554
tec@@ 1554
Powers 1554
Additionally 1553
dum@@ 1553
ladder 1553
Chris 1553
Hungary 1553
fertilizer 1551
Jimmy 1551
patch 1551
quantum 1550
privilege 1550
Bol@@ 1550
aggregate 1550
foreign-@@ 1550
EM 1550
ects 1550
safer 1550
ary-@@ 1550
60@@ 1550
continuity 1550
License 1550
1992-1993 1550
brain@@ 1549
backing 1549
theft 1549
chron@@ 1549
impetus 1549
melt 1548
onary 1548
Awards 1548
flow@@ 1547
depos@@ 1547
scor@@ 1547
Contin@@ 1547
delivering 1547
Gra@@ 1546
off-@@ 1546
Blair 1546
Chin@@ 1546
Chai 1546
cling 1545
exceeds 1545
influencing 1545
Ass@@ 1545
warrant 1545
Channel 1545
Net@@ 1545
Forces 1545
locking 1544
Len@@ 1544
briefing 1544
SC 1544
Opening 1543
variations 1543
Croatian 1543
Leave 1542
nodes 1542
videos 1542
S-@@ 1542
Irish 1541
dedication 1541
doctrine 1541
aken 1541
Intro@@ 1541
urbanization 1541
scored 1541
age-@@ 1540
thir@@ 1540
elaboration 1540
portable 1540
Putin 1540
importantly 1540
pric@@ 1540
granting 1540
Areas 1540
whereby 1540
Consultative 1540
kicked 1539
prescription 1539
stack 1539
sia 1539
stadium 1539
traveled 1539
fix@@ 1538
get@@ 1538
Tunisia 1538
Marius 1538
benefited 1538
abortion 1537
mam@@ 1537
Virginia 1537
pressive 1537
Establishment 1537
Stay 1536
y. 1536
yi 1536
bankrupt 1536
vascular 1536
fog 1535
mir@@ 1535
fines 1535
insured 1535
spheres 1534
vegetation 1534
bud@@ 1534
harbour 1534
Nepal 1534
bis@@ 1533
umber 1533
smiles 1533
reproduction 1533
derivatives 1533
Gri@@ 1532
caution 1532
bored 1532
Units 1532
Montenegro 1532
cheek 1531
rainfall 1531
optional 1531
ruler 1531
Sachs 1531
disciples 1531
itting 1530
auc@@ 1530
je@@ 1530
UR 1530
ouring 1530
stein 1529
runner 1529
iller 1529
respiratory 1529
Fol@@ 1529
compatibility 1529
hed@@ 1529
convening 1529
cabin 1528
grip 1528
interval 1528
EA 1528
DA@@ 1528
Interim 1528
ille 1527
itter 1527
… 1527
developmental 1527
ation.@@ 1527
serial 1526
Resolution 1526
attributed 1525
trad@@ 1525
eline 1525
hes@@ 1525
bble 1525
.... 1525
hazards 1525
Zimbabwe 1525
Marketing 1525
ame@@ 1524
stam@@ 1524
weird 1524
wastewater 1524
quota 1523
where@@ 1523
Os@@ 1523
Liberation 1523
Hurstwood 1523
devastating 1523
Strip 1523
Few 1522
prevents 1522
brake 1522
Site 1521
ri 1521
exported 1521
Domestic 1520
implies 1520
massage 1520
developer 1520
Direct 1520
ok@@ 1520
Moon 1520
Rural 1520
Nice 1520
palm 1519
inserted 1519
Sn@@ 1519
stir 1519
calories 1519
acids 1519
nity 1519
attained 1519
free-@@ 1519
manpower 1519
arily 1518
bend 1518
supervisor 1518
self@@ 1517
vivid 1517
brethren 1517
ensured 1517
stepping 1517
cart 1517
stays 1516
clin@@ 1516
Strong 1516
highlights 1515
discriminatory 1515
Responsible 1515
per-@@ 1514
rat@@ 1514
Lab@@ 1514
bra 1514
attracting 1514
Sc@@ 1513
aph@@ 1513
cancellation 1512
livelihood 1512
insight 1512
occupy 1512
unfortunately 1512
lad@@ 1512
Analysts 1512
Economy 1512
paste 1511
thering 1511
disagree 1511
grati@@ 1511
Rachel 1511
itary 1511
shadows 1510
Prof@@ 1510
rains 1510
Reports 1510
Teachers 1510
py@@ 1509
Ide@@ 1509
replies 1509
dreaming 1508
geo@@ 1508
ologically 1508
controversy 1508
Yunnan 1508
ei 1508
anti-dumping 1508
muc@@ 1507
Word 1507
nish 1507
rail@@ 1507
priced 1507
IA@@ 1507
gardens 1506
spy 1506
arrives 1506
ported 1506
tism 1505
educate 1505
termin@@ 1505
Dragon 1505
origin@@ 1504
enzyme 1504
aint 1504
laundry 1503
canal 1503
ration@@ 1503
acked 1503
angu@@ 1503
salad 1503
buffer 1503
inappropriate 1502
thing@@ 1502
li 1502
escal@@ 1502
Oper@@ 1502
elephant 1501
detecting 1501
pow@@ 1501
journalist 1501
Half 1501
disturbing 1501
steering 1501
chapters 1501
Haitian 1501
Shi 1501
athlete 1500
concluding 1500
scarcely 1500
liv@@ 1500
Structure 1500
eats 1500
equipments 1500
Ancient 1500
20.@@ 1500
correspondence 1499
dian 1499
leaf@@ 1499
scales 1499
brid@@ 1498
avi@@ 1498
hated 1498
Throughout 1498
triggered 1497
statue 1497
ripe 1497
Economics 1497
polite 1496
Temple 1496
acoustic 1496
BA 1496
architectural 1495
tit@@ 1495
diary 1495
Procedure 1495
medium-sized 1495
airplane 1494
spectro@@ 1494
det@@ 1494
ffe@@ 1494
aters 1494
Cri@@ 1494
organ@@ 1494
zation 1494
deduc@@ 1494
all-round 1494
8. 1494
var@@ 1493
fresh@@ 1493
organisms 1493
air-@@ 1493
Tom@@ 1493
Judge 1493
lowered 1493
inous 1492
corrupt 1492
vulnerability 1492
oste@@ 1491
Nan@@ 1491
completing 1491
weaknesses 1491
sus@@ 1491
machining 1491
benchmark 1491
pad 1490
striving 1490
positioning 1490
Must 1490
transplantation 1490
tified 1490
fting 1489
aiming 1489
recognizing 1489
108 1489
Thai 1489
angi@@ 1488
Ali@@ 1488
Various 1488
searched 1488
ference 1487
adap@@ 1487
Far 1487
longing 1487
absor@@ 1487
corners 1487
ound@@ 1487
categor@@ 1487
Happiness 1486
targeting 1486
ventilation 1486
outset 1486
billi@@ 1486
Rab@@ 1486
Accounting 1486
extensively 1485
interpreted 1485
Way 1485
struggled 1485
Dol@@ 1485
Account 1485
PE 1484
rounds 1484
arrow 1484
Value 1484
YOU 1484
bargain 1484
Ross 1484
duplication 1484
UNAVEM 1484
satisfying 1483
sciences 1483
Madame 1483
sac@@ 1483
struc@@ 1483
fru@@ 1482
template 1482
slowed 1482
exceptions 1482
legi@@ 1482
Avoid 1482
ranked 1482
tang@@ 1481
'It 1481
Cuban 1481
wallet 1481
dynasty 1481
Step 1481
highways 1481
easing 1480
cellular 1480
planets 1480
noting 1480
Merrill 1480
peculiar 1480
regimes 1479
perfection 1479
diver@@ 1479
Either 1479
merit 1479
UNIDO 1479
senses 1478
Cause 1478
situated 1478
practiced 1478
risky 1478
PE@@ 1478
AIG 1478
formalities 1478
sai 1478
conve@@ 1477
spir@@ 1477
grams 1477
was@@ 1477
individually 1477
min 1477
cel@@ 1476
labels 1476
settling 1476
1967 1476
ala 1475
calculations 1475
tubes 1475
ision 1475
prey 1475
a. 1475
racing 1475
poorest 1475
observing 1475
Future 1475
ests 1474
glow 1474
sore 1474
timber 1474
ICAC 1474
tam@@ 1473
winding 1473
eleven 1473
Adam 1473
Jan@@ 1473
11-@@ 1473
lawn 1473
cell@@ 1473
on.@@ 1473
commerci@@ 1472
seemingly 1472
FC 1472
scanning 1472
Shandong 1472
clear@@ 1471
tow@@ 1470
Understanding 1470
Taliban 1470
atal 1470
Unity 1470
closest 1469
Stone 1469
collectively 1469
yah 1469
Invites 1469
petrol 1468
fur 1468
researcher 1468
adhesive 1468
Overall 1468
Serbian 1468
shor@@ 1467
techn@@ 1467
Getting 1467
high-tech 1467
Licence 1467
accountant 1466
izer 1466
departed 1466
intimate 1466
warfare 1466
appliances 1466
clu@@ 1466
tribunal 1466
gaze 1465
fruitful 1465
intervals 1465
ET 1464
relaxation 1464
lest 1464
wed@@ 1464
Fu 1464
Framework 1464
loudly 1463
streams 1463
system@@ 1463
itan 1463
deleted 1463
tou@@ 1463
ston 1463
Sig@@ 1463
Silver 1463
Yan 1462
cos@@ 1462
Yi@@ 1462
1000 1462
Maintenance 1462
Welcomes 1462
counter-@@ 1461
strings 1461
Consider 1461
ori 1461
poisoning 1461
consultancy 1461
foam 1460
nar@@ 1460
earth@@ 1460
Yuen 1460
assuming 1459
shortages 1459
offs 1459
audiences 1459
Land@@ 1459
cia 1459
graphics 1458
releases 1458
ling@@ 1457
after@@ 1457
jur@@ 1457
administer 1457
Shui 1457
prop@@ 1457
Costa 1457
Draft 1457
vac@@ 1457
Lev@@ 1456
downward 1456
Kok 1456
originated 1455
compassion 1455
advisers 1455
ptions 1455
coding 1455
Victoria 1455
Potter 1454
hits 1454
refl@@ 1454
Compl@@ 1453
exhibit 1453
tail@@ 1453
workload 1453
Isn 1453
platforms 1452
Att@@ 1452
unchanged 1452
goodbye 1452
procession 1452
devo@@ 1452
Iron 1452
pel@@ 1451
scratch 1451
lith@@ 1451
Live 1451
weaker 1451
Reaffirming 1451
Good@@ 1450
gly@@ 1450
chloride 1450
ecology 1450
smoo@@ 1450
tribe 1450
Tro@@ 1450
Supply 1450
summarize 1450
rooted 1450
edges 1449
Post@@ 1449
ET@@ 1449
Fish 1449
TC@@ 1449
Ow@@ 1448
appearing 1448
explaining 1448
suspicious 1448
FO@@ 1448
iter 1448
Rep@@ 1448
terminated 1448
hereinafter 1448
Procuratorate 1448
ic-@@ 1447
separ@@ 1447
toast 1447
scholar 1447
beg 1447
deepening 1447
Expo 1447
illusion 1447
er.@@ 1447
asylum 1447
transc@@ 1446
vocal 1446
earing 1446
etic 1446
arises 1446
gang@@ 1446
mit 1446
-and-@@ 1446
Municipal 1446
.1 1446
class2 1446
Mad@@ 1445
tra 1445
receiver 1445
consequently 1445
cheerful 1445
premise 1444
gaps 1444
Hai@@ 1444
neglected 1444
Liaison 1444
Muslims 1444
delete 1444
Above 1444
lakes 1443
fig@@ 1443
allocate 1443
exert 1443
Buddhist 1443
Libya 1443
suspects 1443
gation 1442
predecessor 1442
dialog 1442
avian 1442
tan 1442
disclose 1442
cups 1441
Equipment 1441
cheat 1441
viewing 1441
peti@@ 1441
Solomon 1441
orial 1440
Mexican 1440
though@@ 1440
Comm@@ 1440
underwater 1439
parti@@ 1439
Sarajevo 1439
imperi@@ 1439
simplified 1439
Co-@@ 1439
Pay 1438
spends 1438
cool@@ 1438
adviser 1438
ageing 1438
Corporate 1438
irrit@@ 1437
Discussion 1437
box@@ 1437
earnestly 1437
upcoming 1437
angels 1437
IR 1436
smallest 1436
Separ@@ 1436
pertaining 1436
Electrical 1435
ishment 1435
animation 1435
Chongqing 1435
earnest 1435
thers 1435
lightly 1434
Lon@@ 1434
ority 1434
spinning 1434
eph@@ 1434
fossil 1434
ron@@ 1433
ari 1432
sey 1432
cheer 1432
Lar@@ 1431
fec@@ 1431
tness 1431
census 1431
IX 1431
berries 1430
urine 1430
acker 1430
optimized 1430
need@@ 1430
qualify 1429
accountable 1429
jeans 1429
boarding 1429
jewelry 1429
Buddha 1429
Tra@@ 1429
offerings 1429
Income 1429
toe 1428
valu@@ 1428
indexes 1428
batteries 1428
sometime 1428
leakage 1428
hesitate 1427
duce 1427
MC 1427
Bac@@ 1427
reminds 1427
wells 1427
notified 1427
appe@@ 1426
Kennedy 1426
Changes 1426
goodness 1426
Railway 1426
cost-@@ 1426
san@@ 1426
pretend 1425
rob@@ 1425
defines 1425
.But 1425
migr@@ 1425
altern@@ 1425
overtime 1425
commun@@ 1424
amend 1424
chur@@ 1424
Oc@@ 1424
sank 1424
conditioning 1423
multimedia 1423
diversified 1423
mist@@ 1422
olo@@ 1422
expan@@ 1422
bloody 1422
oner 1422
forc@@ 1422
ini 1422
deposited 1422
reintegration 1422
ACC 1422
merchant 1421
refuge 1421
bolt 1421
envy 1421
stiff 1421
grains 1421
fighter 1421
contamination 1421
bombs 1420
metabolism 1420
fairy 1420
openness 1420
Med@@ 1420
booking 1419
squeeze 1419
sins 1419
cakes 1419
dled 1419
CA@@ 1418
starch 1418
finances 1418
leaning 1418
dark@@ 1418
Peoples 1418
definitions 1418
metallic 1417
businessman 1417
icon 1417
Kosovo 1417
amongst 1417
ula 1417
Create 1417
pencil 1416
teaches 1416
Talk 1416
suppl@@ 1416
liness 1416
rally 1416
youngest 1416
tuous 1415
tick 1415
slice 1415
activation 1415
step@@ 1415
lid 1415
poorly 1415
flats 1415
wan 1414
deaf 1414
preserving 1414
bian 1414
forehead 1414
Hil@@ 1414
enforced 1413
distortion 1413
mobility 1413
chin 1412
omed 1412
-related 1412
mes 1412
Al 1412
Al-@@ 1412
Sub-@@ 1412
circuits 1411
fe 1411
qualitative 1411
Prof 1411
AF@@ 1411
Romania 1411
conceptual 1411
Insp 1411
sed@@ 1410
si 1410
administrator 1410
exemption 1410
high-quality 1410
undergo 1410
Cancer 1410
viol@@ 1410
accessories 1410
Imagine 1410
tricks 1409
illustrated 1409
mortgages 1409
sliding 1409
turnover 1408
exam@@ 1408
Dev@@ 1408
business@@ 1408
contradiction 1408
hurried 1407
vent@@ 1407
rud@@ 1407
Woods 1407
Atomic 1407
aders 1406
fon@@ 1406
wrap 1406
diffusion 1406
than@@ 1406
gum 1406
vering 1406
Peru 1406
motive 1406
KB 1406
teenagers 1406
authentication 1406
aur@@ 1406
1.3 1406
allowances 1406
transl@@ 1405
Fro@@ 1404
Radi@@ 1404
rowing 1404
Machine 1404
centred 1404
cock@@ 1404
openly 1404
triumph 1404
Snow 1404
CA 1403
pillars 1403
Bec@@ 1403
Cli@@ 1402
vel 1402
open-@@ 1402
Steven 1402
1970s 1402
circulated 1402
jokes 1401
rot@@ 1401
entary 1401
monster 1401
Aaron 1401
prostitution 1401
frustration 1401
superiority 1401
nomination 1401
Choose 1401
airports 1401
Publ@@ 1400
cares 1400
vide@@ 1400
realm 1400
subsidy 1400
parliamentary 1400
.In 1400
tes@@ 1399
coins 1399
know@@ 1399
drawings 1399
Sixth 1399
stry 1398
construc@@ 1398
dig@@ 1398
list@@ 1398
prospective 1398
itating 1398
Arabic 1398
keepers 1398
heels 1398
remedies 1398
earning 1398
travels 1398
Lau 1398
iss 1397
admiration 1397
ool 1397
queue 1397
LDCs 1397
sent@@ 1396
opposing 1396
angles 1396
hua 1396
spectacular 1395
tablets 1395
uding 1395
finger@@ 1395
Arthur 1395
brow@@ 1395
likewise 1394
wavelet 1394
Risk 1394
ali 1394
Arsenal 1394
ased 1394
drawer 1393
sporting 1393
donations 1393
Effective 1393
wipe 1392
approving 1392
tool@@ 1392
rant 1392
broadly 1392
subjective 1392
altar 1392
quotas 1391
ouse 1391
disturbance 1391
BE 1391
chasing 1391
Haw@@ 1390
pa 1390
youll 1390
Lastly 1389
aut@@ 1388
floods 1388
ema 1388
marriages 1388
Winter 1388
uranium 1388
excluded 1388
Physical 1387
patrol 1387
Heart 1387
hormone 1387
credible 1387
merchandise 1387
invoice 1387
pains 1387
carb@@ 1387
conceived 1387
folder 1386
outputs 1386
thes@@ 1386
exams 1386
outlet 1386
best@@ 1386
Gor@@ 1386
quotation 1386
Tun@@ 1386
cow@@ 1385
ita 1385
vague 1385
vert 1385
nets 1385
uttered 1385
voc@@ 1385
Primary 1385
aire 1385
pre 1385
class3 1385
unpleasant 1384
Uncle 1384
Anyway 1384
tuition 1384
ag 1384
Inf@@ 1384
Personnel 1384
challenged 1383
vibr@@ 1383
recurrent 1383
Maria 1383
deer 1383
posting 1382
antenna 1382
equi@@ 1382
cum@@ 1382
Qing@@ 1382
Gil@@ 1382
cred@@ 1382
believing 1381
Ka@@ 1381
shr@@ 1381
SAR 1381
Bab@@ 1380
ridge 1380
Details 1380
hospitality 1380
securing 1380
smokers 1380
OP@@ 1380
shel@@ 1379
insulation 1379
6,000 1379
Shan@@ 1378
void 1378
builds 1378
Advanced 1378
Related 1378
propaganda 1377
horn 1377
fills 1377
Ori@@ 1377
GR@@ 1377
balancing 1377
neighbour 1377
Stu@@ 1377
ags 1377
Motor 1377
commended 1377
chy 1376
Xiang 1376
akers 1376
gle@@ 1376
aluminium 1376
handic@@ 1376
spacecraft 1376
lasts 1376
ridiculous 1376
FOR@@ 1376
lowering 1376
Develop 1376
judic@@ 1375
stimul@@ 1375
viral 1375
Patients 1375
thi@@ 1375
Produc@@ 1375
kit 1375
red-@@ 1375
it-@@ 1374
GO@@ 1374
survivors 1374
LI@@ 1374
incoming 1374
Flu@@ 1374
MAR@@ 1374
dock 1373
combines 1373
tomy 1373
hosting 1373
energy-@@ 1373
dental 1373
Coordin@@ 1373
fixing 1372
possesses 1372
warmly 1372
arians 1372
tariffs 1372
olu@@ 1372
sively 1372
reco@@ 1372
Under-Secretary-General 1372
ald 1371
Gener@@ 1371
Nic@@ 1371
atoms 1371
Pakistani 1371
Collection 1371
Dun@@ 1371
EV@@ 1371
sack 1370
Hal@@ 1370
0s 1370
Euro@@ 1370
secretly 1369
dresses 1369
plight 1369
extends 1369
accelerating 1369
concurrently 1369
hardship 1369
careers 1369
urs 1369
19.@@ 1369
interact 1368
solemn 1368
righteousness 1368
Son@@ 1368
-like 1368
116 1368
wonders 1368
discre@@ 1368
see@@ 1368
ues 1368
heroes 1368
good@@ 1368
enders 1367
DI@@ 1367
reorganization 1367
crush 1367
sig@@ 1367
sunset 1367
feudal 1367
7th 1367
Ministerial 1367
Stat@@ 1367
Tax@@ 1367
deserved 1366
symptom 1366
awa@@ 1366
peri@@ 1366
interactions 1366
aliens 1366
practicing 1366
Gordon 1366
exporting 1366
Hui 1366
squad 1365
north-@@ 1365
kn@@ 1365
AV@@ 1365
elevator 1365
consuming 1364
Han@@ 1364
centi@@ 1364
cere@@ 1364
sten@@ 1364
unite 1364
rests 1364
illi@@ 1364
will@@ 1363
econom@@ 1363
Il@@ 1363
Wow 1363
Tung 1363
watches 1362
Simulation 1362
rip@@ 1362
bir@@ 1362
tization 1362
neighboring 1362
ev 1361
amped 1361
Dist@@ 1361
Lebanese 1360
spokeswoman 1360
peers 1360
jing 1360
Course 1360
tioning 1359
ancing 1359
modules 1359
chi 1359
180 1359
two-thirds 1359
pronounced 1358
Sarkozy 1358
conductor 1358
computation 1358
violates 1358
bow@@ 1357
heed 1357
upright 1357
waiter 1357
UNOMIL 1357
Image 1356
Boo@@ 1356
wax 1356
sist@@ 1356
Telephone 1356
Rock 1355
indirectly 1355
belly 1355
expiry 1355
mess@@ 1355
inged 1355
anna 1355
modalities 1355
jam 1354
physician 1354
belonged 1354
fortunate 1354
Milan 1354
cad@@ 1354
inspire 1354
tually 1354
threatens 1354
decorated 1354
Poverty 1354
land-mines 1354
Bra@@ 1353
warnings 1353
gel 1353
ga 1353
submarine 1353
Blu@@ 1353
tos@@ 1353
pouring 1353
d. 1353
Anything 1352
P. 1352
Ul@@ 1352
heter@@ 1352
legitimacy 1352
Cho@@ 1352
thal@@ 1351
boot 1351
purse 1351
end-@@ 1351
repaired 1351
ISO 1351
Mgr 1351
Far@@ 1350
empirical 1350
sixty 1350
plur@@ 1350
Sul@@ 1350
Ever 1350
Ther@@ 1349
fall@@ 1349
Heat 1349
contaminated 1349
logging 1349
rers 1349
Projects 1349
phas@@ 1349
Body 1349
Tomorrow 1349
FDI 1349
centered 1348
microscope 1348
occasional 1348
Reg@@ 1348
Consumer 1348
Desig@@ 1348
workforce 1347
politician 1347
linkages 1347
blows 1346
Delta 1346
nails 1346
apped 1346
supervisors 1346
yards 1346
auspices 1346
aving 1345
span@@ 1345
pain@@ 1345
Bul@@ 1345
airlines 1345
ocation 1345
s.The 1345
stic 1344
Online 1344
Innovation 1344
retire 1344
Jiangsu 1344
inland 1343
Merc@@ 1343
sev@@ 1343
magne@@ 1343
seriousness 1343
Thousands 1343
butterfly 1343
straigh@@ 1343
successes 1343
Cou@@ 1343
Reference 1343
NOT 1342
CN@@ 1342
Kazakhstan 1342
ancestors 1342
decreasing 1342
airspace 1341
oo 1341
damp 1341
thunder 1341
nings 1341
inten@@ 1341
Tw@@ 1341
crowds 1341
vein 1340
IBM 1340
convene 1340
reaffirm 1340
9. 1340
reli@@ 1339
physiological 1339
Mari@@ 1339
ather 1339
explicitly 1339
chinese 1339
beneficiary 1339
alleviation 1339
govern 1338
SP 1338
shells 1338
class4 1338
shrink 1337
prototype 1337
ector 1337
DA 1337
inst@@ 1337
Night 1337
idly 1336
globally 1336
L. 1336
xi 1336
icy 1336
Coast 1336
fibers 1336
acity 1336
interviewed 1336
ground@@ 1336
inte@@ 1336
Sar@@ 1336
thumb 1335
hem 1335
famine 1335
hub 1335
rightly 1335
stant 1335
conversations 1335
postponed 1335
Individual 1335
boiling 1335
oly@@ 1335
countless 1334
decom@@ 1334
documentary 1334
constraint 1334
sheer 1334
Smart 1334
ordin@@ 1334
Exercise 1334
revenge 1333
typing 1333
saturated 1333
joints 1333
oils 1333
desktop 1333
excellence 1333
Examination 1333
Seminar 1333
appearances 1332
lif@@ 1332
slaves 1332
honored 1332
allegedly 1332
Xi 1331
turn@@ 1331
bloom 1331
Jonathan 1331
Privacy 1331
Schools 1331
、 1331
actic 1330
Belarus 1330
FR@@ 1330
Sri 1330
refund 1330
urging 1330
tissues 1329
credits 1329
calibration 1329
divine 1329
Double 1329
Shu@@ 1329
Sus@@ 1329
appreci@@ 1329
ora 1328
marital 1328
crashed 1328
Sto@@ 1328
inge 1327
floors 1327
spark 1327
aces 1327
privileges 1327
beneficiaries 1327
Tsuen 1327
gger 1326
conserv@@ 1326
consum@@ 1326
ity@@ 1326
TE 1326
sweep 1326
drift 1326
fore 1326
pro-@@ 1326
Materials 1326
buck@@ 1325
eco-@@ 1325
Jin 1325
broad@@ 1325
conqu@@ 1325
beard 1325
dang@@ 1325
coated 1325
R. 1324
ots 1324
cows 1324
Empire 1324
cheeks 1324
disadvantaged 1324
Optim@@ 1324
observance 1324
Yugoslav 1324
South-South 1324
organism 1323
Napoleon 1323
MENT 1323
eyed 1323
quarrel 1323
disadvantage 1323
102 1323
bert 1323
relieved 1322
deliberate 1322
Failure 1322
confront 1322
leverage 1322
Jeff 1322
feng 1322
chase 1321
melting 1321
innovations 1321
pause 1321
prohibition 1321
rendering 1321
Thats 1321
swee@@ 1320
Columbia 1320
fir@@ 1320
righteous 1320
ballot 1320
sh 1320
segments 1319
vitro 1319
mem@@ 1319
clip 1319
Around 1319
Hunan 1319
incl@@ 1318
jealous 1318
ounce 1318
extracted 1318
gers 1318
updates 1318
yn 1318
formations 1318
comparatively 1318
scholarship 1318
Armed 1318
shout 1317
real-time 1317
total@@ 1317
semester 1317
pot@@ 1317
shire 1317
businessmen 1317
Mine 1316
160 1316
ICE 1316
memorial 1316
bac@@ 1315
malaria 1315
LY 1315
rode 1315
Hang 1315
imbalance 1315
Tuen 1315
Sai 1315
rever@@ 1314
attachment 1314
persist 1314
Oxford 1314
jar 1314
commencement 1314
secret@@ 1314
cm 1314
say@@ 1314
s鈥 1314
ample 1313
Laboratory 1313
clarity 1313
Defin@@ 1313
ampli@@ 1313
Buddhism 1313
anchor 1313
lobby 1313
20-@@ 1313
Chang 1313
Det@@ 1313
LTD 1313
appealed 1313
Vic@@ 1312
locks 1312
simplicity 1312
exhaust 1312
C-@@ 1312
declarations 1312
grap@@ 1312
Transfer 1312
surprisingly 1311
Danish 1311
Mid@@ 1311
soaring 1311
anny 1311
nutrients 1311
uel 1311
infants 1311
Am 1311
sellers 1311
class5 1311
edi@@ 1310
Surely 1310
democratization 1310
1.2 1310
townships 1310
Pharaoh 1310
emer@@ 1309
dict@@ 1309
clarification 1309
mitigate 1309
stove 1309
bias 1308
mas 1308
Van 1308
repay 1308
plum@@ 1308
Dou@@ 1308
ester@@ 1308
stabilization 1308
Disaster 1308
NPT 1308
protesters 1307
scri@@ 1307
practise 1307
BBC 1307
Kate 1307
Deb@@ 1307
induce 1306
whit@@ 1306
turbine 1306
accorded 1306
customary 1306
thereon 1306
Electoral 1306
Save 1305
precip@@ 1305
accent 1305
hypertension 1305
Tim 1305
consisted 1305
drug-@@ 1305
origins 1305
presently 1305
Mail 1305
extingu@@ 1304
moreover 1304
Mol@@ 1304
advocated 1304
Syn@@ 1304
affordable 1304
sour 1304
strains 1304
agreeable 1303
bad@@ 1303
strang@@ 1303
renowned 1303
empire 1303
curse 1303
impartial 1303
softly 1303
supreme 1303
Azerbaijan 1303
intim@@ 1302
stead@@ 1302
mechan@@ 1302
four@@ 1302
Supervision 1302
summar@@ 1301
responsive 1301
fla@@ 1301
speeches 1301
churches 1301
thri@@ 1301
irregular 1301
Inside 1301
Documents 1301
icked 1300
float 1300
jol@@ 1300
tem@@ 1300
Marriage 1300
nerves 1300
Indonesian 1300
Harbour 1300
23.@@ 1300
calcul@@ 1299
ordering 1299
whoever 1299
Sudanese 1299
oes 1299
recruit 1299
revol@@ 1298
defending 1298
likelihood 1298
transferring 1298
Statistical 1298
passionate 1297
boun@@ 1297
tolerate 1297
championship 1297
gall@@ 1297
Cambridge 1297
wel@@ 1297
resumption 1297
Tanzania 1297
Maritime 1297
goat 1296
digging 1296
hydr@@ 1296
destroying 1296
rison 1296
government-@@ 1296
Straits 1295
diagnosed 1295
public@@ 1295
Boston 1295
Dre@@ 1295
Alexander 1294
Ple@@ 1294
weed 1294
8th 1294
sanc@@ 1294
harassment 1294
disseminate 1294
Taipei 1294
fetch 1294
overweight 1293
importing 1293
motiv@@ 1293
crunch 1293
tomb 1293
standardized 1293
elet 1292
feast 1292
discharged 1292
cervical 1292
smar@@ 1292
dest@@ 1292
Forest 1292
Thanksgiving 1292
Qin 1292
curves 1292
Latvia 1292
Armenia 1292
retailers 1291
Ah@@ 1291
priv@@ 1291
frustrated 1290
Seeing 1290
Base 1290
cil@@ 1290
explo@@ 1290
phosph@@ 1290
fain@@ 1290
Pop@@ 1290
106 1290
premature 1290
ove 1289
maximize 1289
usable 1289
115 1289
otic 1289
destined 1289
Sony 1289
Introduction 1289
scre@@ 1288
screens 1288
troop-contributing 1288
slavery 1287
Emer@@ 1287
clusters 1287
arguing 1287
acious 1287
Problems 1287
flock 1286
Deng 1286
Correc@@ 1286
coral 1286
inary 1286
swallow 1286
eable 1286
lunar 1286
morph@@ 1286
illustrates 1286
Leg@@ 1286
NPC 1286
medication 1285
infer@@ 1285
tak@@ 1285
High-@@ 1285
disposed 1285
robots 1284
eled 1284
cheer@@ 1284
Py@@ 1284
nas@@ 1284
astic 1284
instinct 1284
tionary 1284
Ann@@ 1284
sealing 1284
Transitional 1284
unstable 1283
dissolution 1283
asters 1283
cheating 1282
cies 1282
inability 1282
hunter 1282
woo@@ 1282
GRE@@ 1282
Ltd. 1281
Bangkok 1281
STA@@ 1281
lessness 1281
decreases 1281
Pierre 1280
glut@@ 1280
proving 1280
aero@@ 1280
Alex 1280
faction 1280
tar 1280
on-line 1280
gossip 1279
Mechanical 1279
autom@@ 1279
frames 1279
reminder 1279
weighed 1279
cost-effective 1279
xing 1279
foul 1278
acceleration 1278
hu 1278
genic 1278
detective 1278
asser@@ 1278
polluted 1278
ministerial 1278
hereby 1278
xed 1277
unreasonable 1277
sleep@@ 1277
addiction 1277
top-@@ 1277
unconscious 1277
filtering 1277
endangered 1276
lamb 1276
utilizing 1276
hot@@ 1276
ECOMOG 1276
Men@@ 1275
shifts 1275
Reduction 1274
ef 1274
distor@@ 1274
Brazilian 1274
lighted 1274
denom@@ 1274
Broadcasting 1274
spontaneous 1273
dealer 1273
insert 1273
aned 1273
7,000 1273
effected 1272
govern@@ 1272
geography 1272
spinal 1272
regression 1272
ective 1272
protec@@ 1272
surroundings 1272
antic 1272
aug@@ 1272
successive 1271
pulmonary 1271
sensation 1271
juvenile 1271
Quar@@ 1271
regul@@ 1271
resignation 1271
LCQ@@ 1271
unlimited 1270
fiel@@ 1270
literacy 1270
ultrasonic 1270
permanently 1270
spotted 1270
ENT 1270
Specific 1270
Arbitration 1270
manship 1269
bind 1269
insur@@ 1269
presum@@ 1269
hierarchy 1269
cherish 1268
high-speed 1268
decay 1268
portal 1268
h-@@ 1268
pris@@ 1268
PLC 1268
Renminbi 1268
Add.1 1268
exagger@@ 1267
editing 1267
lodge 1267
ox 1266
thered 1266
bru@@ 1266
darling 1266
bie 1266
ally-@@ 1266
catalogue 1266
meanings 1266
manages 1265
Main@@ 1265
phon@@ 1265
printer 1265
125 1265
breath@@ 1264
differentiation 1264
reliance 1264
must@@ 1264
voyage 1264
Manchester 1263
cardi@@ 1263
caus@@ 1263
HP 1263
junk 1263
ent-@@ 1263
predic@@ 1263
remainder 1263
stricken 1262
remarkably 1262
refrigerator 1262
beams 1262
Inner 1262
H. 1262
prudent 1262
yo@@ 1262
Estonia 1262
tia 1261
ellip@@ 1261
Ox@@ 1261
EF@@ 1261
photography 1261
viewpoint 1261
tized 1261
vity 1261
ader 1261
Stre@@ 1261
Cru@@ 1261
SO 1261
Eat 1260
Wilson 1260
dim 1260
Seoul 1260
qi 1260
wei 1260
Navy 1259
questionnaire 1259
manifest 1259
ert 1259
Whit@@ 1259
advocates 1259
bee 1258
aud@@ 1258
accepts 1258
hopeful 1258
heavens 1258
hotline 1258
right@@ 1258
handles 1257
Rule 1257
milit@@ 1257
sofa 1257
Lat@@ 1257
Drugs 1257
aki 1256
Feng 1256
Eli@@ 1256
shuttle 1256
compilation 1256
intentionally 1256
Chi 1256
Ceremony 1256
ni 1255
rol@@ 1255
fs 1255
tains 1255
Southeast 1255
naval 1255
dispatch 1255
Saul 1255
endeavor 1255
Law@@ 1255
External 1255
Co. 1255
107 1255
wr@@ 1254
leak 1254
immuno@@ 1254
Max 1254
ge-@@ 1254
aroused 1254
itch@@ 1254
yu 1254
ador@@ 1254
harbor 1254
binary 1254
synchron@@ 1253
gment 1253
numbered 1253
mitigation 1253
restoring 1253
recalls 1253
weekends 1253
Follow 1253
ffy 1252
func@@ 1252
sub 1252
performs 1252
Rica 1252
archives 1252
swift 1252
springs 1251
tom 1251
crushed 1251
look@@ 1251
sport@@ 1250
accum@@ 1250
raw@@ 1250
sexually 1250
meditation 1249
hypothesis 1249
unch 1249
Protec@@ 1249
demobilization 1249
wasting 1248
renovation 1248
fatty 1248
electrode 1248
bees 1248
rainy 1248
Freddie 1248
Ghana 1248
geometry 1247
elaborated 1247
gies 1247
cardiac 1247
airs 1247
banker 1247
requ@@ 1247
Independence 1247
potent 1246
ignorant 1246
sway 1246
smen 1246
Inc. 1246
licences 1246
submitting 1246
gallery 1245
sculp@@ 1245
pathy 1245
olive 1245
holdings 1245
U.N. 1245
9th 1245
vice-@@ 1244
seasonal 1244
cracked 1244
Na@@ 1244
olog@@ 1244
zh@@ 1244
dominate 1244
entation 1244
had@@ 1244
MS@@ 1244
30,000 1244
blocking 1243
charter 1243
sums 1243
Issues 1243
SS@@ 1242
Scott 1242
eving 1242
idated 1241
lik@@ 1241
glucose 1241
vacant 1241
gloomy 1241
Clearly 1241
Payment 1241
Buildings 1241
sel 1240
museums 1240
tooth@@ 1240
twins 1240
corridor 1240
1983 1240
interrupt 1239
awkward 1239
Iceland 1239
ice-@@ 1239
Cu@@ 1239
Electro@@ 1239
Log@@ 1239
mou@@ 1239
chickens 1239
pledges 1239
acies 1239
unanimously 1239
class6 1239
nuclear-weapon-free 1239
Count 1238
Plan@@ 1238
alignment 1238
Dom@@ 1238
dot 1238
Sand@@ 1238
interventions 1238
Mand@@ 1238
vin@@ 1238
1973 1238
graceful 1237
perspectives 1237
apology 1237
Authorities 1237
cracks 1236
ousness 1236
Item 1236
pills 1235
retrieval 1235
recipients 1235
Marx 1235
Pollution 1235
market@@ 1235
hers 1234
urg@@ 1234
narrative 1234
shru@@ 1234
condemn 1234
sweater 1234
dug 1234
anti-personnel 1234
earthquakes 1233
proclaimed 1233
conducts 1233
healthcare 1233
natur@@ 1233
firstly 1233
Coal 1233
MBA 1233
repairing 1232
pt 1232
authorize 1232
tionally 1232
credited 1232
heavier 1232
gal 1232
specialty 1232
Valjean 1232
Want 1232
Expert 1232
Pas@@ 1232
broker 1231
Hangzhou 1231
IB@@ 1231
rav@@ 1231
Saint 1231
Xu 1231
Trading 1231
oop 1230
Fur@@ 1230
enduring 1230
complaining 1230
retention 1230
competitions 1230
quo 1230
Jenny 1230
oil-@@ 1230
Aid 1230
cris@@ 1229
tz 1229
metry 1229
UV 1229
arena 1229
insists 1229
crow@@ 1229
deficits 1229
Source 1229
111 1229
severity 1228
eased 1228
mould 1228
Ensure 1228
los@@ 1227
ushes 1227
Sco@@ 1227
nel 1227
orth@@ 1227
notable 1227
uph@@ 1227
ingredient 1227
reign 1227
cher@@ 1227
vacancy 1227
child@@ 1227
undergraduate 1227
Participants 1227
burns 1226
PER@@ 1226
manifestations 1226
rier 1226
Banks 1226
Starting 1226
2007-@@ 1226
http 1226
8,000 1226
Env 1226
neat 1225
essive 1225
Howard 1225
necess@@ 1225
esting 1225
valves 1225
perceive 1225
physi@@ 1225
nu@@ 1225
assumptions 1225
piles 1225
erous 1224
ja 1224
Daddy 1224
ruined 1224
deepest 1224
automated 1223
flux 1223
sacrifices 1223
FA 1223
Vis@@ 1223
noodles 1223
faithfully 1223
scram@@ 1222
rubbish 1222
ce-@@ 1222
versus 1222
declines 1222
entries 1222
energies 1222
buys 1222
View 1222
fishery 1222
justification 1221
plastics 1221
transported 1221
corrected 1221
rotating 1221
unrest 1221
deed 1221
lighter 1221
Gets 1221
vers@@ 1220
ressed 1220
tility 1220
emo@@ 1220
K. 1220
Know 1220
debates 1220
depths 1220
frank 1220
Hot 1220
helicopters 1220
stationary 1220
1981 1220
scheduling 1219
induction 1219
Owing 1219
comprise 1219
periodically 1219
picnic 1219
replacing 1218
blend 1218
inflammation 1218
neur@@ 1218
tournament 1217
hap@@ 1217
researching 1217
ongs 1217
coronary 1217
STE@@ 1217
109 1217
Weather 1216
esis 1216
downloaded 1216
ales 1216
frag@@ 1216
Taylor 1216
grabbed 1216
Einstein 1216
intervene 1216
D-@@ 1216
viewers 1216
'S 1216
Vice-President 1216
Stamps 1216
19th 1215
feder@@ 1215
mistaken 1215
Secondary 1215
lime 1215
fuck 1215
Command 1215
Day@@ 1215
vered 1214
sleeve 1214
Wel@@ 1214
angel@@ 1214
homeland 1214
Audit 1214
Single 1214
grading 1214
minors 1214
Franklin 1213
dul@@ 1213
guarded 1213
validation 1213
reinforcing 1213
Cristo 1213
persuaded 1213
Distribution 1213
Fif@@ 1212
certainty 1212
improper 1212
peripheral 1212
HD 1212
Pos@@ 1212
hobby 1212
gloves 1212
judiciary 1212
Organizations 1212
Schedule 1212
114 1212
temptation 1211
stimulation 1211
trauma 1211
Frank@@ 1211
eous 1210
Eight 1210
edit 1210
updating 1210
pac@@ 1210
lead@@ 1210
Swedish 1210
tary 1210
assurances 1210
NA 1210
.You 1210
ced 1209
punc@@ 1209
Panama 1209
NO 1209
packet 1209
inqu@@ 1208
attacking 1208
Cover 1208
distr@@ 1208
sandwich 1208
rebuilding 1208
mark@@ 1208
evolutionary 1208
Diana 1208
margins 1207
cessation 1207
inflammatory 1207
cle 1207
enthusiastic 1207
foremost 1207
capsule 1206
Pack@@ 1206
subscri@@ 1206
eration 1206
ood 1206
noisy 1206
homeless 1206
chro@@ 1205
penny 1205
Amy 1205
attainment 1205
sym@@ 1205
Banking 1205
widow 1205
arized 1205
apers 1204
civilized 1204
symbolic 1204
26.@@ 1204
Hoc 1204
terribly 1203
riches 1203
twist 1203
Doctors 1203
MP 1203
stly 1202
gle 1202
manned 1202
dilemma 1202
detector 1202
Initiative 1202
scenic 1201
privately 1201
Cer@@ 1201
honestly 1201
underlined 1201
Mr.@@ 1201
jour@@ 1200
artillery 1200
assignments 1200
tidy 1199
flee 1199
recipe 1199
produc@@ 1199
Doha 1199
whatsoever 1199
garments 1199
mination 1199
logo 1198
inequality 1198
thereafter 1198
barrels 1198
stabilize 1198
manipulation 1198
renminbi 1198
maj@@ 1198
abol@@ 1198
Tree 1198
simulate 1198
Deep 1197
Sel@@ 1197
ession 1197
reimbur@@ 1197
aliz@@ 1197
footing 1197
greeted 1197
recognised 1197
accomplishment 1197
é 1197
buttons 1197
low-cost 1197
facilitated 1197
trustee 1197
creditor 1197
oon 1197
featuring 1196
brutal 1196
bucket 1196
IPO 1196
acquisitions 1196
Java 1196
Disease 1196
sensi@@ 1196
fascinating 1196
brass 1196
committing 1196
power@@ 1195
rist@@ 1195
gling 1195
Agent 1195
yearly 1195
icing 1195
exclusion 1194
kne@@ 1194
liner 1194
gradient 1194
evolving 1194
robbery 1194
utterly 1194
lag 1194
Hawaii 1194
carved 1194
Ash@@ 1194
Cypriot 1194
25.@@ 1194
shifted 1193
Speak 1193
aloud 1193
yo 1193
kit@@ 1193
citizenship 1193
analy@@ 1193
herein 1193
opol@@ 1193
regulator 1193
Automatic 1193
People鈥檚 1193
horri@@ 1192
aerial 1192
Hua 1192
Permit 1192
salesman 1191
Ky@@ 1191
abdominal 1191
Century 1191
steak 1191
duplicate 1191
ANG 1191
IO@@ 1191
tut@@ 1190
dislike 1190
Gam@@ 1190
i. 1190
sweeping 1190
140 1190
nutritional 1190
loneliness 1190
directional 1189
disturb 1189
Spr@@ 1189
graft 1189
pati@@ 1189
Ath@@ 1189
supplements 1189
Animal 1189
22.@@ 1189
T. 1188
humidity 1188
tiles 1188
cracking 1188
inhabited 1188
undertook 1188
eman@@ 1188
kilograms 1188
cen@@ 1188
quo@@ 1188
Period 1187
ura 1187
lent 1187
counsel@@ 1187
Grant 1187
religions 1187
Officers 1187
gla@@ 1186
hint 1186
suffers 1186
pumping 1186
veil 1186
consulted 1186
soo@@ 1186
rian 1186
wit 1186
resses 1185
mesh 1185
fortunes 1185
deteriorating 1185
schooling 1185
instructed 1185
DC@@ 1185
corrections 1185
commend 1185
probable 1184
iced 1184
relying 1184
assumes 1184
Ali 1184
stating 1184
imperial 1184
exhibitions 1184
Success 1184
Ok 1184
curative 1184
103 1184
eties 1183
similarly 1183
fork 1183
Philip 1183
stud@@ 1183
LD 1183
Programmes 1183
UNU 1183
discourse 1182
ected 1182
Stri@@ 1182
NBA 1182
dispose 1182
faculty 1182
imper@@ 1182
Conditions 1182
Ret@@ 1182
turkey 1182
nuclear-@@ 1182
projection 1182
ara 1181
someday 1181
Michelle 1181
ABC 1181
flames 1180
Cosette 1180
voluntarily 1180
speedy 1180
Close 1180
browser 1180
Div 1180
Islam 1179
plague 1179
bubbles 1179
propagation 1179
god@@ 1179
molecule 1179
careless 1179
dealers 1179
fashionable 1179
Bio@@ 1179
presidents 1179
balances 1179
Lei 1179
Promoting 1179
preambular 1179
respecting 1178
Arctic 1178
groundwater 1178
Joey 1178
ooth 1178
N. 1178
Inte@@ 1177
Lisa 1177
promotional 1177
embarrassed 1177
weakened 1177
pertinent 1177
Pul@@ 1177
stakes 1177
evid@@ 1177
2006-@@ 1177
takeover 1176
sigh 1176
OL 1176
amazed 1176
plunged 1176
lur@@ 1176
lofty 1176
observ@@ 1176
commissioned 1176
outward 1176
Tea 1176
Sue 1176
dumb 1175
beaches 1175
enrich 1175
cholesterol 1175
supplying 1175
grim 1175
Cont@@ 1175
Clean 1175
Madam 1175
tha 1174
gru@@ 1174
contingency 1174
fic 1174
adherence 1174
Disney 1174
glue 1174
ix 1174
lectures 1174
una 1173
Aviation 1173
undergone 1173
room@@ 1173
ean 1173
demonstrations 1173
veness 1173
coup 1173
Nation@@ 1173
exempted 1173
disrup@@ 1172
80@@ 1172
SARS 1172
pes 1172
memor@@ 1172
dragged 1172
mation 1172
mond 1172
Lily 1172
onally 1172
10th 1172
Samuel 1172
standardization 1172
safe@@ 1172
paras 1172
financially 1171
sha 1171
hn@@ 1171
Toyota 1171
think@@ 1171
Ethnic 1171
treats 1170
escence 1170
abr@@ 1170
Doc@@ 1170
lays 1170
UG@@ 1170
dump 1170
NASA 1170
ek@@ 1170
donated 1170
Likewise 1170
pavement 1169
turb@@ 1169
00-@@ 1169
nucle@@ 1169
lungs 1169
colon@@ 1169
orable 1169
exploded 1169
adversely 1169
Relief 1169
104 1169
supervising 1169
There@@ 1169
subordinate 1168
Nairobi 1168
prosecuted 1168
3D 1168
sprink@@ 1168
Well@@ 1168
capitalism 1168
auxiliary 1168
Factory 1168
pep@@ 1168
guitar 1167
transient 1167
admired 1167
featured 1166
doll 1166
inclusive 1166
basement 1166
country@@ 1166
chim@@ 1166
stom@@ 1166
dispatched 1166
woven 1166
ask@@ 1166
fostering 1166
towel 1165
fragrance 1165
lacked 1165
sali@@ 1165
Wit@@ 1165
husbands 1165
bot@@ 1165
healthier 1165
stall 1165
depart 1165
Late 1165
summarizes 1165
green@@ 1164
scar@@ 1164
ulator 1164
Seller 1164
abor@@ 1164
exclaimed 1164
Alliance 1164
Az@@ 1164
MPF 1164
endeavours 1164
Diffe@@ 1163
aided 1163
ilit@@ 1163
tles 1163
toes 1163
Dow 1163
appealing 1163
covenant 1163
osity 1162
toxicity 1162
Preparation 1162
appl@@ 1162
ambitions 1162
stac@@ 1162
mall 1162
Dream 1162
outing 1161
persistence 1161
rounded 1161
CT@@ 1161
uster 1161
Olym@@ 1161
Stage 1161
switched 1161
Principal 1161
Beauty 1161
Cour@@ 1160
dean 1160
protocols 1160
expired 1160
rot 1160
nia 1160
aper 1159
Fir@@ 1159
socially 1159
soda 1159
trop@@ 1159
itis 1159
Sem@@ 1159
five-year 1159
Cir@@ 1159
Adobe 1159
hug 1158
poisonous 1158
tol@@ 1158
gon@@ 1158
rebels 1158
xes 1158
Fun@@ 1158
Talks 1158
administrators 1158
Macedonia 1158
West@@ 1157
reforming 1157
Lower 1157
macro 1157
tices 1157
pensions 1157
constrained 1157
鈥淚 1157
bum@@ 1156
trash 1156
alternate 1156
struggles 1156
cock 1156
less@@ 1156
guaranteeing 1156
diving 1155
particulars 1155
mun@@ 1155
stimulating 1155
audi@@ 1154
lowing 1154
tt 1154
echo 1154
kno@@ 1154
shop@@ 1154
taxpayers 1154
Express 1154
sexy 1153
shouting 1153
tumors 1153
eradicate 1153
1976 1153
LA 1153
inquire 1153
sibility 1152
recreation 1152
sor 1152
Millennium 1152
denial 1152
boiler 1152
inspected 1152
bel 1152
Key@@ 1152
Van@@ 1152
Material 1152
Centres 1152
dye 1151
OECD 1151
aine 1151
accidentally 1151
Rap@@ 1151
eing 1151
thwestern 1151
Williams 1151
Trademark 1151
Procedures 1151
Video 1151
side@@ 1150
weary 1150
marginal 1150
PA@@ 1150
wires 1150
irs 1150
professors 1149
limbs 1149
charts 1149
decree 1149
logy 1149
Ci@@ 1149
ateral 1149
iles 1149
disciplines 1149
strife 1149
CR 1148
endanger 1148
hello 1148
nuclear-weapon 1148
ranges 1147
elev@@ 1147
finest 1147
Pa@@ 1147
Hamlet 1147
alty 1147
alarming 1147
compelled 1147
Didn 1147
China鈥檚 1147
dog@@ 1146
ept 1146
ingu@@ 1146
Ban 1146
Kevin 1145
ja@@ 1145
west@@ 1145
vag@@ 1145
northeast 1145
stakeholders 1145
terrain 1145
aspiration 1145
soluble 1145
I-@@ 1145
Chu@@ 1145
Depression 1144
discrete 1144
resonance 1144
sincerity 1144
silently 1144
cured 1144
departmental 1144
wiped 1143
relies 1143
Easter 1143
distributing 1143
Top@@ 1143
magical 1143
dead@@ 1143
2012 1142
nan 1142
Aqu@@ 1142
Boy 1142
Chandler 1142
violating 1142
iro 1141
Ol@@ 1141
Examples 1141
adv@@ 1141
architect 1141
insulin 1141
ado 1141
third-@@ 1141
PM 1141
shaping 1141
labor@@ 1141
MIN@@ 1141
procuring 1141
brow 1141
cartoon 1140
tl@@ 1140
Plus 1140
Mos@@ 1140
spelling 1140
Wind 1140
fty 1140
gastric 1140
sex@@ 1140
Remove 1140
appropriation 1140
Excellency 1139
pore 1139
imag@@ 1139
travelled 1139
hs 1139
Develop@@ 1139
temp@@ 1139
Tsui 1138
pseud@@ 1138
escent 1138
atom 1138
thoughtful 1138
reinforcement 1138
centralized 1138
collections 1138
regrets 1138
Improving 1138
Organiz@@ 1138
UNOMIG 1138
CAR@@ 1137
fermentation 1137
titude 1137
bank@@ 1137
Zhao 1137
State-owned 1137
preferences 1137
Subsequently 1137
authentic 1136
tings 1136
infin@@ 1136
enquiry 1136
refusing 1136
tenants 1136
Fred 1135
HS 1135
ees 1135
missi@@ 1135
absorbing 1135
token 1134
celebrity 1134
oath 1134
Rad@@ 1134
fibre 1134
S.@@ 1134
COM@@ 1134
helpless 1133
Pyongyang 1133
purity 1133
Improvement 1133
gor@@ 1132
oblig@@ 1132
awaiting 1132
e- 1132
mill@@ 1132
PD@@ 1131
surgeon 1131
fluctuations 1131
ui 1131
magni@@ 1131
practitioners 1131
sick@@ 1130
slides 1130
collateral 1130
ammunition 1130
-free 1130
dive 1130
word@@ 1130
lamps 1130
dun@@ 1129
multitude 1129
Embassy 1129
UND@@ 1129
pillow 1129
lap@@ 1129
bowed 1129
Zhu 1129
Grade 1129
Sav@@ 1128
eye@@ 1128
catalytic 1128
practicable 1128
Brian 1128
alcoholic 1128
Hamas 1128
Outside 1128
preparedness 1128
flags 1128
HSBC 1128
tribes 1128
Tsang 1128
Processing 1128
Interest 1128
dentist 1127
tiz@@ 1127
dividend 1127
siveness 1127
lum@@ 1127
1974 1127
Fire@@ 1127
textiles 1127
nasty 1126
pipelines 1126
Zhen 1126
his@@ 1126
landlord 1126
cious 1126
Guam 1126
Aim 1126
how@@ 1125
forge 1125
deviation 1125
advocacy 1125
Europeans 1125
00,000 1125
dared 1124
land-@@ 1124
set@@ 1124
market-@@ 1124
Taiwanese 1124
30-@@ 1124
unwilling 1123
Prior 1123
Roc@@ 1123
alise 1123
Liber@@ 1123
tonnes 1123
cruise 1123
Yemen 1123
thieves 1123
whale 1123
Defence 1123
1.1 1123
Prosecutor 1123
Yangtze 1122
surveying 1122
connotation 1122
deep-@@ 1122
tours 1122
Brussels 1122
Incl@@ 1122
Gol@@ 1122
fabrics 1121
jungle 1121
isc@@ 1121
Les@@ 1121
Tel@@ 1121
Game 1121
33@@ 1121
Lynch 1121
dew 1121
too@@ 1121
ani@@ 1121
Colonel 1121
traveler 1121
Car 1121
convincing 1120
cir@@ 1120
Tem@@ 1120
wear@@ 1120
destabil@@ 1120
clauses 1120
yers 1120
lenders 1120
Chinese-@@ 1120
yarn 1120
logistical 1120
fifty-first 1120
arri@@ 1119
rus 1119
itz 1119
compile 1119
Budget 1119
Budgetary 1119
2007-0@@ 1119
EP@@ 1118
shelves 1118
cryst@@ 1118
chap 1118
nate 1118
invites 1118
diff@@ 1118
CIS 1118
vy 1117
rub@@ 1117
emin@@ 1117
forging 1117
illary 1117
soybean 1117
Tehran 1117
piling 1117
domin@@ 1117
under-@@ 1117
questioning 1117
nickel 1117
Fannie 1117
marble 1117
Welcoming 1117
NC 1116
drafted 1116
andy 1116
Bearing 1116
assass@@ 1116
amm@@ 1116
ider 1116
OM 1116
activists 1116
Intergovernmental 1116
mann 1115
org@@ 1115
Care@@ 1115
withdrew 1115
Sierra 1115
Billy 1115
Wing 1115
uous 1114
oration 1114
judging 1114
prov@@ 1114
shocks 1114
Similar 1114
Telecommunications 1114
tighten 1113
prospecting 1113
Spec@@ 1113
wrath 1113
loos@@ 1113
Wuhan 1113
suite 1113
peacefully 1113
resolutely 1113
Yang@@ 1113
U.S.@@ 1113
dietary 1113
Tech 1113
1960 1113
swelling 1112
Christians 1112
oscopic 1112
serv@@ 1112
widening 1112
rhetoric 1112
FE@@ 1112
Director-General 1112
OS 1111
scenarios 1111
aver 1111
embassy 1111
IOC 1111
Testing 1111
petition 1110
pancre@@ 1110
veto 1110
cast@@ 1110
inconsistent 1110
resigned 1110
ditch 1110
eagle 1110
resettlement 1110
broaden 1109
gul@@ 1109
ATE 1109
FD@@ 1109
expedi@@ 1109
Users 1109
3.5 1109
communic@@ 1108
vase 1108
tain 1108
assemble 1108
offspring 1108
vicious 1108
philosopher 1108
grocery 1108
Behind 1108
embodied 1108
Self 1108
elle 1108
Mah@@ 1108
oak 1108
Woman 1108
prisons 1108
tomato 1107
Roger 1107
partition 1107
ogenic 1107
bou@@ 1107
resign 1107
fair@@ 1107
Return 1107
Ladies 1107
Kung 1107
Avenue 1106
evolve 1106
flap 1106
bed@@ 1106
Any@@ 1106
generates 1106
Response 1106
Albania 1106
conceal 1105
ida 1105
punch 1105
practic@@ 1105
comedy 1105
cane 1105
generic 1105
tre 1105
196@@ 1105
myth 1105
tled 1105
brother@@ 1104
prin@@ 1104
Lhasa 1104
Non-Self-Governing 1104
acquiring 1103
sperm 1103
coma 1103
15th 1103
martial 1103
endorse 1103
edible 1103
seekers 1103
Oscar 1103
railways 1103
ratings 1103
Greater 1103
athletic 1102
arithmetic 1102
che 1102
Jobs 1102
turtle 1102
this@@ 1102
spill 1101
absurd 1101
Writing 1101
diamonds 1101
duced 1101
furnished 1101
Dynamic 1101
cooperating 1101
sued 1101
greeting 1101
Vietnamese 1101
Sally 1101
fountain 1101
Cun 1101
towers 1100
Brow@@ 1100
laptop 1100
dra@@ 1100
Lanka 1100
concealed 1100
legality 1100
unification 1099
atically 1099
glimpse 1099
Eng@@ 1099
right-@@ 1099
quarterly 1099
reuse 1099
programmed 1099
booming 1099
Rich 1099
imbalances 1098
iter@@ 1098
112 1098
waking 1098
collector 1098
SMEs 1098
Week 1098
verb 1097
parade 1097
small-@@ 1097
philosophical 1097
puzzle 1097
consciously 1097
able@@ 1097
theirs 1097
Talking 1097
Linda 1096
devi@@ 1096
dissolved 1096
reversed 1096
english 1096
Darfur 1096
D.@@ 1096
ONUSAL 1096
courtyard 1095
expose 1095
tance 1095
queries 1095
Adv@@ 1095
block@@ 1095
Mei 1095
regretted 1095
thematic 1095
withstand 1094
intact 1094
Believe 1094
spirit@@ 1094
essions 1094
three-year 1094
ion@@ 1094
Citizens 1094
contributors 1094
Lusaka 1094
offense 1093
tus 1093
patri@@ 1093
Probably 1093
Run 1093
copying 1092
Front 1092
forged 1092
Arm@@ 1092
salvation 1092
stra@@ 1092
adequacy 1092
Summary 1092
Consultation 1092
sticking 1091
acle 1091
motorcycle 1091
mono@@ 1091
robbed 1091
rel 1091
rotor 1091
Prices 1091
ECE 1091
Compensation 1090
ectomy 1090
slim 1089
Antarctica 1089
ete 1088
incredibly 1088
physic@@ 1088
sided 1088
tore 1088
recourse 1088
Beyond 1088
Ecuador 1088
WA@@ 1088
courtesy 1087
portrait 1087
tist 1087
Going 1087
cep@@ 1087
emic 1087
inquiries 1087
Non-Proliferation 1087
day.@@ 1087
Donald 1086
arsen@@ 1086
Zhu@@ 1086
merge 1086
boil 1086
inward 1086
biom@@ 1086
stic@@ 1086
exquisite 1086
CN.@@ 1086
offender 1085
comb@@ 1085
Ze@@ 1085
tiveness 1085
returnees 1085
Dick 1085
torque 1085
Guangxi 1085
Eg 1084
fem@@ 1084
hormones 1084
blu@@ 1084
Juli@@ 1084
langu@@ 1084
thin@@ 1084
objections 1084
astro@@ 1084
commence 1084
System@@ 1083
for-@@ 1083
mentality 1083
gin@@ 1083
Decision 1083
V. 1083
Mountains 1083
insecurity 1083
Monica 1083
Jun@@ 1083
filters 1082
sigh@@ 1082
bosses 1082
ar-@@ 1082
taxpayer 1082
refin@@ 1082
Cut 1082
present@@ 1082
indications 1082
counterpart 1081
intrac@@ 1081
Laura 1081
shone 1081
Non@@ 1081
arduous 1081
stern 1081
miners 1081
devotion 1081
Exam@@ 1081
industri@@ 1081
Danglars 1081
tales 1080
inn 1080
Antarctic 1080
norm@@ 1080
prayers 1080
pulp 1080
ored 1080
interpersonal 1080
impress 1080
EF 1080
spoil 1079
thirst 1079
downs 1079
jer@@ 1079
aught 1079
cared 1079
29.@@ 1079
vicinity 1078
eps 1078
boiled 1078
rais@@ 1078
kills 1078
habitat 1078
peer 1078
Copyright 1078
Program@@ 1078
revisions 1078
aic 1077
sati@@ 1077
taining 1077
swap 1077
Dark 1077
hn 1077
tones 1077
implements 1077
Laws 1077
21.@@ 1077
designate 1076
far-reaching 1076
Mass 1076
rents 1076
perme@@ 1075
individu@@ 1075
Determin@@ 1075
trait 1075
intolerance 1075
singular 1075
eral 1075
weak@@ 1075
murdered 1075
scent 1074
hinder 1074
thunder@@ 1074
Nordic 1074
tally 1074
treasures 1074
viscosity 1074
aquatic 1074
1970 1074
danced 1074
Grandpa 1074
postmark 1074
analysing 1074
PAR@@ 1074
Michigan 1074
cries 1073
depl@@ 1073
sedi@@ 1073
ate-@@ 1073
bon 1073
exempt 1073
Heavy 1073
super-@@ 1073
tightening 1073
fet@@ 1073
Ron 1072
Settlements 1072
exterior 1072
baking 1072
isnt 1072
Shipping 1072
Respon@@ 1071
deliberation 1071
Deli@@ 1071
traces 1071
exer@@ 1071
arming 1071
welcoming 1071
tailor 1071
dispen@@ 1071
LC 1071
Cape 1071
By@@ 1070
'an 1070
crip@@ 1070
000@@ 1070
dwelling 1070
鈥淚@@ 1070
marsh@@ 1069
idation 1069
discrimin@@ 1069
Bir@@ 1069
volatility 1069
pepper 1069
grac@@ 1069
kernel 1069
Buyer 1069
Jintao 1069
scar 1068
Result 1068
malignant 1068
thum@@ 1068
innocence 1068
balloon 1068
snack 1068
ellers 1068
uration 1068
visas 1068
Anne 1067
needy 1067
communicating 1067
anian 1067
sculpture 1067
fade 1067
cliff 1067
writ@@ 1067
souvenir 1067
low-income 1067
stipulates 1067
ont 1066
alli@@ 1066
knot 1066
verb@@ 1066
delegate 1066
Easy 1066
Outline 1066
Clerk 1066
Expresses 1066
underneath 1065
oot 1065
substrate 1065
qing 1065
lymph@@ 1065
harmonic 1065
initiation 1065
festivals 1065
watch@@ 1065
Poli@@ 1065
eer 1065
Fujian 1065
mast@@ 1064
Dur@@ 1064
Ga@@ 1064
regain 1064
bladder 1064
Requirements 1064
Resident 1064
User 1064
raining 1064
lad 1064
fulfilment 1064
heap 1063
glob@@ 1063
eventual 1063
Jason 1063
-off 1063
celebrating 1063
psycho@@ 1063
insult 1063
derive 1063
money@@ 1063
mum@@ 1062
poorer 1062
criticize 1062
Apply 1062
font 1062
ov 1062
donkey 1062
simplify 1062
profiles 1062
tionist 1062
whe@@ 1061
inver@@ 1061
sal 1061
Bad 1061
fundamentally 1061
prophet 1061
illustr@@ 1060
stubborn 1060
sno@@ 1060
atter 1060
Bus 1060
1975 1060
judgments 1060
rebel 1060
urt 1059
Shanxi 1059
HA@@ 1059
episode 1059
subscription 1059
Properties 1059
Partnership 1059
compares 1058
reactive 1058
coloured 1058
disruption 1058
flooded 1058
facto 1058
elbow 1058
attracts 1058
rig@@ 1058
norm 1058
Champi@@ 1058
prescri@@ 1058
Rain@@ 1058
Cop@@ 1058
500,000 1058
Listing 1057
imminent 1057
collaborative 1057
adj 1057
downstairs 1057
sus 1057
ambassador 1057
ais@@ 1057
transplant 1057
ule 1057
Sor@@ 1057
Multi-@@ 1057
small@@ 1056
elly 1056
Peninsula 1056
wash@@ 1056
painter 1056
GPS 1056
fantasy 1056
communicated 1056
richer 1056
camp@@ 1056
Qingdao 1056
Relationship 1056
beg@@ 1056
ance-@@ 1056
eck 1056
Work@@ 1056
digit 1056
grassland 1056
learners 1056
Ok@@ 1055
manifestation 1055
femin@@ 1055
oa 1055
privatization 1055
utilities 1055
insurer 1055
aids 1055
decentralization 1055
Overseas 1055
morphology 1054
setup 1054
shrinking 1054
commenced 1054
activate 1054
thouse 1054
accompanying 1054
NT 1054
36@@ 1054
comprehensively 1054
couldnt 1054
Betty 1053
JP 1053
stems 1053
outlets 1053
sional 1053
finals 1053
travelers 1053
brokerage 1053
Lucy 1052
Intellectual 1052
sar@@ 1052
vin 1052
privileged 1052
loser 1052
implied 1052
problem@@ 1052
DR@@ 1051
atro@@ 1051
twisted 1051
Photo 1051
worthwhile 1051
lear@@ 1051
Principle 1051
guardian 1050
Dor@@ 1050
threads 1050
sympathetic 1050
bal 1050
anning 1050
ITY 1050
Institutions 1050
acceded 1050
Add.@@ 1050
Ice 1049
confess 1049
sanitary 1049
similarity 1049
es. 1049
colony 1049
ruins 1049
ech 1049
scoring 1049
dow 1049
vanished 1049
monk 1049
Pep@@ 1049
administrations 1049
peacemaking 1049
200,000 1049
coo@@ 1048
imply 1048
stained 1048
envel@@ 1048
semiconductor 1048
propriet@@ 1048
ellow@@ 1048
reservoirs 1048
PF 1048
Temporary 1048
exed 1047
mud@@ 1047
greet 1047
ania 1047
reckon 1047
intrinsic 1047
pizza 1047
DPRK 1047
ted@@ 1047
disastrous 1047
fertile 1047
orph@@ 1046
southwest 1046
lesser 1046
iti 1046
hyp@@ 1046
lemon 1046
Fa@@ 1046
medic@@ 1046
anne 1046
coordinator 1046
railroad 1045
Pressure 1045
obs@@ 1045
pumps 1045
embarrassing 1045
IE@@ 1045
ves@@ 1045
Zambia 1045
small-scale 1045
iv 1045
Sector 1045
SW@@ 1044
atorial 1044
asym@@ 1044
suppress 1044
tuberculosis 1044
Truth 1043
touches 1043
recogn@@ 1043
socks 1043
Pap@@ 1043
illu@@ 1043
Chec@@ 1043
Vice-@@ 1043
Rwandese 1043
hears 1042
CS 1042
ouses 1042
systemic 1042
Influence 1042
upro@@ 1042
ually 1042
converter 1042
Anna 1042
enforcing 1042
Logistics 1042
sian 1041
och@@ 1041
refresh@@ 1041
Literature 1041
metre 1041
testi@@ 1041
enhances 1040
transforming 1040
itably 1040
fan@@ 1040
mar 1040
pesticides 1040
lodged 1040
declares 1040
jade 1039
Sym@@ 1039
hall@@ 1039
Portuguese 1039
makeup 1039
mons 1039
Namibia 1039
Tian@@ 1039
temporal 1039
milestone 1039
dip 1039
UBS 1039
expectancy 1039
proportions 1039
motions 1039
combatants 1039
0.5 1039
indifferent 1038
grad@@ 1038
thful 1038
elt 1038
hopefully 1038
Baby 1038
iny 1038
two-year 1038
store@@ 1038
counselling 1038
chr@@ 1038
fulfillment 1038
ushing 1037
vious 1037
fast-@@ 1037
insti@@ 1037
telescope 1037
Andy 1037
tric 1037
gaz@@ 1037
polling 1037
comic 1037
stretching 1037
divorced 1037
receipts 1037
Smoking 1037
Hester 1037
Important 1037
class7 1037
permeability 1036
poin@@ 1036
antibiotics 1036
Clar@@ 1036
vap@@ 1036
descriptions 1036
scep@@ 1036
lowed 1036
shipments 1036
minus 1036
revise 1036
iner 1036
deficiencies 1036
eu 1035
generalized 1035
Buy 1035
con 1035
releasing 1035
PR 1035
evacuation 1035
ee@@ 1035
logistic 1035
Author@@ 1035
subparagraph 1035
closet 1034
eves 1034
Indians 1034
-day 1034
alteration 1034
recovering 1033
haste 1033
arium 1033
rust 1033
logs 1033
Cra@@ 1033
perseverance 1033
arbitr@@ 1033
premier 1033
wom@@ 1033
31.@@ 1033
skies 1032
treas@@ 1032
recreational 1032
toler@@ 1032
competitor 1032
investigators 1032
depic@@ 1032
eagerly 1032
proof@@ 1032
comprehension 1032
22@@ 1032
cardiovascular 1032
arc@@ 1031
rigorous 1031
everlasting 1031
tribal 1031
exhibits 1031
credentials 1031
ench@@ 1031
enlarge 1031
Chau 1031
PRESIDENT 1031
couch 1030
goo@@ 1030
fut@@ 1030
Characteristics 1030
rene 1030
concessions 1030
resid@@ 1030
projections 1030
feathers 1030
Atlanta 1030
acquaintance 1030
mentation 1030
ankle 1030
crane 1030
Mont@@ 1030
TP 1029
Terms 1029
lau@@ 1029
modi@@ 1029
Mess@@ 1029
essness 1029
embarked 1029
conquer 1029
PH@@ 1029
uri@@ 1029
gorgeous 1028
tertiary 1028
remedial 1028
stabil@@ 1028
best-@@ 1028
enact 1028
hed 1028
Biological 1028
equities 1028
decolonization 1028
armies 1027
Red@@ 1027
metr@@ 1027
offenders 1027
Dave 1027
aim@@ 1027
spur 1027
Statements 1027
has@@ 1027
Kabul 1027
tioners 1027
X-ray 1026
Scre@@ 1026
accredited 1026
MT 1026
Jersey 1026
Some@@ 1026
endorsement 1026
system-wide 1026
enriched 1025
farm@@ 1025
doomed 1025
Pil@@ 1025
perfume 1025
ause 1025
Proc@@ 1025
bundle 1024
hail 1024
oids 1024
theoretically 1024
immer@@ 1024
doub@@ 1024
hospit@@ 1024
predicting 1024
inherit 1024
Books 1024
Heritage 1024
ologies 1024
spreads 1024
first@@ 1024
Grand@@ 1024
law-@@ 1024
Purpose 1024
Comb@@ 1023
deposition 1023
seals 1023
regener@@ 1023
Leisure 1023
roast 1023
inception 1023
Meteorological 1023
exporter 1023
venues 1023
hero@@ 1023
Scarlett 1022
crimin@@ 1022
Reaffirms 1022
motives 1021
Pass@@ 1021
transformer 1021
favor@@ 1021
te-@@ 1021
frameworks 1021
ecosystems 1021
bombing 1021
Normal 1021
End 1020
lengthy 1020
acceler@@ 1020
dispersion 1020
sanction 1020
heights 1020
Shen@@ 1020
Expl@@ 1020
ault 1020
Ye 1020
discoveries 1020
Wai 1020
Conventions 1020
dious 1019
deprivation 1019
Short 1019
Already 1019
uti@@ 1019
policemen 1019
continual 1019
lators 1019
zzle 1019
applause 1019
daylight 1019
Dep@@ 1019
sequences 1019
defen@@ 1019
Marxism 1019
Provisional 1019
1,500 1019
Wol@@ 1018
ather@@ 1018
cros@@ 1018
ayer 1018
sors 1018
Phil@@ 1018
Ohio 1018
debtor 1018
wizard 1018
Simple 1018
peace-@@ 1018
mistress 1017
clue 1017
tural 1017
hardest 1017
inval@@ 1017
Ven@@ 1017
Cla@@ 1017
Ray 1017
solitary 1017
your@@ 1017
Person 1017
Thought 1017
attributable 1017
nonsense 1016
snap 1016
scare 1016
Ha 1016
even@@ 1016
tily 1016
weighing 1016
predictable 1016
Chair 1016
Down 1016
Less 1016
sinking 1016
sures 1016
presentations 1016
Somebody 1015
booked 1015
Eventually 1015
atical 1015
liter@@ 1015
incorrect 1015
retaining 1015
Barcelona 1015
invest@@ 1015
orn 1015
storing 1015
Fox 1015
event@@ 1015
happiest 1015
Facebook 1014
nodded 1014
mang@@ 1014
disputed 1014
suppression 1014
wrist 1014
trim 1014
prohibit 1014
Nam 1014
Vehicle 1014
￡ 1014
Majesty 1013
communist 1013
outfit 1013
Chengdu 1013
Xia@@ 1013
swim@@ 1013
accusations 1013
diligence 1013
leav@@ 1013
swiftly 1013
question@@ 1013
ury 1013
Fear 1013
Mechanism 1013
Facilities 1013
Licensing 1013
ffle 1012
forgiveness 1012
job@@ 1012
proxy 1012
relaxing 1012
Delhi 1012
repayment 1012
medicinal 1012
Eur@@ 1012
Hebei 1012
chaired 1012
Fit@@ 1011
uk@@ 1011
pioneer 1011
elevated 1011
obstruction 1011
new-@@ 1011
umes 1011
Move 1011
aler@@ 1011
weights 1011
Identity 1011
impartiality 1011
1996-1997 1011
spoon 1010
garlic 1010
artic@@ 1010
magnet 1010
rectification 1010
rin@@ 1010
Employees 1010
Ds 1010
plating 1010
Active 1010
Guard 1009
spect 1009
Eric 1009
pilots 1009
scrap 1009
firearms 1009
misfortune 1008
electroly@@ 1008
acupuncture 1008
ticul@@ 1008
traced 1008
scrutiny 1008
arti@@ 1008
purification 1008
Phoebe 1008
every@@ 1008
linkage 1008
enjoyable 1008
universality 1008
Yau 1008
extrabudgetary 1008
Pass 1007
anic 1007
trem@@ 1007
Mit@@ 1007
memorandum 1007
spi@@ 1007
boy@@ 1007
flash@@ 1007
852 1007
omes 1006
firm@@ 1006
marrying 1006
lions 1006
formidable 1006
ections 1006
fai@@ 1006
Sex 1006
asm 1006
weeds 1006
admits 1006
sue 1006
empowerment 1006
Tang@@ 1006
eighteen 1006
Average 1006
Regular 1006
Viol@@ 1006
Malta 1006
Connie 1006
ESCAP 1006
cuisine 1005
diversion 1005
pron@@ 1005
cruci@@ 1005
nucleus 1005
enlarged 1005
del 1005
Presidents 1005
therap@@ 1005
etting 1005
porters 1005
company@@ 1005
Jerry 1005
E.@@ 1005
semi 1005
Auditors 1005
beautifully 1004
vic 1004
wre@@ 1004
fron@@ 1004
rup@@ 1004
proposition 1004
tackling 1004
recruiting 1004
Christianity 1003
apt 1003
petty 1003
web@@ 1003
Compu@@ 1003
overdue 1003
drastic 1003
Duke 1003
owning 1003
arization 1003
70@@ 1003
Liberian 1003
precipitation 1002
ting@@ 1002
seizure 1002
compelling 1002
mass@@ 1002
descent 1002
lou@@ 1002
seven-@@ 1002
117 1002
Hillary 1002
Memorial 1002
AF 1002
Matters 1002
Answer 1002
revealing 1001
Wei@@ 1001
monkeys 1001
Brit@@ 1001
Chrysler 1001
oos 1001
rewarded 1001
detainees 1001
vi 1001
Outer 1001
Aunt 1000
phil@@ 1000
doses 1000
Groups 1000
specimen 1000
optic 1000
jazz 1000
husbandry 1000
militia 1000
expres@@ 1000
BM@@ 1000
28.@@ 1000
Ruth 999
distances 999
2011 999
sta@@ 999
Congo 999
joins 999
slot 999
peaks 999
Animals 999
Link 999
asas 999
stare 998
day-to-day 998
Fab@@ 998
sediment 998
saves 998
secre@@ 998
ffed 998
gia 998
St 998
Prote@@ 998
ancies 998
verbs 998
arial 998
infantry 997
ucked 997
battles 997
thereto 997
exual 997
Wales 997
warmer 997
bells 997
lo 997
oxy@@ 997
clinics 997
Asked 997
ARY 997
gan 997
chol@@ 997
鈥淭@@ 997
ko@@ 996
lt 996
allied 996
tfully 996
yoga 996
fish@@ 996
Da@@ 996
Vie@@ 996
agre@@ 996
modem 996
Trial 996
CHAIRMAN 996
Yun@@ 995
light-@@ 995
obscure 995
anks 995
ultrasound 995
ower 995
GU@@ 995
Swe@@ 995
discer@@ 995
RM@@ 995
veteran 994
rack 994
backgrounds 994
Beach 994
burdens 994
imposition 994
vian 994
ll@@ 994
anticipate 994
anes 994
shri@@ 994
self-government 994
mediate 994
ophy@@ 993
chooses 993
wines 993
ograph@@ 993
MR@@ 993
injustice 993
Som@@ 993
disbur@@ 993
poverty-stricken 993
oling 993
invaluable 993
Pin@@ 992
meteor@@ 992
Premi@@ 992
habit@@ 992
sighted 992
tieth 992
Pennsylvania 991
Block 991
gating 991
gau@@ 991
humili@@ 991
shi 991
imitation 991
deserted 990
Salt 990
ign 990
realise 990
curing 990
banquet 990
laboratories 990
Nancy 990
institution@@ 990
presses 990
twentieth 990
ethanol 990
ensor 990
Fran@@ 990
tonic 990
Lic@@ 990
people鈥檚 990
snat@@ 989
compliment 989
Sing@@ 989
propag@@ 989
diplomats 989
inspectors 989
Cos@@ 989
ratios 989
skip 989
banner 989
uling 989
descended 989
hel 989
technically 988
Jo 988
insi@@ 988
aerobic 988
Play 988
man-@@ 988
hip@@ 988
teens 988
Whereas 988
dilu@@ 988
simplest 988
Um 988
verdict 988
UNIFEM 988
volcanic 987
noc@@ 987
ffing 987
Impact 987
Pow@@ 987
leaned 987
Regi@@ 987
bribery 987
abolished 987
thick@@ 986
trademarks 986
chill 986
typ@@ 986
itarian 986
linen 986
potassium 986
amino 986
cab 986
tsunami 986
McDonald 986
porter 986
Present 986
overcoming 986
Release 986
Abstract 986
Bird 985
definitive 985
ria 985
depended 985
bran@@ 985
Description 985
mosquito 985
Bun@@ 985
biodiversity 985
GIS 985
Conn@@ 985
itely 984
Dong 984
wording 984
loom 984
suc@@ 984
onia 984
jun@@ 984
Identification 984
tour@@ 984
consolidating 984
Racial 984
der-@@ 983
sulfur 983
up-to-date 983
asing 983
occupying 983
witch 983
fist 983
herbs 983
youve 983
cone 982
huang 982
exclude 982
dash 982
susceptible 982
batt@@ 982
sauc@@ 982
PP 982
offici@@ 982
nov@@ 982
speeding 981
Miller 981
PD 981
onset 981
unconditional 981
emphas@@ 981
chil@@ 981
nearer 981
waved 981
obstruc@@ 981
opening-up 981
Transportation 981
hectares 981
skull 980
skating 980
Comparison 980
beverage 980
Autumn 980
financi@@ 980
nur@@ 980
asia 980
aligned 980
gus 980
vendors 980
reproduced 980
34@@ 980
narr@@ 979
spine 979
concentrations 979
statutes 979
polls 979
formulas 979
Leo 979
euros 979
pane 978
exotic 978
ulous 978
northwest 978
cand@@ 978
relied 978
Christopher 978
technicians 978
buc@@ 978
vendor 978
Campaign 978
brilli@@ 977
aya 977
b. 977
deter@@ 977
synthesized 977
macro-@@ 977
ego 977
bearings 977
simultaneous 977
digestion 977
diminished 977
dio 976
identi@@ 976
human-@@ 976
yielding 976
lottery 976
positioned 976
rabbits 976
Cel@@ 976
cutter 976
internation@@ 976
dumped 976
goodwill 976
Efficiency 976
thirds 976
thirsty 975
critic 975
persisted 975
vitamins 975
Low@@ 975
Carolina 975
cubic 975
start-up 975
notices 975
sights 975
console 975
iPhone 975
train@@ 975
Fren@@ 975
coc@@ 974
Arms 974
Page 974
recoll@@ 974
cycl@@ 974
chiefly 974
geometric 974
Hay@@ 974
spectral 974
pus 974
bud 974
prevalence 974
dit 974
Grad@@ 974
Bond 974
Hard 974
128 974
civil@@ 973
frost 973
Observation 973
character@@ 973
Beth@@ 973
honoured 973
unk 973
tize 973
Bus@@ 973
mortal 973
incompatible 973
Set@@ 973
paramount 973
1960s 973
defl@@ 973
then@@ 973
000-@@ 973
ggle 972
doth 972
compressed 972
ud 972
man-made 972
Baltic 972
accessed 972
incur@@ 972
installing 972
killings 972
Kur@@ 972
Socialist 972
Uzbekistan 972
formul@@ 972
hut 972
bitch 971
aser 971
ck 971
afterward 971
Angel 971
feeds 971
zy@@ 971
gown 971
pts 971
trou@@ 970
percep@@ 970
inhibit@@ 970
bosom 970
porous 970
swine 970
grapes 970
long-standing 970
led@@ 970
vaccines 970
voter 970
defended 970
subjec@@ 969
candles 969
temper@@ 969
Xiao@@ 969
straightforward 969
submissions 969
omy@@ 969
leasing 969
Jing@@ 968
uter@@ 968
child-@@ 968
sympath@@ 968
deno@@ 968
rescued 968
Massachusetts 968
adolescents 968
Request 968
Freedom 968
battlefield 967
cottage 967
Darcy 967
appliance 967
Wood 967
whistle 967
pro 967
tenure 967
tactic 967
just@@ 967
consul@@ 967
ense 967
penetration 967
bust@@ 966
prevalent 966
bark 966
correspon@@ 966
fluor@@ 966
paras@@ 966
erc@@ 966
goose 966
revoked 966
UNOPS 966
350 965
oscill@@ 965
bular 965
Cin@@ 965
family-@@ 965
constituent 965
whisper 964
markedly 964
particul@@ 964
sure@@ 964
confirms 964
Every@@ 964
tempted 964
bonuses 964
chop@@ 964
housework 964
trivial 964
inquired 964
Optional 964
eri@@ 963
dd@@ 963
Pope 963
bulb 963
Re-@@ 963
restricting 963
entrust 963
Formul@@ 963
Alaska 963
35@@ 963
Jamaica 963
inalienable 963
Kwun 963
Rob@@ 962
unhealthy 962
join@@ 962
Huang@@ 962
bat 962
G-@@ 962
ele 962
thank@@ 962
HE@@ 962
Sister 962
CUHK 962
trick@@ 961
galaxy 961
Intelligence 961
work-@@ 961
nod@@ 960
foil 960
sufficiency 960
mia 960
wave@@ 960
whispered 960
paused 960
Roosevelt 960
bows 960
program@@ 960
ela 960
2.1 960
interrup@@ 959
oce@@ 959
yielded 959
weaken 959
side-@@ 959
accomplishments 959
indic@@ 959
catalog 959
routing 959
nightmare 959
births 959
ital 958
stup@@ 958
paradise 958
synchronous 958
beasts 958
piracy 958
curtains 958
evidently 958
clari@@ 958
impoverished 958
Adoption 958
John@@ 958
subregion 958
intestinal 957
recognise 957
fixation 957
NA@@ 957
Agencies 957
foreigner 957
diligent 957
Emphas@@ 957
portation 957
explosives 957
variance 956
coherence 956
furious 956
comfortably 956
Manhattan 956
Americas 956
Super 956
Nick 956
Adop@@ 956
Arrangements 956
jealousy 955
indifference 955
modifications 955
pleasing 955
issu@@ 955
thed 955
ness@@ 955
posture 955
navy 955
TT 955
reaffirms 955
Villefort 954
tides 954
schedules 954
light@@ 954
blood@@ 954
bred 954
ye@@ 954
buff@@ 954
denying 954
triumph@@ 954
misunderstanding 954
.And 954
ults 954
Schol@@ 954
tifying 954
Holdings 954
34.@@ 954
Margaret 953
trembling 953
corpor@@ 953
duction 953
chaotic 953
Kat@@ 953
integr@@ 953
Bolivia 953
thankful 953
Heathcliff 953
taller 953
Fixed 953
tribu@@ 952
prog@@ 952
coil 952
cip@@ 952
degrad@@ 952
junction 952
collabor@@ 952
catering 952
cache 952
qual@@ 952
Voluntary 952
isions 951
vapor 951
Norwegian 951
Pet@@ 951
curved 951
Send 951
fibr@@ 951
warranty 951
vigor 951
Conventional 951
complied 951
Indic@@ 951
Abkhazia 951
devise 950
Conserv@@ 950
tum 950
chemotherapy 950
Delegation 950
crust 950
rulers 950
Relevant 950
bonded 950
intermediary 950
wa 950
Presentation 950
mour@@ 949
wrink@@ 949
southeast 949
expires 949
cyber@@ 949
simpler 949
aftermath 949
Mind 949
violin 949
ony@@ 948
originating 948
endant 948
horse@@ 948
greatness 948
Sound 948
Kid@@ 948
debut 948
resor@@ 948
ration 948
residue 948
35.@@ 948
Combined 947
proportional 947
Revenue 947
pher@@ 947
fluctuation 946
textbooks 946
malnutrition 946
defective 946
weakening 946
duct 946
Rehabilitation 946
uality 946
pirates 946
teenager 946
disappointing 946
recurrence 946
Directors 946
illustration 945
publisher 945
handy 945
Sleep 945
Jur@@ 945
Thinking 945
merry 945
shark 944
escalation 944
atable 944
interc@@ 944
civic 944
regeneration 944
Mes@@ 944
decomposition 944
orate 944
strata 944
ont@@ 944
Hear@@ 944
remarked 944
gland 944
Rate 944
Focus 944
dupl@@ 944
Cost 944
coping 944
rite 943
evenly 943
unusually 943
amaz@@ 943
asp@@ 943
enger 943
Mayor 943
appro@@ 943
ONE 943
harv@@ 943
itted 943
Opera 942
chat@@ 942
suitcase 942
deceased 942
playground 942
Germans 942
confronting 942
authorised 942
Ran@@ 942
interfaces 942
creep 942
chann@@ 942
shoo@@ 942
harmonization 942
compass 942
119 942
correspond 941
Grap@@ 941
Meth@@ 941
resp@@ 941
Haz@@ 941
obese 941
grass-roots 941
olic 941
announcing 941
overwhelmed 941
Jake 941
amounting 941
anytime 940
alloys 940
Dra@@ 940
trader 940
geared 940
itude 940
won@@ 940
Savings 940
replen@@ 940
APEC 940
300,000 940
incense 939
dread 939
ashore 939
Bruce 939
tropic 939
uro@@ 939
desperately 939
gent@@ 939
pregn@@ 939
stirred 939
giants 939
retrieve 939
cons@@ 939
fireworks 939
triangle 939
Francis 939
Counter@@ 939
39@@ 939
Indigenous 939
tablet 938
superficial 938
Jon@@ 938
puzz@@ 938
ence@@ 938
Sept 938
Func@@ 938
vacancies 938
routinely 937
populated 937
pools 937
spake 937
restrictive 937
postpone 937
Registrar 937
Commit@@ 937
ECA 937
banana 936
greetings 936
attered 936
correlated 936
remin@@ 936
Nik@@ 936
calligraphy 936
tories 936
VO@@ 936
15-@@ 936
sponsoring 936
ICRC 936
2.4 936
Engr 936
6.The 936
lawfully 935
weighted 935
et-@@ 935
Puerto 935
critic@@ 935
Tam@@ 935
marathon 935
cid@@ 935
outsourcing 935
blessings 935
guil@@ 935
haw@@ 935
sworn 935
fellows 935
Customers 935
e-Cert 935
art@@ 934
vul@@ 934
icle 934
statistic 934
heater 934
realizes 934
thre@@ 934
Polish 934
prising 934
Basin 934
rit 934
iang 934
compens@@ 934
registry 934
xia 934
labourers 934
atization 934
Hundreds 934
Excellent 934
frater@@ 934
LIMITED 934
.If 934
Mandarin 933
cans 933
news@@ 933
rationality 933
birth@@ 933
Football 933
visibility 933
rine 933
recorder 933
Davis 933
gloom 933
contrac@@ 933
Satellite 933
Dog 933
123 933
theres 933
cin 932
radius 932
semantic 932
jack 932
pings 932
rang@@ 932
briefed 932
Kir@@ 932
rifle 932
polarization 932
IE 932
appreciates 932
Jia 932
har 932
incorporation 932
Conduct 932
DO 931
haz@@ 931
trophy 931
boxing 931
neighbourhood 931
equals 931
Econom@@ 931
chambers 930
hing 930
Zhong@@ 930
automotive 930
riot 930
participates 930
fling 929
bandwidth 929
atis@@ 929
Thir@@ 929
uneven 929
extinction 929
heel 929
counterfeit 929
implication 929
prognosis 929
philatelic 929
antagon@@ 928
metast@@ 928
cumulative 928
faded 928
Broad@@ 928
upwards 928
Bernanke 928
adul@@ 928
newest 928
'You 928
Nine 928
essing 928
Pursuant 928
Jamahiriya 928
volleyball 927
fiers 927
arranging 927
optimizing 927
peninsula 927
slip@@ 927
Near 927
battalion 927
worms 927
hop 927
extrac@@ 927
Manufac@@ 927
uled 927
parcel 927
Fisheries 927
URA 927
lump 926
dessert 926
monument 926
coke 926
segmentation 926
humane 926
goats 926
private-@@ 926
charitable 926
ip 926
ept@@ 926
dancer 926
Bretton 926
portions 926
interdependence 926
MAN@@ 925
[...]
