的 10284380
， 6031667
。 5932833
, 2260008
. 2178507
在 2129600
了 1848086
和 1812294
是 1634174
我 1470912
、 1195536
你 1108373
他 1049049
我们 751657
对 671557
有 655082
中 559229
一个 538375
人 508159
不 490312
“ 473990
这 464157
就 456848
也 456231
上 456175
将 449291
他们 445201
她 441290
与 439008
为 436907
” 432837
都 420925
( 406851
) 406594
说 405403
： 394924
会 391614
到 374115
并 360028
年 338589
可以 338513
？ 332674
而 312503
问题 302134
一 292161
没有 291762
或 282292
要 279282
地 275601
被 270395
但 269690
把 268877
它 267796
以 255945
时 255841
来 254618
工作 251701
进行 250495
很 250378
及 249269
国家 247048
这些 246550
个 238700
所 237609
这个 237299
发展 236039
从 231244
中国 226941
着 226782
（ 225201
其 224751
） 222509
； 218918
- 217719
能 216554
月 216521
自己 216083
: 214797
还 213973
去 211373
如果 200403
可能 198957
给 192910
提供 189569
该 189079
? 188803
研究 183402
需要 183295
让 182509
下 176589
好 175215
使 175116
向 174936
政府 173023
更 172257
于 171641
里 171441
那 170423
吗 168619
新 167497
什么 166279
公司 165574
可 164773
已经 164590
经济 162021
》 161626
《 161383
做 160482
用 160387
通过 159610
多 159469
国际 159020
委员会 155953
后 155731
一些 153944
其他 153473
有关 153193
但是 153108
因为 150820
美国 150253
组织 146364
日 145770
知道 145466
必须 144859
所有 144593
以及 143764
会议 143022
认为 142930
已 141957
等 141391
想 141121
社会 140976
第 140505
这种 140331
— 140234
方面 139482
得 139342
由 138339
情况 135116
重要 134806
使用 134299
一种 134021
/ 133959
现在 133736
最 132612
方法 129857
又 129501
就是 128201
不是 125784
！ 124441
影响 124316
当 122162
联合国 120775
包括 120464
开始 120092
这样 120057
; 117027
内 116974
时间 116391
1 116173
活动 115958
系统 115892
技术 114472
过 113240
们 112781
任何 111762
您 111624
关于 111165
时候 110338
报告 109502
主要 109383
或者 109032
世界 107772
安全 107557
应 106981
提出 106755
机构 105758
计划 105236
% 104564
表示 102468
特别 101812
决定 101808
规定 101741
你们 100840
要求 99979
生活 99926
管理 99698
不能 98230
请 97889
大 97792
希望 97700
合作 97661
行动 96056
许多 95778
服务 94560
作为 94151
人们 94085
2 93771
3 93054
前 92761
成为 92299
它们 91096
应该 91087
出 90478
本 90124
执行 89796
项目 89085
方案 87926
因此 87854
得到 87406
比 85622
性 85333
根据 85168
者 85155
不同 84951
不会 84951
地区 84868
分析 84462
非常 83549
那些 83047
像 82656
建议 82127
发生 82125
继续 81894
先生 81881
企业 81860
能够 81787
5 81692
正在 80893
发现 80641
地方 80410
之间 80284
呢 80089
· 79805
由于 79514
具有 79165
市场 77934
建立 77762
4 77482
方式 77395
努力 76509
吧 76415
支持 76378
关系 76222
号 76019
和平 75726
孩子 75320
环境 74937
看 74654
事 74452
而且 74307
能力 74177
为了 73791
" 73284
作用 73052
目前 72759
一样 72504
对于 72409
却 72202
喜欢 71971
各 71564
同时 71535
人员 71234
目的 70517
目标 70487
设计 70259
之 69837
增加 69295
代表 69188
结果 68612
再 68382
决议 67111
至 67070
实现 66815
教育 66308
过程 66303
只 66291
获得 66284
10 66283
解决 66224
法律 66044
如何 65758
产品 65726
处理 65459
采取 65438
应当 65271
还是 64820
那么 64814
区域 64515
帮助 64378
看到 64346
一@@ 64226
措施 64226
大@@ 63706
部分 63478
一直 63348
最后 63138
不@@ 63032
告诉 63000
是否 62655
所以 62373
很多 62140
其中 62114
同 62005
这是 61900
提高 61838
6 61409
出现 60976
政策 60880
保护 60502
不要 60486
有效 60360
控制 60267
并且 59987
’ 59884
走 59794
东西 59587
存在 59351
起来 59185
则 59130
然后 59107
过去 59032
注意 58856
非 58760
作 58560
小 58494
那个 58482
生产 58391
产生 58387
高 58362
资料 58049
如 57930
两个 57834
一起 57816
加强 57522
资源 57520
领域 57306
接受 57217
信息 57057
行为 56724
只是 56625
一切 56502
中心 56255
考虑 56103
名 55786
学生 55157
妇女 55141
选择 54743
才 54700
部门 54554
国 54446
利用 54437
不过 54435
文件 54343
促进 54110
一定 54020
7 53973
香港 53844
基础 53727
点 53646
法 53538
应用 53509
今天 53260
参加 53098
12 52991
还有 52794
事情 52590
投资 52480
之后 52479
朋友 52445
结构 52267
… 52226
人民 51948
作出 51932
文化 51777
讨论 51748
这里 51647
一次 51388
! 51200
数据 51191
全球 51153
只有 50795
政治 50473
调查 50369
的话 50337
处 50322
造成 49772
大会 49752
原因 49566
爱 49361
感到 49227
间 49070
跟 48899
受到 48881
起 48863
各种 48664
吃 48563
8 48533
之一 48193
9 48144
条件 48062
完全 48060
觉得 48031
及其 48025
没 47982
小@@ 47720
制度 47557
完成 47423
取得 47141
举行 46988
成功 46967
各国 46789
两 46565
机会 46439
期间 46333
正 46229
理事会 46221
因 46198
增长 46193
银行 46169
之前 46033
较 45931
项 45844
采用 45721
虽然 45712
来说 45597
然而 45438
介绍 45259
我国 45143
带 45080
条 44822
无法 44781
美元 44725
减少 44701
一点 44609
准备 44597
秘书长 44570
城市 44565
A 44474
任务 44330
每个 44304
了解 44060
另 44012
改变 43984
程序 43863
家 43797
标准 43779
次 43596
开发 43418
区 43382
人类 43323
水 43285
确定 43183
听 43095
权利 43089
直接 42967
中@@ 42922
用于 42904
受 42878
进一步 42744
显示 42550
此 42507
办法 42467
为什么 42460
持续 42457
儿童 42370
相信 42361
学习 42355
一位 42327
出来 42090
范围 42060
1994 42045
严重 41925
成员 41888
英语 41642
一下 41568
确保 41453
基本 41367
有些 41265
成 41249
钱 41167
援助 41085
主席 41083
英国 41041
个人 40997
行政 40958
尽管 40680
大学 40620
子 40601
本文 40563
谁 40535
11 40500
人权 40454
价格 40439
每 40427
学校 40413
因素 40377
导致 40354
参与 40231
保持 40203
相关 40198
变化 40194
仍 40072
通常 39998
基金 39771
20 39544
带来 39445
最近 39408
问 39337
健康 39100
实施 38961
那里 38824
业务 38771
申请 38613
拥有 38476
治疗 38442
按照 38258
费用 38221
家庭 38175
曾 38101
怎么 38037
甚至 37995
道 37910
整个 37873
内容 37837
意见 37740
设备 37674
必要 37663
原则 37631
价值 37491
多@@ 37472
段 37443
最大 37442
人口 37418
仍然 37416
' 37330
不断 37285
理论 37248
运动 37223
比较 37184
来自 37141
一般 37139
1993 36915
这一 36877
叫 36833
站 36739
如此 36723
历史 36702
指出 36686
即 36665
协调 36599
建设 36423
未来 36355
负责 36298
总统 36147
化 36092
总是 35977
找到 35965
代表团 35900
无@@ 35881
式 35867
住 35845
啊 35838
安排 35798
进入 35781
自 35657
也许 35570
欧洲 35325
水平 35241
二 35139
」 35080
「 35079
这么 35013
认识 34987
责任 34813
这项 34804
说明 34803
似乎 34730
种 34637
日本 34632
积极 34534
事务 34527
传统 34500
约 34453
结束 34447
同样 34417
表现 34370
达到 34310
外 34248
共同 34220
自由 34187
形式 34116
． 34099
离开 34098
维持 34080
表明 34078
长 34065
容易 34047
岁 33944
单位 33798
部 33630
死 33614
非洲 33541
其它 33511
保证 33493
经验 33403
水@@ 33369
最好 33350
按 33218
稳定 33151
三 32999
贸易 32972
有人 32970
例如 32889
经常 32887
15 32863
几个 32813
网络 32813
头 32808
类 32791
感觉 32634
上@@ 32596
以上 32584
更加 32583
真正 32454
型 32414
此外 32414
部队 32393
有@@ 32340
人@@ 32214
30 32116
a 31985
公约 31920
资金 31907
大量 31904
需求 31777
一天 31687
几乎 31659
需 31620
事件 31581
称 31576
探讨 31520
制定 31500
机 31481
那样 31454
经 31452
生命 31343
以前 31296
太 31209
实际 31194
以便 31178
买 31131
同意 31120
写 31052
超过 31017
未 30968
随着 30943
质量 30827
以来 30778
程度 30765
便 30753
大家 30741
改善 30718
一项 30712
意义 30712
车 30661
重新 30534
比赛 30524
语言 30491
别人 30381
分 30240
行 30237
今年 30179
小时 30149
三@@ 30144
适当 30116
找 30085
草案 30068
协议 30038
花 29933
改革 29907
见 29905
工程 29829
材料 29827
汽车 29810
全面 29762
形成 29610
证明 29582
模型 29559
地@@ 29478
之@@ 29468
无 29459
困难 29345
当然 29337
十分 29325
父亲 29321
进程 29247
高@@ 29192
审查 29191
引起 29182
北京 29179
具体 29136
才能 29075
发展中国家 29022
计算 28964
以下 28917
强调 28849
限制 28809
愿意 28710
简单 28673
路 28659
学 28645
期 28591
一份 28589
设立 28455
机制 28400
手 28399
天 28345
某些 28304
线 28224
女人 28217
变得 28162
尤其 28132
压力 28108
充分 28051
话 28048
关注 27902
精神 27787
空间 27756
以色列 27700
交易 27691
开 27661
多少 27647
科学 27637
广泛 27628
心 27592
欢迎 27583
可是 27561
位 27508
联系 27476
解释 27448
收入 27426
器 27422
专家 27356
基于 27344
组成 27317
审议 27286
评价 27275
越来越 27255
达 27253
回答 27187
大多数 27182
危险 27155
土地 27152
专业 27120
批准 27090
食物 27037
反应 27021
拿 26949
人士 26943
鼓励 26903
用户 26863
冲突 26832
神 26821
战略 26798
方 26790
门 26777
出口 26774
国内 26603
医生 26588
地位 26524
风险 26510
以后 26508
首先 26467
斯 26458
进 26437
权 26415
拉@@ 26358
母亲 26311
选举 26311
均 26296
电话 26251
最终 26248
小组 26172
这次 26132
真的 26128
动物 26123
恢复 26056
量 26010
至少 25978
客户 25949
书 25939
理解 25919
看见 25904
发言 25850
一年 25789
两@@ 25777
长期 25747
我要 25703
协助 25689
打 25676
明显 25652
面临 25650
模式 25620
检查 25599
组 25595
效果 25594
马@@ 25575
每天 25557
当地 25549
各项 25358
很大 25353
万 25335
别 25319
低 25311
男人 25308
可@@ 25303
另外 25297
永远 25273
训练 25244
利益 25230
军事 25225
功能 25225
即使 25195
谈判 25169
指 25090
团 25082
想要 25069
经过 25062
给予 24907
官员 24906
自@@ 24888
除了 24886
全国 24884
知识 24869
经营 24833
战争 24815
自然 24803
巨大 24798
生 24796
令人 24757
1995 24705
独立 24670
工作人员 24603
新@@ 24529
力 24479
涉及 24476
一家 24470
适用 24439
电影 24353
培训 24329
预算 24316
新闻 24300
允许 24297
调整 24286
协定 24271
错误 24252
身体 24208
儿子 24190
双方 24132
体 24094
承诺 24094
状况 24093
测试 24004
拉 23913
一条 23891
德 23883
我@@ 23878
50 23855
评估 23851
记录 23806
只要 23794
重大 23724
队 23703
不得 23685
良好 23649
印度 23623
阶段 23614
力量 23602
销售 23590
规划 23499
一名 23495
工业 23482
快 23463
级 23432
收到 23417
度 23411
我会 23396
天@@ 23393
设施 23382
她们 23332
提交 23319
女性 23301
迅速 23291
当时 23272
承认 23199
状态 23125
挑战 23064
高兴 23017
1996 23014
意思 23002
上述 22968
支付 22953
满足 22951
实验 22916
创造 22913
集团 22846
进展 22841
下来 22826
率 22798
怎样 22792
加入 22776
威胁 22774
阿@@ 22770
这@@ 22760
14 22745
S@@ 22744
B 22671
总 22600
开展 22572
结论 22559
更好 22517
从而 22494
反对 22479
避免 22471
思想 22440
行业 22407
下@@ 22404
数量 22392
成本 22384
心@@ 22362
[ 22347
一部分 22333
25 22330
000 22326
商业 22297
全部 22288
表 22281
声音 22249
条例 22249
死亡 22234
外@@ 22183
扩大 22144
13 22134
一只 22126
看看 22094
网站 22058
发挥 22053
数 22027
听到 22007
图 21980
试验 21954
利 21944
工具 21937
正确 21922
课程 21894
特 21839
去年 21828
面 21817
伊拉克 21789
不仅 21751
推动 21750
保障 21741
而是 21727
警察 21697
意味着 21695
西@@ 21625
21 21605
合同 21596
三个 21579
信 21570
特点 21564
16 21561
针对 21537
武器 21504
速度 21445
做出 21423
内@@ 21389
高级 21384
些 21374
经费 21361
值 21358
降低 21348
担心 21331
18 21329
位置 21315
食品 21313
不再 21304
清楚 21279
宣布 21247
亚洲 21244
符合 21216
难民 21176
特殊 21156
秘书 21110
方向 21102
故事 21096
不可 21079
占 21071
将会 21031
父母 21023
局 20974
] 20950
一致 20890
长@@ 20867
那@@ 20865
通知 20788
经历 20778
发出 20752
对@@ 20739
下降 20736
制造 20735
现象 20707
讲 20687
外国 20684
观察 20678
每年 20620
肯定 20606
议程 20564
有时 20563
登记 20545
民主 20539
反映 20530
事实 20493
法国 20471
联合 20459
意识 20458
於 20451
市 20450
规则 20447
贷款 20446
光 20432
数字 20419
穿 20413
关键 20412
先 20401
眼睛 20380
协商 20380
这位 20341
妈妈 20290
属于 20287
很快 20266
开@@ 20262
俄罗斯 20262
时代 20256
耶和华 20254
国务院 20249
物 20243
海@@ 20219
复杂 20197
成立 20182
内部 20173
加@@ 20144
世纪 20122
发@@ 20119
时期 20119
体系 20098
维护 20096
据 20078
老@@ 20055
b 20027
员工 19983
估计 19980
音乐 19886
软件 19865
共和国 19865
资产 19858
现有 19798
态度 19796
衣服 19780
现代 19780
发 19778
当局 19760
克 19752
拒绝 19743
表达 19712
办公室 19684
出@@ 19674
房间 19674
斯@@ 19629
观点 19627
机关 19626
农业 19567
达成 19542
从事 19512
大部分 19503
公众 19489
疾病 19474
概念 19450
坚持 19443
曾经 19430
加 19422
性能 19396
放在 19366
领导 19366
综合 19356
B@@ 19352
改进 19333
下列 19330
3@@ 19286
防止 19273
名字 19258
监测 19255
打@@ 19243
令 19238
手段 19179
干 19125
再次 19103
白@@ 19098
民族 19087
特征 19079
快乐 19078
投资者 19059
相当 19054
房子 19044
艺术 19030
回来 18986
联 18984
危机 18984
T@@ 18981
条约 18980
实行 18976
报道 18970
于是 18931
马 18917
帮 18880
财政 18858
请求 18845
真 18841
唯一 18841
明白 18812
试图 18808
金@@ 18792
D@@ 18750
明确 18732
上海 18722
停止 18720
商品 18710
象 18703
职业 18689
直到 18685
禁止 18673
场 18653
足够 18632
建筑 18603
细胞 18599
分别 18582
员 18578
结合 18563
公民 18554
特@@ 18552
消息 18543
电子 18539
破坏 18535
款 18526
M@@ 18513
只能 18513
犯罪 18506
正常 18502
处于 18491
飞机 18464
类型 18456
分@@ 18451
大约 18448
年轻 18433
病 18422
购买 18420
若 18417
跑 18410
2@@ 18397
妻子 18389
17 18384
19 18377
老师 18368
咨询 18364
违反 18364
监督 18363
电脑 18362
重点 18360
口 18343
正式 18328
义务 18309
－ 18283
当前 18241
在于 18231
气 18219
件 18181
支助 18177
贡献 18158
而言 18137
> 18126
发表 18084
一件 18077
声 18055
访问 18048
用来 18044
实际上 18034
4@@ 18021
理由 18018
变成 18013
使得 18005
尔 17992
指定 17979
类似 17971
费 17955
回到 17943
重@@ 17920
交流 17901
安理会 17901
制 17892
题 17885
生物 17884
H@@ 17853
运行 17838
身上 17832
掉 17825
办事处 17825
突然 17787
转@@ 17771
消除 17733
卡@@ 17732
失去 17729
社区 17726
片 17712
且 17694
地球 17663
四@@ 17661
能源 17650
药物 17649
24 17642
四 17638
前@@ 17627
坐在 17613
合理 17598
米 17583
确实 17545
预测 17537
上帝 17536
1992 17528
晚上 17527
会员国 17520
操作 17519
指导 17517
如@@ 17513
面前 17503
公共 17494
第一 17480
说话 17480
核 17471
看起来 17466
全@@ 17455
本身 17447
供 17443
金融 17436
以@@ 17426
往往 17424
寻找 17407
缺乏 17397
安@@ 17388
１ 17368
不到 17358
C@@ 17313
成@@ 17308
人道主义 17301
100 17295
板 17285
优先 17266
P@@ 17261
竞争 17251
遵守 17250
普遍 17244
万@@ 17220
打算 17214
本@@ 17208
这儿 17204
既 17202
有助于 17181
德国 17137
亿美元 17135
卡 17123
根本 17106
想法 17097
生@@ 17035
检测 17021
除 16980
例 16938
L@@ 16924
美 16920
入 16920
主任 16893
领土 16891
物质 16889
尊重 16880
船 16851
教授 16850
对象 16832
流 16821
幸福 16818
球 16796
０ 16794
40 16790
货物 16788
网 16787
快速 16775
载 16774
须 16765
五@@ 16754
医院 16747
描述 16739
利@@ 16732
损失 16717
正@@ 16708
管 16705
热@@ 16699
山 16691
出去 16687
词 16676
热 16674
患者 16673
是因为 16666
德@@ 16661
文章 16658
对话 16656
广告 16653
不想 16637
不得不 16636
元 16620
附近 16607
二@@ 16596
集中 16577
派 16574
权力 16558
最高 16553
22 16512
感谢 16508
面对 16466
C 16458
第二 16438
装置 16438
游戏 16433
第一次 16432
$ 16431
仅 16423
金 16410
财产 16400
手@@ 16352
痛苦 16340
亦 16337
平衡 16329
道路 16324
履行 16322
S 16314
法院 16314
失败 16293
位于 16257
分配 16247
业 16184
层 16163
老 16158
人数 16141
进口 16119
依照 16082
事业 16081
明天 16067
e 16059
伦敦 16055
风 16039
光@@ 16025
上升 16024
罗@@ 15993
运输 15982
石油 15979
常常 15969
花@@ 15954
一场 15952
那种 15941
构成 15935
或许 15930
立即 15926
或是 15874
有着 15865
公开 15861
好像 15839
特性 15834
以为 15832
详细 15811
承担 15803
副 15776
奥运会 15764
适合 15758
事实上 15745
植物 15734
计算机 15702
预防 15690
趋势 15676
所@@ 15674
剂 15671
单@@ 15660
科 15658
○ 15656
紧急 15632
同@@ 15615
居民 15612
遇到 15609
中国政府 15604
吸引 15602
合 15602
值得 15598
时@@ 15597
之中 15594
表面 15584
效率 15583
管制 15560
证据 15516
会@@ 15510
主 15503
策略 15481
少 15478
旅游 15465
近 15461
连 15460
31 15459
油 15445
回 15435
狗 15431
23 15415
语 15409
补充 15405
过@@ 15403
现实 15399
红@@ 15386
作品 15371
算法 15368
供应 15347
相对 15338
鱼 15328
主义 15328
电@@ 15312
充满 15303
一张 15301
临时 15289
放 15287
后来 15280
里面 15243
N@@ 15239
有点 15226
联盟 15207
女孩 15206
倒 15202
5@@ 15191
提到 15170
s 15163
测量 15160
‘ 15144
儿 15133
R@@ 15126
经理 15121
相@@ 15103
病人 15089
农村 15086
真是 15085
工人 15082
来到 15070
而@@ 15069
还要 15056
列 15051
强 15035
下面 15033
c 15024
制作 15014
国@@ 15012
相同 15004
无论 14995
五 14994
格 14986
寻求 14969
美丽 14967
非@@ 14950
就业 14950
自动 14937
亚@@ 14917
动 14906
声明 14904
丈夫 14904
他@@ 14888
运用 14885
一系列 14864
最新 14863
日@@ 14856
省 14855
份 14853
比@@ 14844
主题 14827
满意 14816
公布 14813
2008 14807
享受 14802
美@@ 14796
统一 14785
用@@ 14776
事项 14761
定义 14744
平均 14739
相互 14722
非法 14722
统计 14713
完 14683
星期 14683
收集 14659
读 14654
最佳 14651
计划署 14648
哪 14642
州 14631
确认 14615
消费者 14613
信号 14612
攻击 14609
媒体 14609
十@@ 14600
来源 14591
联邦 14588
包含 14586
一旦 14580
设置 14579
I 14575
双@@ 14566
全 14553
暴力 14544
室 14528
放弃 14524
地点 14516
几@@ 14513
边 14513
48 14509
G@@ 14508
巴@@ 14491
各方 14490
工艺 14466
科学家 14458
中华人民共和国 14458
多年 14457
平等 14453
宗教 14444
这件 14443
军队 14442
安装 14424
举办 14417
领导人 14414
污染 14379
预计 14378
女儿 14359
空气 14356
那儿 14343
照片 14342
树 14342
尼 14331
正是 14327
头@@ 14313
后@@ 14297
9@@ 14292
接触 14289
科技 14287
文 14285
比例 14272
损害 14255
送 14247
F@@ 14233
法@@ 14232
风@@ 14228
教师 14226
律师 14224
条款 14224
框架 14223
其实 14216
城 14209
电视 14170
日期 14161
呼吁 14153
对此 14148
本法 14145
打开 14137
当@@ 14130
黑@@ 14117
其@@ 14116
K@@ 14109
7@@ 14109
基@@ 14100
旅行 14093
靠 14086
著 14079
债务 14071
团体 14069
阅读 14053
签署 14040
台 14035
连接 14031
布 14030
森林 14022
看法 14021
教学 14012
做法 14010
重视 14002
6@@ 13990
司法 13989
字 13984
谢谢 13972
坐 13966
主@@ 13955
就要 13949
卫生 13945
参数 13932
财务 13913
不管 13905
预期 13904
考试 13902
为@@ 13899
上面 13895
记者 13892
s@@ 13883
境内 13875
核心 13873
下去 13860
相 13856
气@@ 13829
保留 13823
8@@ 13822
色 13821
半@@ 13815
创新 13796
特定 13794
纽约 13784
难 13780
林 13777
邀请 13737
山@@ 13724
制订 13722
装 13717
医疗 13709
d 13707
两种 13684
低@@ 13656
步骤 13631
约翰 13625
基 13615
27 13610
规模 13606
产业 13587
好@@ 13586
座 13583
显然 13552
加以 13542
伟大 13536
实践 13531
地震 13527
开放 13514
第一个 13513
传播 13500
适应 13491
要是 13490
大型 13478
结婚 13470
来@@ 13460
性质 13456
回家 13434
家@@ 13430
神@@ 13423
理想 13421
角色 13417
并非 13415
以外 13411
天气 13402
真@@ 13401
报 13395
颜色 13380
怀疑 13378
= 13374
法庭 13333
资本 13315
有限公司 13314
西 13299
记得 13291
保险 13282
往 13276
定 13275
60 13271
不错 13262
变 13256
案件 13254
节 13253
26 13250
每@@ 13247
署 13238
文@@ 13236
私人 13229
家里 13222
日子 13214
28 13211
习惯 13202
下午 13201
教 13200
强烈 13198
巴勒斯坦 13198
紧张 13197
性@@ 13196
看来 13177
十年 13176
兴趣 13176
高度 13174
他人 13157
及时 13155
局势 13148
警告 13106
状 13085
丰富 13068
愿 13066
画 13054
纳 13048
该国 13040
E@@ 13035
布@@ 13018
优势 13003
变@@ 12985
受@@ 12984
粮食 12972
临床 12965
总@@ 12956
尝试 12952
普通 12952
进步 12937
A@@ 12907
火@@ 12896
越 12893
日益 12893
仅仅 12886
担任 12886
太@@ 12874
背景 12866
称为 12853
障碍 12850
协会 12829
e@@ 12823
属 12818
错 12814
立法 12814
重要性 12809
人民政府 12806
信任 12802
正如 12800
i 12787
南@@ 12773
专员 12760
手术 12744
女 12728
之外 12695
b@@ 12691
更为 12691
伤害 12690
系 12688
留下 12666
某 12663
公平 12650
远 12645
加工 12627
增强 12604
工厂 12601
到达 12591
m@@ 12582
反@@ 12579
不足 12575
有所 12571
酒 12567
成果 12565
相应 12558
原@@ 12551
麽 12541
翻译 12536
提议 12532
商 12530
修改 12529
爱情 12510
流@@ 12507
重建 12487
古@@ 12481
加拿大 12481
西方 12471
价 12470
老板 12463
行@@ 12454
重申 12452
人生 12450
逐渐 12449
从@@ 12420
今后 12419
授权 12417
有权 12414
很少 12410
终于 12406
爱@@ 12405
男孩 12403
脚 12397
评论 12393
得@@ 12386
货币 12377
机场 12369
成就 12364
年代 12359
关心 12338
平@@ 12328
沙@@ 12324
哪里 12320
移动 12310
太阳 12305
例子 12302
股票 12301
顾客 12286
感 12284
夫 12281
周围 12276
分布 12266
完善 12254
如今 12245
i@@ 12243
奥巴马 12241
培养 12234
依法 12230
投入 12224
温度 12223
笑 12217
class 12211
打击 12209
班 12208
为此 12205
工作组 12195
公@@ 12191
罪 12188
马上 12179
海洋 12163
科@@ 12161
重 12158
学院 12150
是不是 12140
t@@ 12127
的确 12118
看着 12097
亚 12078
块 12073
河 12056
注册 12050
角 12050
c@@ 12047
爸爸 12044
提@@ 12042
质 12040
发布 12038
尼@@ 12021
尔@@ 12013
能@@ 12011
指标 12002
喝 12000
共 11985
自我 11971
岛 11970
空@@ 11953
方便 11950
章 11947
角度 11942
2007 11940
旨在 11936
成员国 11934
房屋 11929
黄@@ 11920
％ 11920
29 11918
自身 11915
架 11899
宣传 11872
图像 11871
澳大利亚 11862
命令 11856
答案 11852
别@@ 11850
召开 11849
o 11845
创建 11842
离 11841
交通 11835
求 11814
先@@ 11812
见到 11811
亿 11809
底 11808
票 11807
民 11794
伊朗 11789
相比 11777
油@@ 11774
全世界 11774
分子 11773
情绪 11766
案 11765
哦 11764
年度 11763
予以 11762
安 11761
参考 11759
将来 11745
台湾 11733
W@@ 11722
门@@ 11705
各个 11688
比如 11686
没@@ 11675
E 11670
─ 11664
六 11645
地址 11618
职责 11618
王 11616
界 11615
否则 11595
资格 11595
应@@ 11587
各级 11581
证券 11575
名称 11567
采购 11566
车辆 11562
想到 11560
法规 11558
年轻人 11537
过来 11532
小姐 11529
药 11506
课 11503
回@@ 11500
作者 11497
严格 11491
年龄 11489
里@@ 11484
工 11471
百@@ 11471
d@@ 11450
西藏 11449
指数 11447
附件 11444
第三 11438
信心 11432
国际法 11428
差异 11423
公园 11421
提升 11416
完整 11414
赢得 11406
展开 11396
海 11396
D 11392
消费 11389
定期 11389
包 11388
出售 11387
给出 11385
学会 11349
关切 11347
漂亮 11339
单 11333
若干 11332
y 11317
东@@ 11316
女士 11312
决策 11294
秘密 11290
克@@ 11281
应对 11275
明@@ 11268
有限 11266
特派 11262
专门 11257
除非 11245
哈@@ 11242
和@@ 11241
奥@@ 11240
形 11233
等待 11229
转移 11227
兄弟 11223
投票 11213
多么 11208
呀 11207
金属 11201
法官 11201
显著 11188
肉 11187
２ 11182
运作 11177
伙伴 11176
从来 11175
男性 11169
谈 11158
裁军 11146
多数 11139
达@@ 11126
合@@ 11120
核武器 11117
皮@@ 11114
发达 11112
玩 11108
编制 11102
物品 11096
罗 11091
昨天 11086
梦想 11074
来看 11073
铁@@ 11073
入@@ 11071
宪法 11070
2006 11067
不久 11059
通@@ 11057
诊断 11053
一块 11052
波 11045
想象 11032
怎么样 11031
波@@ 10975
种族 10974
密切 10962
化学 10962
期望 10959
总部 10958
资助 10956
纲领 10944
感染 10918
享有 10917
技能 10917
财富 10913
六@@ 10909
真实 10902
说道 10901
整体 10894
王@@ 10885
病毒 10880
对方 10879
杂志 10873
依据 10870
作@@ 10869
起@@ 10867
不用 10856
时刻 10855
意大利 10855
塔 10852
皮 10848
在内 10839
途径 10834
基金会 10834
出席 10833
心里 10822
如下 10799
绝对 10798
2005 10797
集 10782
标志 10776
阿富汗 10775
品 10772
返回 10768
别的 10764
尚未 10763
团队 10756
身 10750
可能性 10749
杀 10748
源 10748
车@@ 10744
刚 10744
那时 10743
更大 10742
更新 10742
火 10740
能量 10737
该@@ 10736
好处 10731
机@@ 10708
视为 10707
活 10705
深@@ 10704
摘要 10700
依然 10682
名@@ 10680
分钟 10675
满 10668
固定 10667
图书馆 10667
事故 10664
贫穷 10664
宣言 10656
后面 10646
早 10645
即将 10634
中央 10627
差 10622
发言人 10619
电 10618
开支 10604
难以 10599
这场 10595
检验 10594
接近 10594
交换 10592
啦 10586
机器 10582
证 10577
我能 10573
今日 10573
侵犯 10572
早期 10570
学@@ 10567
三年 10566
免费 10562
市民 10562
一半 10545
优化 10543
句 10539
基因 10532
职位 10532
相反 10528
节目 10527
有趣 10523
取消 10521
报纸 10518
格@@ 10509
思考 10504
证实 10500
脸 10497
er 10497
结果表明 10492
圣@@ 10473
伊@@ 10472
明 10471
多个 10469
石@@ 10468
发行 10468
农民 10464
直@@ 10460
礼物 10457
获 10437
额外 10429
支出 10424
y@@ 10420
批评 10417
打电话 10412
数据库 10380
压@@ 10364
本地 10356
张 10336
消失 10334
连续 10329
首次 10320
大规模 10312
工资 10311
交@@ 10303
流动 10300
９ 10293
原来 10288
体@@ 10281
石 10273
500 10273
月份 10273
顾问 10266
组合 10263
O@@ 10262
常 10249
数目 10231
保健 10226
纸 10220
这家 10214
超@@ 10212
p@@ 10212
最@@ 10211
论文 10207
转让 10201
手机 10183
几年 10176
准确 10174
头发 10173
展示 10170
本书 10169
么 10167
同事 10164
劳动 10159
品牌 10152
埃及 10144
体制 10142
左右 10138
80 10138
办理 10136
遭受 10136
运动员 10135
规范 10134
收@@ 10134
分享 10133
男子 10132
中间 10130
旧 10128
波斯尼亚 10124
版 10120
跳 10119
税 10117
著名 10110
意 10107
P 10103
子@@ 10097
夫人 10090
酸 10065
决心 10063
楼 10055
人物 10050
害怕 10039
期限 10021
大小 10019
某种 10019
皮肤 10014
70 10010
木@@ 10007
掌握 10005
前景 9999
立场 9995
张@@ 9991
审计 9985
刺激 9981
赛 9977
塞 9976
两年 9964
主管 9961
街 9957
L 9948
反 9941
主管部门 9939
论 9933
准则 9923
49 9923
缔约国 9916
国王 9911
待 9903
证书 9898
党 9897
数@@ 9890
回顾 9889
防@@ 9886
移民 9881
V@@ 9877
尽 9874
伤 9872
言 9872
可靠 9872
放@@ 9869
早上 9863
坏 9858
重复 9851
李@@ 9851
利率 9849
部署 9847
轮 9847
身份 9840
黑 9833
居住 9832
追求 9816
飞行 9812
作业 9796
飞@@ 9787
忘记 9785
不幸 9783
距离 9780
再@@ 9776
米@@ 9770
论坛 9769
空 9765
落 9758
显得 9757
含量 9751
此@@ 9751
口@@ 9750
店 9748
南非 9747
眼 9744
阻止 9741
独特 9740
姆 9736
所说 9732
恩 9731
输入 9730
干@@ 9721
通讯 9718
灯 9717
八@@ 9716
模拟 9711
J@@ 9707
韩国 9694
宪章 9689
酒店 9681
一段 9675
200 9675
英文 9664
血 9661
愉快 9661
麻烦 9659
】 9657
丝 9652
取 9650
一片 9648
卢旺达 9640
延长 9636
初步 9635
用途 9632
后果 9629
1991 9628
敌人 9622
强大 9613
森 9612
出版 9609
年@@ 9604
合适 9601
草 9601
膜 9598
士兵 9596
当中 9596
任 9593
根 9592
生存 9592
死@@ 9592
林@@ 9585
化@@ 9584
清@@ 9584
卖 9580
睡 9580
列入 9575
事物 9571
欧盟 9571
抗@@ 9567
素 9567
料 9565
维@@ 9564
35 9556
多种 9551
收购 9546
45 9540
原 9531
家人 9527
几 9527
美好 9525
液 9521
弄 9517
耶稣 9515
阐述 9513
随后 9511
博士 9511
不够 9511
排@@ 9507
各@@ 9502
照顾 9501
某个 9500
不了 9494
47 9494
压 9485
选 9482
未@@ 9479
2000 9478
t 9468
血@@ 9453
遭到 9450
接着 9445
看上去 9441
商店 9436
贵 9434
军 9425
包装 9422
汤姆 9418
f@@ 9409
社会主义 9407
要@@ 9406
随 9403
朝 9399
h@@ 9396
房 9390
完美 9389
建造 9382
假如 9379
萨@@ 9379
信贷 9379
青年 9372
婚姻 9372
连@@ 9371
应用程序 9370
到底 9369
菜 9357
生长 9344
前面 9340
期待 9338
记忆 9324
代理 9323
气候 9320
制@@ 9320
海外 9320
新型 9313
具 9312
减轻 9312
常@@ 9310
推进 9309
身@@ 9306
成长 9301
更@@ 9299
一边 9298
点@@ 9296
实在 9296
公正 9295
查询 9295
辩论 9279
进@@ 9274
普@@ 9274
呆 9273
动力 9273
群体 9270
转变 9266
族 9260
认真 9259
样子 9254
雷@@ 9254
大陆 9254
表演 9253
透过 9253
g@@ 9247
原理 9247
小心 9234
休息 9230
一套 9223
第一@@ 9219
当事人 9217
已有 9215
每次 9212
做到 9208
很难 9202
形象 9201
心理 9199
莫@@ 9197
网上 9192
保存 9189
记住 9180
失@@ 9171
许可证 9163
必@@ 9163
犯 9161
域 9159
调@@ 9157
四个 9153
鸟 9152
不好 9152
观察员 9150
定@@ 9149
n@@ 9146
满@@ 9143
90 9143
代码 9136
是从 9135
所谓 9131
群 9129
机械 9120
下跌 9120
监管 9115
一座 9114
第五 9114
官方 9096
道德 9088
体现 9085
动作 9084
讲话 9083
聪明 9081
面@@ 9079
近年来 9076
互联网 9061
利润 9052
今晚 9051
推广 9046
战 9043
同一 9042
艾@@ 9038
er@@ 9034
股 9027
成绩 9027
结@@ 9025
顿 9017
立@@ 9017
土 9012
流行 9008
获取 9007
现金 9006
元素 9002
判断 9001
外交 9001
人民法院 9001
2004 9000
阿 8993
罪行 8991
户 8989
风格 8987
额 8983
具备 8976
人民币 8971
效应 8971
有用 8970
1990 8970
接@@ 8967
感受 8956
老人 8953
彼此 8944
眼@@ 8944
因而 8941
白 8932
做好 8926
许可 8923
强@@ 8923
地上 8922
信@@ 8919
首席 8913
微@@ 8912
说@@ 8908
红 8906
修订 8905
巴 8902
设 8897
亲爱 8896
袭击 8896
页 8885
最初 8884
国外 8881
彻底 8870
动态 8870
释放 8867
诉讼 8866
扩散 8865
引发 8862
工@@ 8861
绿色 8860
任何人 8858
婴儿 8856
南 8854
现场 8853
卫星 8850
库 8844
少数民族 8833
院 8833
赔偿 8832
笔 8824
鉴于 8821
公路 8819
冷@@ 8814
港 8808
出生 8802
有利于 8793
照 8792
像是 8786
上涨 8782
潜在 8765
转 8757
通 8746
五年 8742
精@@ 8741
带@@ 8736
司 8720
混合 8709
理 8706
遗憾 8703
表格 8698
一生 8692
看@@ 8691
接 8686
不少 8686
胜利 8685
贫困 8682
忙 8676
千@@ 8673
女@@ 8671
合并 8665
部长 8660
恐怖主义 8650
近@@ 8647
技巧 8639
太太 8638
k@@ 8636
span 8636
未能 8630
感情 8624
望 8622
所有人 8614
M 8613
人才 8613
平台 8605
师 8602
武装 8594
小说 8585
必 8580
助理 8577
军@@ 8573
这时 8573
大脑 8563
那位 8554
奇 8554
斗争 8551
探索 8550
南部 8542
各自 8533
麦@@ 8531
n 8526
管@@ 8524
首脑 8520
骨 8518
加上 8510
燃料 8509
套 8507
付 8507
【 8492
穿着 8490
咖啡 8486
议会 8483
巴基斯坦 8482
红色 8481
全体 8478
关闭 8477
迪 8475
提醒 8474
整@@ 8473
方@@ 8470
前往 8467
识别 8465
解 8463
短 8462
其他人 8457
a@@ 8455
取决于 8454
T 8451
华@@ 8450
几天 8446
盘 8445
俱乐部 8433
福利 8430
通信 8430
危害 8429
县 8425
内地 8421
说法 8418
体育 8418
指示 8418
对待 8416
依赖 8414
负担 8413
牌 8404
塔@@ 8401
周 8400
渴望 8399
货 8398
突出 8393
总结 8391
分类 8389
奖 8386
常见 8373
身边 8370
持 8369
极 8365
推出 8363
循环 8361
恐惧 8360
富有 8357
致力于 8357
灵魂 8352
有没有 8348
已@@ 8343
核@@ 8343
士 8339
厂 8339
宗 8336
报@@ 8329
收益 8324
一句 8323
al@@ 8319
刚刚 8318
分离 8317
刀 8317
土@@ 8315
事@@ 8309
本人 8308
拟订 8308
成熟 8304
动@@ 8300
细节 8298
战斗 8292
地面 8291
32 8279
异@@ 8277
猫 8275
算 8268
19@@ 8268
北@@ 8263
包@@ 8260
微笑 8257
得以 8257
罚款 8252
智慧 8246
实@@ 8245
极大 8245
... 8245
设法 8242
听说 8242
药品 8239
警方 8234
纳@@ 8226
所述 8226
单独 8224
多边 8222
海地 8221
外部 8216
黑暗 8213
因@@ 8211
关 8203
受伤 8197
典型 8167
合法 8162
热情 8160
什 8158
七@@ 8154
深 8151
最低 8149
性别 8146
I@@ 8145
加快 8138
候选人 8133
一道 8132
自愿 8132
付款 8130
深入 8125
练习 8123
争议 8123
半 8121
南斯拉夫 8118
气体 8111
复@@ 8107
索 8106
华 8101
r@@ 8097
切@@ 8094
吉@@ 8093
谈话 8082
洛@@ 8081
配合 8081
症 8079
藏 8076
办 8072
验证 8070
可怕 8069
现代化 8067
西班牙 8063
倍 8060
中文 8059
等等 8056
一会儿 8056
各地 8055
保@@ 8054
自从 8051
总理 8051
编写 8050
叶 8045
术 8045
测定 8045
添加 8038
取@@ 8036
人群 8029
为止 8023
w@@ 8023
代 8022
脱@@ 8011
腿 8006
雇员 8005
边界 8002
桥 8000
2009 7997
一步 7995
36 7990
诗 7990
含有 7990
熟悉 7988
听见 7982
仲裁 7976
情 7975
筹备 7975
阳光 7970
函数 7967
先进 7966
在线 7965
慢慢 7965
哪些 7962
名单 7961
力@@ 7957
视 7944
倾向 7942
救济 7938
外面 7938
不安 7935
巴黎 7934
扩展 7933
职务 7933
不必 7932
议员 7928
这份 7926
远@@ 7924
o@@ 7915
主权 7914
审判 7908
配置 7908
铁路 7904
刑事 7902
庆祝 7899
现 7889
哪儿 7888
难@@ 7881
持有 7877
糟糕 7864
u@@ 7861
活@@ 7841
进来 7838
行使 7838
梦 7836
教@@ 7831
图@@ 7830
恶化 7828
品质 7826
厅 7824
步 7823
指控 7821
较大 7811
支援 7807
教堂 7795
歧视 7793
与其 7786
木 7785
缺陷 7783
那天 7782
应付 7776
表@@ 7760
路上 7753
能否 7753
自治区 7742
33 7731
降 7730
版本 7728
环保 7727
所得 7726
排放 7717
苏丹 7716
白色 7715
国会 7711
实验室 7709
0 7707
务 7703
星 7692
指@@ 7691
墙 7684
糖 7683
沟通 7682
七 7682
很@@ 7676
抓住 7674
海关 7669
少数 7667
小孩 7663
监狱 7655
有时候 7654
伯@@ 7644
代@@ 7643
争取 7639
朝鲜 7638
毛@@ 7633
友好 7632
环境保护 7630
轻@@ 7628
立刻 7623
枪 7620
& 7620
主人 7619
核查 7617
天空 7612
短@@ 7609
优秀 7608
索@@ 7607
埃@@ 7606
声@@ 7599
意外 7599
提案 7598
in@@ 7597
火车 7593
飞 7592
青少年 7590
周末 7589
补偿 7587
抱歉 7585
食 7582
现状 7582
持久 7580
之下 7578
对不起 7576
挂 7562
驻 7556
有个 7546
观念 7544
易@@ 7544
清洁 7542
吸收 7537
地说 7536
塞@@ 7535
兹 7532
雨 7530
乐@@ 7529
然 7529
强度 7528
联络 7528
病@@ 7520
服务器 7520
随时 7519
观众 7512
作家 7509
繁荣 7508
文明 7507
形势 7506
圈 7500
贝@@ 7499
书@@ 7498
极@@ 7498
华盛顿 7493
布什 7493
任命 7493
逐步 7492
秩序 7490
申请人 7484
养 7482
l@@ 7480
始终 7478
感兴趣 7471
球员 7471
玻璃 7468
生态 7466
独@@ 7463
产 7463
公务员 7463
立 7461
从未 7457
不愿 7454
提 7453
仔细 7453
雷 7451
格式 7450
于@@ 7444
盖 7442
合成 7441
主动 7435
查@@ 7431
建筑物 7427
债券 7422
数额 7417
尽可能 7406
观察团 7393
制裁 7391
34 7391
住房 7390
平 7388
转换 7383
脑@@ 7380
共有 7374
集体 7371
中有 7369
情形 7369
区别 7365
奇怪 7361
本国 7358
莱@@ 7356
某人 7353
所在 7352
迪@@ 7347
大卫 7345
依靠 7343
研究所 7343
属性 7325
落@@ 7325
够 7323
躺 7322
U@@ 7317
和谐 7313
资讯 7313
出发 7311
维修 7308
同学 7302
公里 7299
敦促 7299
参观 7297
中国@@ 7293
股市 7292
苦@@ 7288
毒品 7280
苹果 7279
下载 7278
杰克 7272
难道 7271
端 7271
兰 7265
想@@ 7264
互相 7263
样 7256
处罚 7256
帐 7251
面积 7248
及@@ 7247
阻碍 7246
促使 7243
曼 7242
为何 7241
取代 7240
他会 7239
球@@ 7232
早晨 7231
地图 7225
启动 7222
收 7221
文字 7218
３ 7216
唱 7214
诺 7211
视频 7207
论述 7204
有利 7200
1997 7197
受害者 7195
冲@@ 7193
姑娘 7193
抱怨 7192
场所 7192
会计 7191
退休 7191
失望 7190
兰@@ 7190
索马里 7185
职 7184
实体 7175
苏@@ 7173
客人 7172
至关重要 7170
克服 7166
冷 7155
认可 7153
和解 7153
37 7152
刚才 7140
脸上 7139
放松 7136
敏感 7135
青@@ 7134
削减 7132
生效 7130
基地 7128
周@@ 7127
届 7122
希腊 7121
却是 7118
答复 7112
瓦@@ 7109
邮票 7105
减@@ 7098
分为 7097
情@@ 7095
聚@@ 7089
想起 7084
系列 7084
联@@ 7079
经@@ 7077
船@@ 7074
en@@ 7074
回应 7070
愿望 7067
成分 7059
易 7058
陷入 7057
歌 7057
推行 7055
命 7048
和政 7046
杯 7045
不利 7042
理@@ 7042
进去 7040
低于 7030
51 7028
众多 7027
博@@ 7027
小型 7019
到来 7012
英译汉 7010
文学 7008
治 7006
传@@ 7006
试@@ 6996
村 6995
an 6995
立法会 6995
相似 6992
种类 6986
激烈 6985
船舶 6974
勒 6969
希@@ 6968
带有 6965
会员 6965
配@@ 6964
旁边 6960
蒂 6958
修@@ 6955
明年 6948
饮食 6945
命运 6944
自行车 6943
主张 6943
捐助 6942
神经 6939
占领 6937
惩罚 6934
41 6934
一部 6933
清单 6933
箱 6931
在@@ 6928
300 6928
一辆 6924
推@@ 6920
球队 6920
龙 6920
尽量 6917
味 6912
数学 6910
加速 6906
18@@ 6905
桌子 6905
梅@@ 6902
痛 6901
生成 6900
过渡 6899
暂时 6899
救 6897
短期 6896
爆炸 6892
巴西 6891
倡议 6891
特色 6888
好好 6887
搜索 6884
云@@ 6882
鱼@@ 6878
只@@ 6876
网页 6876
毫无 6875
求@@ 6872
托@@ 6872
走进 6870
an@@ 6865
46 6860
路@@ 6856
国际@@ 6851
专@@ 6850
费@@ 6849
得出 6846
不论 6842
情感 6839
用品 6838
股东 6834
简直 6833
异常 6833
演讲 6830
构建 6829
伦 6827
邮件 6827
谈论 6823
与此同时 6822
花园 6821
乐 6820
陈@@ 6817
鞋 6812
失业 6810
嘴 6809
仪式 6809
铁 6807
主意 6807
换 6805
游@@ 6801
冰@@ 6801
民@@ 6801
未经 6799
床 6797
引导 6794
调 6794
替 6793
越@@ 6793
营养 6790
极为 6786
in 6780
牛@@ 6780
更改 6777
温@@ 6776
东 6776
细@@ 6775
文书 6773
浪费 6769
抑制 6760
疡 6760
走@@ 6757
大概 6756
中东 6756
编辑 6755
主持 6755
粉 6754
美国@@ 6754
交 6753
穿过 6753
逻辑 6750
革命 6749
结 6749
44 6748
职能 6745
解@@ 6742
圆@@ 6742
哭 6741
规律 6739
尽快 6737
游客 6733
此次 6733
译文 6727
产量 6726
担忧 6725
医学 6725
如同 6722
矛盾 6720
网@@ 6716
纤维 6713
分区 6712
汉@@ 6712
工程师 6709
深刻 6708
以往 6707
住宅 6705
核准 6705
顶 6702
损伤 6701
支 6700
换@@ 6699
纳入 6697
一周 6696
道@@ 6696
2003 6696
雇主 6695
晚 6694
音 6682
八 6680
帕@@ 6679
茶 6675
上午 6673
融资 6673
仿真 6671
收费 6669
on@@ 6661
股份 6654
呼吸 6652
首@@ 6651
邮政 6650
义 6649
西部 6645
el@@ 6644
土壤 6635
假 6630
破产 6629
提取 6629
英里 6627
航空 6623
治理 6618
亲@@ 6614
新加坡 6607
民众 6604
终止 6601
书面 6598
酶 6595
生气 6593
多次 6592
被@@ 6591
传递 6591
中期 6590
心中 6587
罗马 6585
金钱 6581
长时间 6580
灾难 6578
装@@ 6575
花费 6572
空中 6568
or@@ 6565
v@@ 6560
队伍 6559
争论 6557
奥运 6555
列@@ 6545
垃圾 6544
干预 6543
或@@ 6542
至于 6540
睡眠 6539
记 6536
气候变化 6535
可怜 6533
38 6533
平民 6532
每月 6525
输出 6516
兵 6514
图片 6513
目 6512
蛋白 6510
1@@ 6510
走向 6509
托 6505
幸运 6495
快@@ 6494
轻松 6494
古巴 6493
落实 6493
采@@ 6492
读者 6491
何@@ 6491
树@@ 6486
伯 6483
共@@ 6483
见@@ 6482
谴责 6470
阿拉伯 6468
酒@@ 6464
报告员 6464
回去 6463
墨西哥 6456
此类 6456
之内 6455
付出 6455
房地产 6454
护理 6454
忘 6453
听@@ 6446
计 6443
领@@ 6442
起诉 6442
九@@ 6441
周期 6440
５ 6437
友谊 6433
博物馆 6432
泰@@ 6430
对手 6429
响应 6425
声称 6423
员额 6422
司机 6411
赞成 6410
日常 6410
抱 6408
R 6403
可爱 6403
标 6398
含 6384
第十@@ 6383
边缘 6381
这座 6381
大幅 6381
es 6381
实 6379
董事会 6378
假设 6375
双边 6375
废物 6373
代价 6368
黑色 6364
表决 6362
翻@@ 6360
形状 6360
卷 6359
蓝色 6358
上周 6358
虫 6354
乐观 6352
选@@ 6351
鲁@@ 6348
覆盖 6348
迹象 6345
久 6344
企图 6343
懂 6341
万美元 6341
人体 6340
潜力 6336
症状 6336
坚定 6328
至今 6327
可行 6327
维 6326
第二天 6324
诺@@ 6320
尽@@ 6312
一支 6308
39 6308
F 6307
而已 6305
噢 6305
／ 6305
修复 6304
创作 6303
对外 6302
信仰 6302
夏天 6298
顺利 6298
一段时间 6297
极其 6292
停 6291
离@@ 6291
制备 6287
采访 6287
一面 6281
发射 6280
有力 6280
似的 6279
吃@@ 6273
康@@ 6273
文本 6272
请@@ 6269
施工 6267
赋予 6266
委托 6265
赞赏 6264
目录 6262
家伙 6261
缺少 6259
留@@ 6254
大大 6253
台@@ 6252
推荐 6247
萨 6247
电力 6244
初@@ 6238
福@@ 6238
服装 6236
戴 6235
睡觉 6234
 6232
实例 6230
汇率 6230
装备 6225
体验 6224
食@@ 6223
爆发 6223
钢 6223
最为 6223
洞 6219
印象 6218
0@@ 6216
学者 6215
辐射 6212
存储 6207
增@@ 6206
代替 6204
毛 6202
有机 6199
吃饭 6198
资讯科技 6198
发明 6194
牛 6192
不知 6191
人力资源 6191
星@@ 6190
群众 6190
不仅仅 6189
度过 6189
本来 6187
庭 6186
浏览 6185
洗 6183
自信 6182
la@@ 6182
杜@@ 6182
常用 6181
出于 6180
42 6179
劳工 6179
演员 6178
物理 6178
统治 6173
引@@ 6172
愤怒 6167
草@@ 6165
写作 6163
手中 6161
经济学家 6159
过度 6158
关@@ 6153
h 6152
捐款 6152
毕业 6150
总额 6148
干扰 6144
史 6144
到处 6144
调节 6143
各类 6142
中方 6135
既然 6133
on 6133
75 6132
向@@ 6131
欣赏 6131
第二个 6125
国民 6123
世 6116
后续 6113
议定书 6110
娜 6108
盐 6106
有益 6106
合约 6101
什么样 6093
查 6092
战@@ 6090
防治 6086
一群 6085
香 6084
由@@ 6083
伊 6083
开心 6079
对比 6079
影片 6078
第四 6075
跟踪 6071
开车 6070
耐@@ 6068
搞 6067
投@@ 6066
排 6065
定位 6061
随@@ 6060
威@@ 6059
会谈 6059
2001 6054
英@@ 6053
二十@@ 6050
响 6046
拘留 6046
气氛 6042
外国人 6042
服 6039
餐厅 6038
聚会 6037
导@@ 6035
冲击 6034
心情 6033
仪 6033
心灵 6031
清 6030
玛丽 6029
总体 6027
洗@@ 6025
倒@@ 6025
拍 6024
委 6022
句子 6021
女子 6016
职工 6014
古老 6013
领袖 6013
紧@@ 6012
地雷 6005
优点 6004
便宜 6002
破 6001
接下来 6000
云 5997
运 5993
胡@@ 5991
旧@@ 5991
各位 5990
承受 5985
频率 5983
委员 5983
机器人 5981
归@@ 5981
产@@ 5979
患 5978
物@@ 5977
43 5973
还会 5968
恩@@ 5968
广播 5967
制造商 5964
判决 5962
专利 5960
切 5958
约会 5957
镇 5955
燃烧 5955
这部 5954
安哥拉 5952
硬@@ 5951
预@@ 5950
替代 5949
逮捕 5949
纪念 5948
官 5948
意愿 5947
喜爱 5946
re@@ 5944
密@@ 5944
私营 5944
知识产权 5943
话题 5942
旅客 5941
黎巴嫩 5937
咱们 5936
双 5936
故障 5933
思维 5932
游泳 5931
之日起 5931
药@@ 5924
早@@ 5919
剩下 5915
留在 5911
建@@ 5910
担保 5908
恐怕 5908
组成部分 5906
线@@ 5905
一把 5901
团结 5901
无疑 5899
烟 5896
赞扬 5896
展 5895
孔 5891
两次 5890
改@@ 5889
导弹 5884
守@@ 5881
其次 5879
删除 5878
抽@@ 5876
另一方面 5875
沿着 5873
归 5869
吹@@ 5868
言@@ 5868
条@@ 5868
ing 5866
没什么 5865
使@@ 5864
旅馆 5860
尺寸 5860
农@@ 5856
前进 5855
杆 5855
嗯 5852
断 5852
普 5851
上市 5851
讨厌 5850
衡量 5850
制品 5849
生意 5844
商@@ 5844
巩固 5844
面包 5840
必然 5840
补@@ 5839
破@@ 5834
骨@@ 5830
模糊 5829
全球化 5825
克罗地亚 5825
一本 5823
稳定性 5821
还@@ 5819
存 5817
心脏 5816
再也 5807
哪个 5806
选民 5795
雪@@ 5793
滑@@ 5792
石头 5791
为主 5791
组@@ 5790
交给 5789
蒙@@ 5788
修正 5787
疗效 5786
注 5782
记@@ 5779
实质性 5775
两人 5774
赫@@ 5773
每周 5769
节@@ 5768
1.@@ 5768
艰难 5765
横@@ 5765
水果 5764
子女 5763
可用 5763
地理 5762
试 5759
诸如 5759
支@@ 5755
法案 5744
後 5744
at@@ 5743
玛@@ 5742
当作 5741
克斯 5741
O 5739
紧 5738
棒 5738
信托 5738
吸烟 5737
野@@ 5736
混乱 5735
呈 5735
客 5733
九 5731
学科 5730
乱 5729
左@@ 5725
松@@ 5724
富@@ 5718
色彩 5717
绝@@ 5712
储存 5711
袋 5710
我方 5708
舒适 5703
装饰 5703
精确 5701
个别 5697
泰国 5697
电子邮件 5690
谨慎 5688
原料 5686
目@@ 5685
篇 5683
负责人 5682
运@@ 5680
牛奶 5677
通道 5675
赞同 5674
北部 5669
足以 5669
福 5667
玩具 5667
从不 5665
本质 5664
色@@ 5664
肉@@ 5662
究竟 5660
印 5654
银@@ 5654
极端 5636
职员 5635
奇@@ 5630
档案 5627
对抗 5627
叶@@ 5626
电子@@ 5625
瑞士 5624
不停 5623
蔬菜 5623
香@@ 5622
存@@ 5621
旋转 5616
抵押 5615
环 5614
f 5614
河@@ 5613
留 5613
派遣 5613
龙@@ 5612
大学生 5608
造@@ 5606
摆脱 5600
施@@ 5598
非正式 5595
转向 5594
惊讶 5593
津贴 5593
集@@ 5592
活力 5588
居 5585
磨@@ 5584
轨道 5584
锻炼 5583
争端 5581
上诉 5579
管辖 5578
G 5574
匹配 5567
内心 5565
种@@ 5559
环@@ 5559
解决方案 5556
物体 5553
夜@@ 5552
凡 5550
上去 5548
受欢迎 5547
齐@@ 5547
零 5546
欧@@ 5545
程 5542
耳@@ 5541
注意力 5540
残疾人 5540
谈到 5540
库@@ 5539
55 5536
将要 5535
含@@ 5534
被告 5534
出色 5532
一个月 5524
截至 5521
哲学 5520
根@@ 5512
* 5510
将军 5510
高于 5507
饮料 5502
亿元 5498
混凝土 5496
年前 5496
昨日 5496
待遇 5495
灵活 5495
从前 5495
勇气 5493
k 5493
果 5491
询问 5490
设想 5489
湖 5488
展览 5488
婚礼 5487
初 5480
这方面 5479
观看 5477
形态 5471
街道 5469
ar@@ 5467
丧失 5466
老鼠 5464
回报 5463
激励 5461
建 5455
g 5454
退@@ 5452
方针 5449
金额 5448
坐@@ 5448
土耳其 5448
丁 5447
足球 5444
供应商 5444
改造 5441
竞选 5441
路线 5441
签订 5441
滥用 5440
脚@@ 5439
种种 5438
标签 5437
仆人 5435
清晰 5433
对付 5431
四年 5431
第二@@ 5430
类别 5425
夫妇 5419
照@@ 5418
∶ 5413
语@@ 5412
数值 5411
透露 5410
渠道 5408
驾驶 5407
曲线 5405
差距 5405
新兴 5404
分发 5404
游 5403
停@@ 5402
忽视 5400
暗@@ 5399
税收 5399
坚决 5397
象征 5396
供@@ 5394
港口 5394
养@@ 5394
演出 5393
继承 5390
违法 5389
假@@ 5388
俩 5387
远远 5387
血液 5387
传感器 5386
打破 5386
N 5384
音@@ 5382
跳@@ 5382
厨房 5381
便利 5381
一声 5379
少@@ 5379
冠军 5379
湾 5378
荷兰 5377
样品 5375
霍@@ 5375
前提 5370
细菌 5370
烟@@ 5367
竞争力 5367
管道 5366
劳@@ 5363
流离失所 5361
阴@@ 5359
en 5359
亮 5356
王子 5355
现行 5353
标@@ 5351
变更 5348
行政部门 5348
关联 5345
效益 5344
该项 5344
馆 5338
大楼 5338
年底 5338
永@@ 5336
研讨会 5335
上班 5334
看出 5333
生日 5327
地下 5326
直 5325
做@@ 5323
教会 5318
家长 5318
词汇 5317
平静 5314
着@@ 5314
窗户 5312
只会 5312
400 5312
娱乐 5305
牺牲 5295
大使 5294
理念 5293
洛 5291
款项 5289
第三@@ 5287
每日 5287
缓慢 5286
甘@@ 5283
伊斯兰 5283
常规 5282
画@@ 5281
向前 5281
答应 5281
登 5280
藏@@ 5279
购物 5278
癌症 5277
帐户 5275
思@@ 5273
大众 5273
主体 5272
叫做 5271
父 5270
时光 5269
存款 5269
海上 5267
排除 5267
一篇 5262
聚集 5260
董事 5257
疯狂 5255
爬 5255
贴 5250
分析师 5248
指责 5244
夜 5240
足 5237
予 5235
投诉 5230
al 5230
柱 5229
乱@@ 5228
首 5223
事宜 5219
势 5217
黑塞哥维那 5217
解除 5216
管理局 5216
第二次 5214
合格 5214
约束 5210
乘客 5205
尊敬 5205
找出 5204
果@@ 5199
大声 5198
乳@@ 5198
驱动 5197
国内外 5197
舒服 5194
例句 5192
研制 5190
过于 5184
念 5181
背@@ 5176
构造 5172
执法 5172
施行 5171
弹 5171
钢@@ 5170
遵循 5170
妨碍 5168
万元 5167
乘 5167
史密斯 5164
弄@@ 5162
600 5159
丽 5159
仿佛 5157
星期一 5155
差别 5154
弗@@ 5152
考察 5150
天然 5147
冒险 5146
见面 5146
散 5142
凯@@ 5141
Y@@ 5141
买卖 5138
哈 5137
答 5137
直辖市 5136
旁 5135
约@@ 5134
味道 5133
机遇 5132
宇宙 5130
艾滋病 5130
人人 5129
温暖 5128
分歧 5128
背后 5127
宝贵 5125
拯救 5123
不行 5123
斯特 5123
il@@ 5123
猪 5122
懂得 5120
面试 5120
融合 5120
X 5119
经济@@ 5119
你@@ 5118
升级 5115
速 5114
手里 5114
朝@@ 5114
巨@@ 5113
种植 5113
撞 5111
星期五 5109
若@@ 5107
讲@@ 5107
引入 5107
不如 5106
门口 5106
精力 5105
兴奋 5103
送@@ 5103
断@@ 5102
并@@ 5099
除@@ 5098
有害 5098
推迟 5093
被迫 5093
差不多 5093
形@@ 5092
较为 5092
一颗 5090
足@@ 5088
抗议 5088
ri@@ 5087
列出 5085
体重 5084
牙 5084
观 5084
长大 5083
国家@@ 5080
写@@ 5080
混@@ 5079
首都 5078
拿@@ 5077
现@@ 5075
标记 5074
参@@ 5072
男@@ 5071
圣诞节 5070
电路 5067
古代 5067
软@@ 5066
扮演 5065
只不过 5065
密度 5065
共享 5065
乌@@ 5065
行李 5064
发达国家 5064
2002 5064
遭遇 5063
血管 5063
屋 5062
瓦 5061
就@@ 5060
指引 5057
海岸 5057
探@@ 5051
影 5046
丝@@ 5046
高效 5042
雨@@ 5042
账户 5038
脂肪 5037
分裂 5036
中学 5035
护@@ 5032
一间 5031
印@@ 5031
一根 5030
一百@@ 5029
品种 5027
英尺 5023
局面 5023
椅子 5022
设定 5022
以期 5019
超越 5017
这句 5017
家族 5015
罪犯 5013
即便 5011
地带 5008
头脑 5007
冬天 5004
尽力 4999
应力 4998
到@@ 4995
帮忙 4995
由此 4995
曼@@ 4993
轴 4993
迷@@ 4993
节省 4989
种子 4987
变革 4987
智能 4985
例外 4981
发动机 4979
复制 4978
日内瓦 4978
免疫 4976
纪录 4976
月@@ 4976
工会 4975
投 4973
告知 4973
劳动力 4973
怎么办 4972
丽@@ 4971
在家 4962
祝贺 4956
活着 4955
订单 4955
信用 4955
署长 4948
艺术家 4947
单元 4945
回收 4945
缓解 4945
五个 4941
床上 4940
接收 4939
般 4939
肌肉 4939
锁 4935
顺@@ 4932
时尚 4931
脆弱 4928
< 4927
提名 4926
假期 4925
岩石 4925
一体化 4925
置 4924
４ 4923
靠近 4922
去@@ 4920
质@@ 4917
干净 4913
背 4912
撒 4910
纸@@ 4903
性格 4902
弹@@ 4902
资 4899
it@@ 4897
家具 4896
县级 4896
诚实 4895
网络@@ 4895
男女 4893
衣@@ 4890
65 4889
问@@ 4888
详情 4888
复苏 4886
余@@ 4886
一阵 4884
围绕 4883
级别 4882
太平洋 4880
８ 4880
辅助 4874
灾害 4873
耶路撒冷 4873
回忆 4872
变形 4872
勇敢 4870
玛 4870
任意 4866
了@@ 4866
交谈 4865
互@@ 4861
磋商 4857
乔治 4852
提及 4852
准 4851
公寓 4851
瓶 4850
感@@ 4849
折@@ 4849
恐怖 4849
毫无疑问 4849
ro@@ 4849
送给 4848
昨晚 4846
正义 4845
划分 4843
曲 4841
仪器 4838
流程 4837
奖励 4837
手指 4836
一方面 4836
布朗 4835
任期 4834
54 4834
节日 4830
考@@ 4824
接到 4823
层面 4818
加剧 4818
自治 4817
赢 4817
基本上 4816
底@@ 4816
课题 4813
意@@ 4812
不但 4810
赛@@ 4810
送到 4807
瑞@@ 4798
太空 4797
英雄 4796
视觉 4796
右@@ 4793
视@@ 4792
ic@@ 4792
扩张 4791
两位 4791
一对 4790
处在 4790
77 4790
天使 4789
招@@ 4787
屏幕 4786
哥哥 4785
公告 4784
10@@ 4783
订正 4782
助@@ 4781
激光 4779
修 4775
毒@@ 4774
机理 4773
字@@ 4773
撤销 4773
不敢 4771
否认 4770
餐馆 4769
提前 4769
窗口 4766
两者 4764
吸@@ 4763
比尔 4762
抗 4760
春天 4760
实质 4759
超 4759
监督管理 4759
弹性 4758
鸡 4757
长度 4757
传 4756
创@@ 4755
议题 4753
册 4753
感激 4751
法语 4750
起到 4747
宽 4747
怕 4746
此时 4745
液体 4745
28@@ 4744
振动 4743
保险公司 4742
吸引力 4741
帽子 4739
请问 4739
寄@@ 4738
老年人 4738
对策 4735
缺点 4734
事先 4732
教训 4730
52 4730
母@@ 4727
拖@@ 4727
码 4727
本周 4726
支撑 4725
必需 4725
货@@ 4722
组件 4721
扔 4720
单一 4720
人会 4719
信念 4719
区@@ 4719
监控 4717
谈谈 4714
刚@@ 4712
雅 4712
z@@ 4709
订 4709
报导 4708
消耗 4706
使用者 4706
拿到 4701
不可@@ 4701
大厦 4701
惊@@ 4700
真理 4700
进出口 4698
补贴 4698
微 4697
雅@@ 4697
肿瘤 4697
拍摄 4696
引用 4694
困境 4693
汤 4692
通用 4691
魅力 4691
活跃 4691
新鲜 4690
多久 4690
那边 4689
协作 4687
查看 4686
系数 4685
文档 4683
拨款 4679
烧@@ 4678
衣 4678
步@@ 4676
当选 4676
救助 4675
牙@@ 4674
周年 4674
降@@ 4672
电池 4670
责令 4670
疼痛 4669
加大 4669
附 4668
彼得 4668
物种 4667
体内 4666
总数 4666
教练 4665
急@@ 4663
巧克力 4661
灰@@ 4661
跟着 4660
列表 4658
绿@@ 4657
应有 4657
号码 4656
浮@@ 4654
岩 4652
情报 4652
离婚 4651
杀死 4650
盖@@ 4649
手续 4649
舞 4647
为期 4646
羊 4646
增进 4646
市@@ 4646
饼 4645
抓 4644
最小 4643
抵达 4643
56 4643
地板 4642
农场 4640
民主党 4639
妹妹 4637
堆 4634
以此 4634
蛇 4633
静@@ 4633
消灭 4633
远离 4630
原子能 4630
然@@ 4629
奥 4626
零@@ 4625
商务 4624
边@@ 4623
沙 4623
后者 4621
传输 4621
思 4618
世@@ 4617
暂停 4617
田 4615
潮 4615
偿还 4615
磁@@ 4612
脱离 4611
一遍 4607
迫使 4607
损坏 4603
效力 4597
读@@ 4596
学术 4594
客观 4593
座位 4591
即@@ 4590
并未 4587
无需 4585
头上 4584
蛋 4582
道理 4581
电流 4581
人力 4581
外地 4581
金融机构 4579
个案 4578
脑 4576
提起 4574
广场 4574
耶 4574
销 4571
莉 4570
碳 4569
之上 4566
内在 4566
船只 4566
粗@@ 4564
人家 4563
＿ 4563
目光 4561
信用卡 4561
26@@ 4560
商人 4559
善@@ 4559
架构 4558
相当于 4557
寿命 4557
紧密 4557
薪酬 4556
乡村 4556
重量 4556
散@@ 4553
耳朵 4552
致 4551
透明 4551
算@@ 4549
优惠 4549
角@@ 4548
发起 4547
名义 4546
签证 4544
上来 4543
权益 4543
基础设施 4543
类@@ 4542
选手 4540
副@@ 4539
st@@ 4535
态 4534
密码 4532
饭店 4532
波动 4530
校 4527
领 4526
乔@@ 4525
广@@ 4525
es@@ 4524
监察 4524
神秘 4523
m 4521
井 4521
世界各地 4520
按@@ 4517
营销 4516
超出 4516
要素 4516
万人 4516
太多 4514
广大 4512
害 4511
其余 4511
ti@@ 4511
举 4509
法定 4507
冲 4505
杂@@ 4505
小岛 4503
安静 4503
世界银行 4501
动机 4500
舞台 4497
of 4496
活性 4494
提示 4492
支票 4489
园 4488
府 4488
钥匙 4486
辆 4486
无论是 4485
隐@@ 4482
拍卖 4481
发送 4481
测@@ 4480
厚 4476
这条 4476
据说 4476
牧师 4475
当今 4473
谨 4472
尸体 4472
警@@ 4471
６ 4471
明星 4468
黑人 4468
经典 4468
借 4468
确立 4468
勒@@ 4463
但@@ 4460
啤酒 4460
印刷 4460
慢 4460
姓名 4459
堂 4459
息 4459
邻居 4459
蓝@@ 4457
衰退 4456
人工 4454
悲伤 4453
简@@ 4453
板@@ 4452
要么 4452
恶@@ 4451
转化 4451
矿 4451
雪 4449
社会@@ 4448
整理 4446
裁决 4446
愚蠢 4443
不满 4443
金融危机 4442
拉丁美洲 4441
动词 4439
礼貌 4438
说服 4438
建设性 4438
穷人 4438
一级 4438
交往 4437
偏@@ 4437
７ 4437
圣 4436
渐渐 4436
越南 4436
镜 4435
剥夺 4435
季节 4434
菌 4433
清洗 4432
英 4431
澳门 4431
央行 4427
炉 4425
强化 4425
坐下 4422
清除 4419
几种 4419
差@@ 4419
业绩 4416
挺 4413
酒吧 4413
ad@@ 4412
喷@@ 4410
隐藏 4407
有意 4405
有效性 4405
针 4403
携带 4403
白宫 4402
案文 4401
佛@@ 4400
高速 4398
井@@ 4397
编@@ 4396
史@@ 4396
局长 4396
原始 4395
清理 4393
移@@ 4393
键 4392
迄今 4391
黄 4390
盘@@ 4390
早就 4390
概算 4388
认知 4387
姐姐 4387
你好 4384
理性 4383
量@@ 4382
变动 4382
就此 4381
优质 4380
想想 4377
骑 4377
53 4377
酸@@ 4376
卖@@ 4374
升 4373
一所 4373
沃@@ 4372
变量 4372
确信 4372
语文 4370
案例 4369
蛋白质 4368
七年 4368
素质 4367
耐心 4367
乡 4366
新西兰 4366
本港 4365
猜 4364
分开 4363
发放 4360
树木 4358
壁 4348
签名 4347
硬 4347
卢@@ 4347
个体 4347
桑@@ 4342
政 4341
等级 4340
昂贵 4339
当代 4336
救援 4336
维也纳 4336
般的 4335
茶@@ 4335
塑料 4334
营 4332
丢 4330
此事 4327
依 4326
跳舞 4325
炎 4325
永久 4324
我来 4322
看作 4322
追@@ 4321
止 4320
等于 4320
祝福 4319
呈现 4318
客@@ 4317
往@@ 4316
便是 4314
滚@@ 4311
薪金 4311
钟 4309
带到 4307
煤 4306
切实 4305
疫苗 4303
个@@ 4302
甚 4302
军官 4298
凭 4297
便@@ 4297
双手 4295
着手 4294
宗旨 4294
局部 4294
入境 4294
古 4293
依@@ 4293
译 4292
复合 4292
吻 4289
顶@@ 4287
轮@@ 4285
多样性 4284
制成 4280
检讨 4279
圆 4278
毕业生 4278
同步 4275
个人@@ 4275
去世 4272
公主 4269
题目 4268
安全@@ 4268
报价 4268
一类 4267
惊人 4266
简要 4265
庞大 4265
储备 4264
一台 4263
春@@ 4262
用作 4262
am@@ 4261
指南 4260
单词 4257
展@@ 4257
盒 4252
1998 4252
校长 4251
壳 4249
安慰 4244
减 4244
黄金 4242
j@@ 4241
et@@ 4239
技术@@ 4237
丁@@ 4236
造 4233
刘@@ 4233
高校 4232
此前 4232
城镇 4229
发动 4229
面向 4227
南方 4226
经济学 4226
划@@ 4226
股价 4226
X@@ 4224
移植 4224
作战 4224
退出 4224
附属 4222
方程 4222
眼前 4222
侧 4220
利比里亚 4220
影响力 4219
视察 4217
好象 4216
精度 4216
简化 4216
刑事责任 4214
这张 4213
真诚 4213
通货膨胀 4212
买@@ 4211
保罗 4210
实力 4210
问道 4210
el 4210
链 4209
瑞典 4209
灵@@ 4208
精神@@ 4208
鬼 4204
通胀 4204
吉 4202
硬件 4201
干燥 4201
何时 4200
东部 4199
走出 4199
政权 4195
祝 4189
恰当 4188
层次 4187
朱@@ 4185
雇用 4183
毒 4181
间接 4180
汁 4180
天然气 4180
哈利 4179
胶@@ 4179
虚@@ 4178
处境 4178
浓度 4178
上学 4178
积累 4178
激动 4177
附@@ 4177
乌克兰 4176
共识 4175
故意 4174
指挥 4174
干涉 4168
希 4168
推 4166
佩@@ 4165
三种 4165
书籍 4162
出版物 4160
航空公司 4158
创 4158
保 4157
登@@ 4152
暗示 4151
文献 4151
灭绝 4147
手册 4147
怪 4145
部件 4145
胶 4145
险 4145
街上 4144
夜晚 4143
阁下 4141
看待 4140
伯爵 4140
标题 4139
怀孕 4139
不让 4138
伴随 4137
黄色 4137
甲 4135
欢乐 4134
布隆迪 4132
分散 4131
等@@ 4131
乔 4130
胸@@ 4128
套@@ 4128
这会 4127
58 4126
会见 4126
证人 4125
ch@@ 4125
之所以 4123
矿@@ 4121
扫描 4120
说出 4119
强迫 4119
消@@ 4118
附加 4117
航 4117
57 4117
多样化 4116
一同 4116
常驻 4116
外汇 4114
星期六 4113
商标 4113
此项 4112
近期 4111
秒 4111
残@@ 4110
忽略 4110
媒介 4109
律 4109
权@@ 4105
拿出 4102
下滑 4102
li@@ 4100
幅 4100
油价 4100
认证 4097
焦点 4096
友 4095
阀 4092
三十@@ 4091
鉴定 4087
等到 4086
含义 4086
亲 4086
一大 4085
强制 4085
松 4084
作物 4084
位@@ 4083
K 4083
马克 4083
联保 4082
提请 4081
投标 4080
十 4079
– 4079
800 4078
护士 4078
穆斯林 4078
负 4077
更换 4077
房@@ 4072
弱 4072
击 4071
乙@@ 4071
塞族 4069
着重 4068
欧元 4067
as@@ 4067
干什么 4065
细 4063
路径 4063
下次 4062
制止 4062
正当 4061
江 4060
就算 4060
安全性 4060
哪@@ 4059
场合 4059
义@@ 4059
氏 4059
将@@ 4058
软 4057
知 4057
行政长官 4056
th@@ 4055
很小 4055
柬埔寨 4053
灵 4050
可靠性 4049
阿根廷 4049
爱尔兰 4048
夏@@ 4048
礼 4047
产物 4046
北 4046
订@@ 4046
自行 4046
讲述 4045
乐队 4044
约定 4044
一组 4044
崩溃 4041
部位 4040
祈祷 4036
同情 4036
两天 4035
狼 4033
选项 4033
喜@@ 4032
升@@ 4024
度假 4023
层@@ 4023
模 4023
落后 4023
设有 4021
汉语 4019
读书 4018
进攻 4018
彩@@ 4017
举@@ 4017
模块 4017
戏 4016
丹麦 4016
封@@ 4016
保安 4013
糖尿病 4010
使命 4010
加勒比 4008
墙上 4007
索赔 4007
邦 4006
Z@@ 4005
公 4002
只好 4002
充足 4001
治@@ 3998
免@@ 3996
口头 3996
电压 3996
95 3996
噪音 3995
射@@ 3992
吊@@ 3992
表情 3991
全文 3989
岛屿 3989
叙述 3988
日前 3987
透明度 3985
品@@ 3985
符号 3984
管理人员 3984
伤@@ 3983
限度 3983
承@@ 3979
le@@ 3979
致@@ 3979
ur@@ 3979
开会 3978
歌曲 3976
欺骗 3974
沉重 3973
上次 3973
事态 3973
东京 3973
祖国 3972
征收 3971
沮丧 3970
苦 3970
康复 3968
自主 3967
杰@@ 3966
业主 3966
安置 3965
男 3965
从中 3962
通告 3962
突破 3960
炸弹 3960
格鲁吉亚 3960
死亡率 3959
迈克尔 3958
碰到 3958
样本 3957
部@@ 3957
控制@@ 3957
经济体 3957
轻 3956
令人@@ 3955
― 3955
英国人 3954
民间 3953
政党 3951
甲@@ 3951
物资 3951
关税 3950
困扰 3949
船长 3949
新年 3948
误差 3948
回归 3943
阿尔@@ 3943
葡萄酒 3942
交易所 3942
温 3940
正好 3939
谱 3939
撒@@ 3937
柔@@ 3934
放缓 3933
贵方 3933
选出 3932
乐趣 3930
称@@ 3930
遗传 3929
容器 3927
脱 3925
区分 3924
耳 3923
一贯 3917
控制系统 3917
微软 3916
封 3916
自杀 3916
尾 3914
母 3914
孤独 3914
对联 3912
私@@ 3911
授予 3908
词@@ 3907
度@@ 3905
茨 3905
代理人 3905
槽 3902
隔@@ 3901
生育 3901
这点 3900
个性 3898
擦 3897
饭 3896
夏季 3896
略@@ 3896
垂@@ 3896
拒 3896
链接 3894
没收 3891
之际 3890
每一 3890
季 3883
举措 3883
发育 3882
牙齿 3882
侵略 3882
骄傲 3881
泡沫 3880
两国 3878
营@@ 3878
六月 3878
均衡 3877
效 3876
备@@ 3876
盯 3875
一杯 3875
鼓舞 3875
班@@ 3875
运营 3874
严肃 3872
室内 3872
共同体 3871
一层 3870
流量 3870
顺序 3870
冰 3866
莫 3866
元@@ 3864
注重 3864
菲@@ 3863
曲@@ 3862
卡车 3862
盛@@ 3861
调用 3861
湿 3859
风暴 3858
宝@@ 3857
至@@ 3856
权限 3856
急性 3855
短缺 3854
邻国 3853
审核 3853
另有 3851
研究者 3850
66 3849
城@@ 3847
招聘 3847
牌照 3845
缅甸 3841
忍受 3840
周二 3840
英镑 3839
Ch@@ 3838
汉 3837
唐@@ 3836
更是 3836
沉@@ 3835
防 3835
麻@@ 3834
缴纳 3834
谷歌 3833
审批 3833
那条 3832
亲自 3831
不变 3831
群@@ 3830
死去 3829
传真 3827
无效 3826
较@@ 3824
修理 3819
考验 3818
改 3817
偷@@ 3816
博客 3816
可见 3815
伴侣 3813
难题 3813
周一 3811
85 3810
妮 3810
树林 3808
鼻子 3808
逃@@ 3807
话@@ 3806
迟到 3806
沙漠 3806
填写 3806
做些 3805
为例 3805
64 3805
很长 3804
早已 3804
意志 3803
非线性 3803
基督 3802
蓝 3801
全新 3800
可行性 3800
印度尼西亚 3800
村庄 3798
无关 3798
报酬 3797
洋@@ 3797
日起 3796
铺 3795
噪声 3795
页面 3793
un@@ 3792
居@@ 3792
调动 3792
挪威 3790
汇@@ 3790
查明 3790
尚 3789
荣誉 3785
喂 3785
铜@@ 3784
年纪 3781
1000 3781
器官 3780
自然灾害 3780
名叫 3780
队员 3779
积@@ 3779
铜 3778
临@@ 3774
1989 3774
运送 3773
校@@ 3771
开关 3771
一批 3770
ol@@ 3770
无论如何 3770
小男孩 3769
浪漫 3768
一笔 3767
商业@@ 3767
宝 3766
累 3764
需@@ 3763
超级 3763
自动化 3763
配 3762
H 3760
大气 3759
无限 3758
进化 3758
飘@@ 3758
大多 3758
考 3758
冒 3757
挑选 3757
无人 3756
英格兰 3755
实用 3753
不良 3752
整合 3751
幻想 3751
充@@ 3750
吹 3749
河流 3749
痛@@ 3749
管理@@ 3746
容 3746
容忍 3745
筹措 3743
人为 3742
星期二 3741
创意 3740
深度 3740
次级 3739
帮@@ 3738
烦恼 3737
颁布 3735
士@@ 3733
绿 3732
质疑 3731
遭 3731
国有 3731
走过 3729
副本 3729
综述 3729
限 3728
先前 3728
化合物 3726
申报 3726
玉米 3724
雇佣 3723
计划生育 3723
钱@@ 3722
不该 3721
观@@ 3721
苏联 3720
决 3719
纠正 3717
道歉 3717
线路 3717
价值观 3717
食用 3717
弗 3716
惠@@ 3716
储蓄 3715
原子 3714
隧道 3712
杨@@ 3711
刑法 3710
峰会 3710
香港特别行政区 3710
节点 3709
蒙 3708
航行 3707
待@@ 3706
亨利 3704
奇迹 3704
九龙 3704
载有 3703
术语 3702
癌 3702
① 3702
博 3699
针@@ 3698
编码 3698
晚餐 3698
市场经济 3698
命名 3692
公共汽车 3691
搬 3687
增长率 3686
放到 3684
交通@@ 3683
众人 3682
码头 3682
邮@@ 3682
贵@@ 3681
社 3681
哥 3680
蒂@@ 3679
指望 3678
露 3678
意图 3678
某@@ 3678
刺@@ 3676
中断 3676
700 3675
耶@@ 3675
注射 3674
蛋糕 3674
竞争对手 3674
陈述 3674
尖@@ 3673
收取 3671
商业银行 3670
反馈 3669
田@@ 3668
id@@ 3667
讨论会 3667
拍@@ 3665
工业化 3665
吨 3665
学位 3664
共和党 3662
容@@ 3660
这笔 3660
家中 3659
政@@ 3658
借@@ 3658
口袋 3657
灭 3657
此种 3656
比率 3656
输@@ 3655
束 3655
瞧 3654
裁定 3651
亿@@ 3651
薄 3650
按钮 3650
一方 3650
天堂 3649
致命 3648
震惊 3647
沉默 3647
粒 3644
臂 3644
独自 3643
节能 3643
范畴 3641
自由@@ 3640
审 3640
纯@@ 3639
系@@ 3639
虚拟 3637
 3637
乐意 3636
拨 3635
水资源 3632
污水 3632
摧毁 3632
狮子 3631
悲剧 3631
插@@ 3630
戴@@ 3630
拖 3630
文中 3628
小小的 3627
片@@ 3627
禁@@ 3627
煤@@ 3627
研发 3626
迫切 3626
谈@@ 3625
一头 3624
家园 3624
丹@@ 3623
68 3623
真相 3622
150 3621
熊 3620
各种各样 3620
所属 3619
63 3619
地质 3618
胜 3618
仅@@ 3617
剧 3616
科学技术 3614
过分 3612
权威 3612
碎 3610
一眼 3610
神圣 3610
毁灭 3607
设计师 3606
初期 3606
狂@@ 3604
接口 3604
停火 3604
杰出 3603
应急 3602
除外 3602
生产力 3602
谢@@ 3601
透@@ 3600
借口 3600
字母 3600
填@@ 3597
菲律宾 3597
专门机构 3597
移徙 3597
随机 3596
得知 3596
序列 3595
均匀 3595
策 3595
本届 3594
严厉 3593
温和 3593
欢@@ 3593
is@@ 3592
招标 3592
生物@@ 3592
观测 3591
众 3591
琳 3591
一月 3590
气象 3589
恨 3588
两名 3588
模@@ 3587
瑞 3587
控 3587
净 3586
浅@@ 3585
即可 3585
占有 3584
维尔 3583
尊严 3583
四月 3583
起草 3582
利息 3582
策划 3581
守 3580
三分之一 3580
所作 3577
太阳能 3577
股权 3575
总会 3574
阶层 3573
早餐 3573
从来不 3572
党@@ 3572
年内 3572
法令 3572
种族歧视 3572
收获 3571
边境 3571
固@@ 3570
每当 3570
u 3570
淡@@ 3569
卫@@ 3569
种族主义 3568
找@@ 3567
富裕 3566
遗产 3566
苦难 3565
利比亚 3565
占据 3564
租金 3564
72 3564
四周 3562
征@@ 3562
诗人 3562
摆 3560
柜 3559
直至 3559
桩 3559
触@@ 3558
菜@@ 3557
评@@ 3556
轻易 3556
航班 3555
两家 3554
绝望 3554
无数 3552
运转 3552
受益 3550
涂@@ 3549
引进 3549
之类 3548
短暂 3545
故 3544
x@@ 3544
首要 3544
土著人 3542
V 3542
em@@ 3542
江@@ 3540
舱 3537
圣经 3537
剑 3536
吓 3534
校园 3534
预定 3534
告 3534
使人 3533
语法 3532
错过 3531
认@@ 3531
遇见 3530
相结合 3530
ir@@ 3528
韦@@ 3528
疗法 3527
开采 3527
弥补 3526
粉@@ 3525
宣称 3524
揭示 3523
演奏 3523
笔@@ 3521
氧 3520
三月 3519
胆@@ 3518
载@@ 3518
将近 3517
再见 3516
马丁 3516
海军 3515
捐赠 3515
闻 3514
用以 3514
同一个 3513
船上 3513
上网 3511
零售 3511
原谅 3510
刺 3509
毕竟 3509
展现 3509
目的地 3508
世界@@ 3508
露@@ 3507
改正 3507
协调员 3507
泵 3506
时机 3506
睡@@ 3505
妈 3505
高中 3505
瘤 3502
精 3501
根源 3500
鸡@@ 3499
必要性 3498
缘 3497
成人 3497
圣诞 3496
动力学 3496
餐 3495
健全 3494
颗粒 3492
浆 3492
伦@@ 3491
省@@ 3491
期@@ 3490
波兰 3489
电讯 3489
急 3488
工作者 3488
消极 3486
公斤 3485
确切 3484
星期天 3484
屋顶 3482
雷达 3481
激情 3480
注入 3479
ed@@ 3479
寻@@ 3477
威 3477
星期四 3477
+ 3476
59 3476
场地 3476
宽@@ 3475
1999 3475
压缩 3475
优@@ 3474
一向 3474
一番 3473
听取 3473
尾@@ 3471
录音 3471
环节 3470
强劲 3469
零件 3468
名词 3467
赚 3467
偶尔 3466
所有权 3466
人均 3466
缔结 3465
疲劳 3464
虐待 3463
薪水 3463
保密 3463
国籍 3459
市长 3458
全都 3457
因子 3457
900 3457
r 3456
拖延 3456
烟草 3455
洲 3454
醒 3453
莱 3452
ec@@ 3451
屿 3451
62 3451
寒冷 3450
教室 3450
护照 3450
自豪 3449
千万 3449
筒 3448
银行业 3448
物流 3448
保守 3447
月球 3446
群岛 3445
把握 3444
五月 3443
终@@ 3443
61 3443
谘询 3443
贴@@ 3442
迎接 3440
图案 3439
大门 3439
残疾 3439
海水 3438
合金 3438
坛 3438
苏 3436
相处 3436
西亚 3434
玫瑰 3433
业@@ 3432
兴@@ 3431
助 3430
国际贸易 3430
Sh@@ 3430
学家 3429
屋子 3429
集合 3427
三维 3427
澄清 3427
泡 3425
羊@@ 3425
播放 3424
利亚 3423
负@@ 3423
频繁 3420
严@@ 3419
述 3418
认定 3418
速@@ 3418
鸡蛋 3416
一事 3416
灯@@ 3415
午餐 3414
职权 3414
马来西亚 3414
大国 3413
增大 3412
总裁 3412
一人 3412
咬 3411
企业家 3411
失 3411
煤炭 3411
场景 3409
这事 3409
官@@ 3408
ou@@ 3407
领先 3406
志@@ 3406
叙利亚 3406
院校 3405
正面 3400
体育@@ 3399
富 3399
嘿 3397
几次 3396
景 3396
主义者 3396
不太 3395
阶 3395
99 3395
交付 3394
胃@@ 3393
重组 3393
时间表 3393
火箭 3392
间@@ 3392
焊接 3391
饥饿 3390
竟然 3389
纠纷 3389
行星 3387
卷@@ 3386
惯例 3386
席 3386
采取措施 3385
备 3385
楼@@ 3384
目前为止 3384
斜@@ 3383
查阅 3382
肯 3381
激@@ 3380
三天 3380
暴露 3379
水中 3379
心脏病 3379
明智 3379
不住 3378
le 3378
灰色 3377
加热 3377
旅游业 3376
全球性 3375
吩咐 3373
告@@ 3373
一般性 3373
热烈 3372
唱@@ 3371
枚 3371
保险@@ 3370
节约 3369
舞蹈 3367
防御 3367
星期三 3366
延伸 3364
演 3363
人民代表大会 3362
2010 3361
摆@@ 3361
完@@ 3361
质素 3361
帽 3360
当天 3360
0.@@ 3360
栏 3360
引擎 3360
鼠 3359
专用 3359
注视 3359
租 3359
工程处 3357
前后 3356
周三 3356
证件 3353
腔 3352
解决问题 3352
反而 3352
最早 3351
任@@ 3351
宁 3350
辞职 3350
73 3349
北方 3348
测 3348
默@@ 3348
势力 3348
离子 3347
经营者 3347
围@@ 3346
射 3346
支配 3346
苏格兰 3346
计@@ 3345
简称 3345
竟 3345
扎@@ 3344
个人资料 3344
录 3342
概述 3341
制造业 3340
传送 3339
演@@ 3337
挂@@ 3336
双重 3336
渔业 3336
基督教 3335
激发 3335
境外 3335
陪 3334
分摊 3334
解放 3333
散步 3333
界面 3332
点击 3332
本署 3330
塞尔维亚 3329
唯 3329
论@@ 3328
原文 3327
动荡 3326
处置 3326
产出 3326
晚@@ 3325
奋斗 3325
随意 3325
堡 3325
科威特 3324
摩西 3323
实时 3321
社交 3319
衬衫 3319
端@@ 3318
玩@@ 3318
小麦 3318
筹资 3318
汽油 3316
主流 3316
世上 3316
滑 3315
池 3315
厚@@ 3315
华尔街 3314
修建 3314
市区 3313
变换 3310
惊奇 3309
吃惊 3309
递交 3308
一时 3307
良@@ 3306
绝不 3305
下雨 3305
国别 3305
梁 3304
热爱 3302
震@@ 3302
影@@ 3301
ra@@ 3301
嘛 3299
无线电 3298
J 3296
氧化 3296
欲 3296
系统@@ 3296
法人 3296
干旱 3294
焦虑 3294
弟弟 3294
随便 3294
公式 3293
腐败 3293
现时 3292
烧 3291
报表 3291
杀害 3290
永恒 3290
救@@ 3287
商定 3287
偶然 3286
专题 3286
拟定 3286
看过 3285
六个 3285
生病 3283
叫@@ 3283
指挥官 3282
反复 3281
受理 3280
末 3279
左 3279
欲望 3278
平面 3277
洪水 3276
l 3276
电信 3275
缩@@ 3274
p 3274
派@@ 3273
第二章 3273
外表 3272
奥地利 3272
一幅 3272
芝加哥 3271
参与者 3271
削弱 3270
议 3270
入侵 3269
不可避免 3267
薪 3267
拟 3266
改为 3264
规划署 3264
贝 3263
美国政府 3263
敢 3261
猛@@ 3261
劳动者 3261
它会 3260
寒@@ 3260
基本@@ 3259
慢性 3258
伤心 3258
ha@@ 3257
一日 3257
定价 3256
审理 3256
抵抗 3254
规格 3254
小学 3254
远程 3253
峰 3251
深深 3250
武力 3250
鼻@@ 3249
看不见 3249
法例 3248
幽默 3246
湖@@ 3246
带给 3245
感冒 3245
温柔 3244
对应 3244
领取 3244
喝@@ 3244
营业 3241
停留 3240
夫@@ 3239
眼泪 3238
大街 3236
莎 3236
肥胖 3236
动员 3235
漫长 3235
材 3235
ar 3235
成效 3235
支持者 3234
市场@@ 3234
乡@@ 3233
制约 3232
月亮 3231
病例 3231
传染病 3231
枪@@ 3231
击@@ 3230
公认 3227
调解 3227
界定 3226
百姓 3226
热量 3226
忧虑 3226
谢 3225
67 3225
开设 3224
成千上万 3224
74 3224
移 3223
糖@@ 3221
寄 3221
武@@ 3221
扎 3220
摩@@ 3220
欠 3219
名为 3219
无线 3217
七月 3217
联合王国 3216
大厅 3214
第三个 3214
ac@@ 3212
何种 3212
遗@@ 3210
检疫 3210
罗伯特 3209
检察官 3209
地铁 3209
当事 3209
露出 3208
箱子 3208
数码 3207
加州 3207
偷 3206
人事 3206
采取行动 3206
布什总统 3205
一门 3204
航@@ 3204
银 3202
规章 3202
高层 3201
剂量 3200
冷静 3200
盐@@ 3199
素@@ 3199
虽 3199
五十 3198
向上 3198
军备 3198
试着 3197
光明 3197
大海 3197
丹 3197
百分之@@ 3197
磅 3196
军人 3196
籍 3194
喊 3192
大胆 3192
日常生活 3192
库存 3192
海事 3192
供给 3191
幼@@ 3190
裂 3189
电机 3189
赶@@ 3189
订购 3188
千年 3186
异 3186
城里 3185
甜@@ 3183
要说 3182
行事 3182
知@@ 3181
爵士 3181
距 3180
木材 3180
om@@ 3180
化学品 3179
绕 3179
76 3178
71 3177
几分钟 3176
前途 3176
拜@@ 3174
发给 3174
00 3174
证@@ 3173
执行官 3173
诸多 3173
学到 3172
梅 3172
参议员 3170
恶劣 3169
白天 3169
善 3168
20@@ 3168
宠物 3168
汇报 3168
战胜 3167
广阔 3167
百万 3167
尼日利亚 3167
抢@@ 3166
海底 3165
限于 3165
莉@@ 3164
没错 3163
绘画 3163
美联储 3162
示@@ 3161
克林顿 3160
跨@@ 3158
团@@ 3158
钻石 3157
热带 3157
美洲 3157
课堂 3157
模仿 3156
罐 3156
违背 3155
穿@@ 3155
九月 3154
迁移 3153
休@@ 3152
液@@ 3151
杀@@ 3151
96 3151
探测 3150
呼@@ 3150
不见 3150
戈@@ 3149
珍贵 3149
高等教育 3148
桥梁 3146
疑问 3146
图形 3145
车站 3145
启@@ 3143
工程@@ 3143
粒子 3142
沿 3141
以至于 3141
污染物 3141
嘉@@ 3140
要点 3140
智力 3139
魔@@ 3139
流入 3139
底部 3138
竞赛 3138
ia 3137
诞生 3134
行政@@ 3134
拟议 3134
毁 3133
难以@@ 3133
金融市场 3133
不肯 3132
暴@@ 3132
编列 3132
停下来 3131
延迟 3131
宫 3131
9.@@ 3130
翻 3129
1980 3128
成年人 3127
插入 3127
纪律 3127
际 3127
铺@@ 3126
合法权益 3126
海滩 3124
指令 3124
宝贝 3123
谷 3123
78 3123
讲习 3123
靠@@ 3122
盈利 3122
次数 3119
紧紧 3119
手臂 3118
歌@@ 3117
什@@ 3117
三次 3117
占@@ 3115
引渡 3115
言语 3114
慷慨 3114
微生物 3112
94 3111
构成犯罪 3111
解雇 3110
放置 3109
采集 3109
深信 3109
公安机关 3108
齐 3107
外界 3105
复 3105
信息@@ 3104
集成 3104
冷战 3104
第三章 3103
夹@@ 3102
戏剧 3102
善良 3101
失踪 3101
陌生人 3100
破裂 3099
纷纷 3099
服务@@ 3099
形容 3097
气味 3097
认同 3097
来临 3096
短语 3096
此后 3094
拥抱 3093
料@@ 3093
剪@@ 3090
涵盖 3090
刻 3089
文物 3089
走上 3089
互动 3088
透 3087
荣幸 3087
皇家 3087
电源 3087
排名 3086
莫斯科 3085
怪@@ 3084
芯片 3084
监视 3084
遥远 3084
灰 3083
分解 3083
死刑 3083
一个@@ 3082
冬季 3082
导 3082
维生素 3081
育 3081
难过 3080
火灾 3080
火焰 3080
聊天 3079
境 3077
礼@@ 3077
猎@@ 3076
争@@ 3074
犹太人 3074
折磨 3074
不去 3073
决不 3072
追踪 3072
密 3072
摇@@ 3071
明亮 3071
x 3071
ag@@ 3071
与@@ 3070
舍 3068
笑话 3067
隆 3066
爱好 3066
传说 3065
总经理 3065
刀@@ 3064
发现自己 3062
辛@@ 3061
新界 3061
象@@ 3059
荣耀 3059
租@@ 3059
拜访 3058
加沙 3057
雷曼 3057
颁发 3056
披露 3056
垫 3055
悬@@ 3055
包裹 3055
四十@@ 3055
天上 3053
命@@ 3053
右 3053
92 3053
后悔 3051
抓@@ 3051
听众 3051
资@@ 3050
豁免 3050
点儿 3049
朝着 3048
大鼠 3048
女王 3045
剩余 3042
88 3040
战士 3040
两只 3039
宝宝 3036
楼宇 3036
情节 3036
狗@@ 3035
延@@ 3035
金牌 3033
简 3033
生产总值 3033
罗斯 3032
第一步 3032
农 3031
运气 3030
契约 3028
鼓@@ 3027
生物学 3027
进度 3027
今@@ 3027
梦@@ 3027
这块 3026
缩小 3025
席位 3025
赛季 3025
睡着 3025
扬 3023
脸@@ 3022
笑@@ 3022
身份证 3020
早些时候 3019
刮@@ 3019
看电视 3019
强有力 3019
车子 3018
否定 3015
普及 3015
草地 3015
谋求 3015
编 3014
酒精 3014
变为 3014
接待 3013
使用权 3012
临 3012
宁愿 3012
钉 3011
聚 3011
长远 3011
自然@@ 3010
流动性 3009
处@@ 3009
新闻@@ 3008
ot@@ 3007
增多 3006
敌对 3006
邪恶 3005
购@@ 3004
唱歌 3004
沟 3004
收回 3003
借鉴 3002
代表性 3001
信用证 3001
租赁 3000
宏观 2999
伸出 2998
光线 2998
好多 2998
嘉莉 2997
会上 2996
版@@ 2995
宴会 2995
禁毒 2995
服用 2994
泥 2994
大自然 2994
东方 2994
阴影 2994
办公 2993
缴 2991
民事 2990
纲要 2990
倾@@ 2989
兼 2989
盒子 2989
伸@@ 2988
家乡 2988
跨国 2988
肝 2987
累@@ 2986
行走 2985
置@@ 2984
政治家 2984
矿物 2984
控制器 2984
这名 2983
动脉 2983
几周 2980
割@@ 2980
功@@ 2979
帝国 2979
机械@@ 2977
号@@ 2977
脑袋 2975
迷人 2974
主办 2974
绳 2973
上市公司 2973
小女孩 2971
线性 2971
税务 2971
女孩子 2970
再度 2970
冻@@ 2970
操纵 2969
科学@@ 2969
整天 2968
财政部 2968
尤@@ 2968
回复 2967
所用 2967
锁@@ 2965
是非 2965
对面 2964
步伐 2962
得不到 2961
第四章 2961
再说 2960
犬 2959
吉姆 2958
出租车 2958
曾@@ 2958
鞋子 2956
大宗 2955
节奏 2953
干部 2953
以免 2952
流感 2952
不像 2951
05 2951
批 2951
深化 2950
转型 2949
屋里 2948
情景 2946
贸易@@ 2946
慈善 2945
跑@@ 2944
预先 2940
等候 2940
那次 2940
皇帝 2938
稿 2938
贸发 2938
志 2937
力度 2937
恶 2935
诗@@ 2933
教学@@ 2933
流通 2933
阳 2933
散发 2932
止@@ 2931
隔离 2929
诗歌 2929
画面 2929
开玩笑 2928
夫妻 2928
忠诚 2928
is 2928
93 2927
生殖 2927
当年 2927
我家 2926
撤出 2926
奖金 2926
粮农组织 2926
坚强 2925
反射 2925
景观 2925
英寸 2925
喜悦 2925
大力 2924
us@@ 2923
威廉 2923
ed 2923
国民经济 2922
全国人民代表大会 2922
精彩 2921
熟 2921
清醒 2921
静 2920
麦克 2920
墨@@ 2920
后勤 2920
电话号码 2919
业界 2919
秘书处 2917
依法追究 2917
时常 2917
1988 2917
数据@@ 2916
碎片 2914
卢 2914
历史@@ 2913
激素 2911
绝大多数 2911
英语@@ 2910
促成 2910
五十@@ 2910
住@@ 2909
港@@ 2909
上个月 2909
凡@@ 2908
封信 2907
腐蚀 2907
感动 2907
弯@@ 2906
and 2906
天才 2905
扬@@ 2905
没事 2904
喝酒 2903
偏见 2902
决@@ 2902
适宜 2902
折扣 2902
促请 2902
忽然 2901
物业 2901
紫@@ 2901
坚@@ 2901
公爵 2901
ab@@ 2900
脉冲 2900
鱼类 2899
会晤 2899
幅度 2898
进而 2898
而成 2897
缺@@ 2897
毫不 2897
艘 2897
120 2897
禽流感 2897
易于 2896
乘坐 2896
马车 2894
北美 2894
粘@@ 2894
盟约 2894
稍@@ 2893
8.@@ 2893
全身 2892
发电 2892
徒 2892
办@@ 2892
囊 2891
碱 2891
尔斯 2891
孔@@ 2890
过后 2889
搜寻 2889
3.@@ 2889
鲜@@ 2888
关节 2888
灵活性 2888
近来 2888
卡尔 2887
侧@@ 2887
点钟 2887
水面 2886
纯粹 2886
森@@ 2885
把手 2885
水泥 2885
老婆 2885
69 2884
菜单 2883
密封 2882
伊丽莎白 2882
十二月 2881
景@@ 2880
刻@@ 2880
前来 2880
规例 2880
百 2879
示范 2878
演变 2878
建成 2878
其后 2878
扣 2877
显 2876
陆@@ 2876
泛@@ 2874
法治 2872
口语 2869
纯 2868
思路 2868
桶 2867
姆@@ 2867
搭 2867
Mar@@ 2866
避@@ 2865
生理 2865
缩短 2864
哥伦比亚 2864
例@@ 2864
上文 2864
高温 2863
昆虫 2861
器@@ 2861
级@@ 2860
无辜 2860
必不可少 2860
在外 2859
轻微 2859
本月 2859
化学@@ 2859
舞@@ 2857
一处 2857
负有 2857
本次 2856
倾听 2855
贩运 2855
减肥 2854
垂直 2853
厉害 2851
跨 2850
奶@@ 2850
骨折 2848
专注 2848
翼 2848
抛弃 2847
兽 2847
有钱 2846
债权人 2846
_ 2844
久@@ 2844
艰苦 2843
弯曲 2842
谅解 2842
征 2841
恒@@ 2841
踢 2839
一双 2839
DVD 2838
尖 2838
种族隔离 2838
葡萄牙 2838
融入 2838
划 2837
致力 2837
电缆 2837
超声 2837
介质 2836
吴@@ 2835
所涉 2835
配备 2834
联合会 2834
突@@ 2833
灯光 2833
os@@ 2833
严峻 2832
大西洋 2831
控@@ 2831
电台 2831
纳税 2830
电视台 2830
一行 2830
劳动@@ 2830
言论 2829
工业@@ 2829
翅膀 2828
挤@@ 2827
影像 2826
轨 2826
直升机 2826
通知书 2826
升高 2825
伴 2825
摩 2825
醒来 2824
球迷 2824
坑 2823
穆@@ 2823
研 2823
振@@ 2822
赫 2822
一副 2822
橡胶 2821
86 2821
矩阵 2819
历 2819
对冲 2819
冒@@ 2818
订立 2818
申诉 2817
编号 2817
夹 2816
洛杉矶 2816
想着 2814
慢@@ 2814
求解 2814
六个月 2813
奶 2813
众@@ 2813
少量 2813
我爱你 2811
上课 2811
通往 2811
结算 2811
参照 2810
树脂 2810
蔓延 2810
荷@@ 2809
过多 2809
提问 2809
审@@ 2809
迈克 2809
文职 2807
香港@@ 2807
有毒 2806
楼梯 2806
信件 2805
控件 2805
洪@@ 2803
or 2803
大地 2802
窗 2802
检 2802
志愿者 2802
剧@@ 2801
谋杀 2801
14@@ 2800
冷却 2799
守则 2799
铝 2798
次@@ 2798
卧室 2797
兵@@ 2797
廉价 2797
第四@@ 2797
年来 2796
配偶 2796
术后 2796
所在地 2796
30@@ 2796
纳税人 2795
晚会 2795
戈 2795
西非 2795
25@@ 2794
风景 2793
科技@@ 2793
从此 2792
怀@@ 2792
歌手 2791
游行 2791
辩护 2790
饰 2789
步行 2789
原本 2788
Y 2787
字符 2785
~ 2785
and@@ 2784
价@@ 2784
框 2784
准@@ 2783
斗 2783
老年 2783
勘探 2783
走路 2783
伤口 2783
大批 2783
援助团 2783
埃 2782
医@@ 2782
训 2781
电视@@ 2780
挖掘 2780
容量 2780
同等 2780
提倡 2780
迹 2780
管理员 2778
再生 2778
截止 2778
地域 2777
放下 2776
最多 2776
势@@ 2775
季度 2775
试试 2774
两周 2774
虚假 2772
高速公路 2772
oo@@ 2772
略 2771
拓展 2771
人民@@ 2771
以致 2771
钻@@ 2771
2.@@ 2770
语音 2767
ut@@ 2767
预订 2766
逃 2764
音乐会 2764
中部 2763
83 2763
创造性 2763
桌上 2762
逾 2762
争吵 2761
误解 2760
监禁 2760
施 2759
女朋友 2758
图书 2758
玉@@ 2758
齿 2757
检@@ 2757
胳膊 2755
钢铁 2754
优良 2754
外交部 2754
智@@ 2754
St@@ 2753
仓库 2753
屋@@ 2753
结果显示 2752
无力 2752
81 2752
教育@@ 2751
弯 2750
底下 2750
埋 2750
热点 2750
豆@@ 2749
卖方 2749
备忘录 2749
斑 2748
存放 2747
所示 2747
力学 2746
部落 2746
98 2746
执@@ 2744
泥@@ 2744
董事长 2743
做成 2742
收缩 2742
示 2742
获@@ 2741
钙 2741
奥林匹克 2741
型@@ 2741
讲座 2740
殖民地 2739
82 2739
入口 2739
诸@@ 2738
区内 2738
闭@@ 2737
适@@ 2736
奠定 2736
预防性 2736
千 2736
民用 2736
奶奶 2735
W 2734
计量 2733
Re@@ 2733
遍 2733
险@@ 2732
插 2732
开口 2732
六年 2732
湿@@ 2731
煮 2731
周四 2731
甚@@ 2731
幕 2731
见证 2731
展望 2730
图表 2730
善于 2730
汽@@ 2730
称之为 2729
体会 2729
鬼@@ 2729
叔叔 2729
轴@@ 2726
巴士 2726
拼@@ 2725
镜子 2725
备案 2725
买方 2725
搭配 2724
税@@ 2723
你方 2723
悲@@ 2722
雄@@ 2722
传达 2722
发誓 2722
阐明 2721
显@@ 2721
生活@@ 2720
拥挤 2720
持@@ 2720
as 2720
介入 2718
祷告 2718
复兴 2718
碰 2717
娶 2715
不适 2715
腹@@ 2715
沿@@ 2714
优雅 2714
朗@@ 2714
星星 2714
79 2714
外出 2713
卫生@@ 2713
抽烟 2713
承包商 2713
国家有关 2712
这使 2711
带领 2711
具@@ 2710
醇 2710
回合 2710
青春 2709
温室 2709
灌@@ 2708
选定 2708
特权 2707
不在乎 2706
创业 2706
餐@@ 2705
神经@@ 2705
广 2704
写信 2704
内涵 2704
罩 2704
几十年 2703
人来 2703
滴@@ 2702
PDF 2701
鲁 2700
一点儿 2699
工作@@ 2699
押 2699
莫桑比克 2699
艇 2698
国防 2698
延续 2698
中等 2698
防护 2697
做事 2697
负荷 2697
来讲 2696
脖子 2696
DNA 2696
围 2695
债 2695
佛 2694
政府部门 2694
规 2693
动物园 2693
囚犯 2693
保养 2693
退 2692
美妙 2691
91 2691
摄影 2691
抵@@ 2691
一顿 2689
皆 2688
打印 2688
坦@@ 2688
中美洲 2688
17@@ 2687
鞋@@ 2687
不准 2686
逃避 2686
U 2686
高达 2685
绝 2685
丢失 2684
速率 2684
外来 2684
处以 2684
孤@@ 2683
赞美 2683
列车 2682
天文台 2682
人格 2681
坚信 2680
潮流 2679
逆@@ 2679
合作伙伴 2679
柯@@ 2678
检索 2678
肩膀 2677
街头 2677
卓越 2677
传媒 2677
农产品 2677
天赋 2676
写道 2676
舒@@ 2675
哭泣 2675
集会 2675
无聊 2675
十二 2675
值@@ 2674
氢 2672
法律法规 2672
八年 2672
这类 2671
也就是说 2671
麻 2670
劝 2669
妥协 2669
祭 2668
杰 2668
骗 2667
一架 2666
假定 2666
村@@ 2665
奉 2665
索引 2664
跌 2664
协@@ 2663
这话 2662
上下 2662
87 2662
设@@ 2661
水域 2661
婚@@ 2661
晶@@ 2660
封闭 2659
旋@@ 2658
长期以来 2658
怒 2657
光学 2657
春 2657
列为 2656
陆地 2656
紧迫 2656
少年 2655
付@@ 2654
岸 2654
好事 2653
升值 2652
觉 2651
刊登 2651
签字 2649
一点点 2648
村民 2648
烤@@ 2648
一会 2647
青 2647
妇人 2647
战场 2646
源自 2646
过境 2646
敬@@ 2646
金属@@ 2646
民主@@ 2645
外商投资 2645
旅程 2644
挺@@ 2644
必将 2644
一千@@ 2644
研究生 2644
sh@@ 2643
金融@@ 2643
〕 2643
不然 2642
分割 2641
com 2641
服从 2640
师@@ 2640
玩家 2640
证券公司 2640
版权 2639
签 2639
周六 2639
ig@@ 2637
培育 2637
高压 2635
共同@@ 2634
空调 2633
货币政策 2633
往来 2632
煤矿 2631
夏 2631
奴隶 2628
厌恶 2627
尚@@ 2627
胃 2627
水分 2627
批@@ 2627
之地 2627
欲@@ 2627
牵@@ 2625
查尔斯 2624
芬兰 2624
周日 2624
致使 2621
派出 2621
管理者 2621
罕见 2620
限@@ 2620
中央政府 2619
失业率 2619
预 2617
基层 2617
罢工 2616
政治@@ 2616
购 2616
奖学金 2616
夜间 2615
迷 2615
顺 2615
亲密 2615
广州 2615
眼中 2614
珠 2613
纺织品 2613
二氧化碳 2612
称赞 2611
生产商 2611
环境@@ 2611
走廊 2610
不妨 2610
场@@ 2609
天生 2609
示威 2608
平时 2608
宣告 2607
舞会 2607
十月 2607
碎@@ 2605
而来 2605
之处 2604
尽早 2604
限额 2602
一款 2601
务@@ 2601
本着 2601
碳@@ 2600
的@@ 2600
主席团 2600
排列 2599
残酷 2598
日志 2598
宁@@ 2598
上级 2598
97 2598
um@@ 2597
平安 2597
硅@@ 2597
祭司 2597
冰箱 2596
过滤 2596
韩@@ 2596
肯@@ 2595
击败 2595
共同努力 2595
乌干达 2595
故@@ 2594
价钱 2594
脂 2594
银行家 2593
最快 2592
法则 2592
im@@ 2591
到期 2591
总之 2591
250 2590
单纯 2589
欧 2589
爬@@ 2588
00@@ 2588
极度 2588
行驶 2587
解析 2587
有名 2587
答@@ 2587
丰@@ 2587
新娘 2586
神奇 2586
〔 2586
总监 2586
土著 2586
体积 2585
氢@@ 2585
射击 2585
致电 2585
定量 2584
元件 2584
扣@@ 2584
镜头 2583
氮 2583
信息系统 2583
错@@ 2582
缝 2582
内存 2581
施加 2581
逊 2581
野生动物 2580
秋天 2580
中央@@ 2579
每人 2579
监@@ 2578
式@@ 2578
秋@@ 2577
殿 2575
酷刑 2575
壁@@ 2574
琼斯 2574
看不到 2573
脏 2573
眼光 2573
操作系统 2572
本发明 2572
童 2572
撤离 2572
物料 2572
初级 2571
起床 2570
急剧 2570
中午 2569
周五 2568
季@@ 2568
基准 2567
迎@@ 2567
小孩子 2566
废除 2566
误@@ 2565
二月 2565
阻@@ 2564
放射性 2563
王国 2563
祂 2562
举动 2562
获胜 2562
锅 2561
柄 2561
斗@@ 2560
朗 2560
赞助 2559
肺 2559
眼镜 2558
抵制 2558
成年 2557
生态系统 2556
会面 2556
功率 2556
话语 2555
狭窄 2555
姿态 2555
渣 2555
AR@@ 2555
桌 2555
赚钱 2555
新生 2554
一股 2554
赤字 2553
繁@@ 2553
没法 2553
大城市 2552
15@@ 2551
行人 2551
开启 2548
捐助者 2548
合伙人 2548
鸟儿 2547
搭@@ 2547
一口 2547
令@@ 2546
注@@ 2545
受访者 2544
经委 2544
秀 2542
疯 2542
世界杯 2542
废@@ 2541
冲动 2540
服务员 2540
补 2539
繁殖 2539
詹姆斯 2539
成像 2538
拜 2538
特设 2537
遣返 2537
ay@@ 2536
外观 2535
几何 2535
奖@@ 2535
坡 2535
康 2535
会同 2535
塞浦路斯 2535
所知 2534
电邮 2534
负债 2534
采 2533
描绘 2533
电脑@@ 2532
猜测 2531
嫁给 2531
轿车 2530
摩擦 2529
轴承 2529
打扰 2529
测试@@ 2529
申请书 2529
按时 2528
简介 2528
修正案 2527
建筑@@ 2526
布局 2523
中小企业 2523
son 2523
乘@@ 2522
白人 2522
用语 2522
首相 2521
补救 2521
固体 2521
敌 2520
街@@ 2520
劲 2520
笑容 2519
谎言 2519
骨头 2519
平常 2518
汇 2518
房价 2518
积极参与 2518
心理学 2517
不当 2515
分数 2515
催化剂 2514
吸 2514
零零 2514
此基础 2513
电视节目 2513
Al@@ 2513
李 2512
宁静 2512
尴尬 2512
快点 2512
主导 2512
健@@ 2511
景象 2511
湿地 2511
分成 2510
属@@ 2509
决赛 2509
午饭 2509
尿@@ 2507
销量 2507
澳洲 2506
84 2506
居然 2505
俄@@ 2505
汽车@@ 2504
尼亚 2504
正规 2504
舍@@ 2503
城堡 2503
恋 2503
GDP 2502
纵@@ 2502
诱惑 2502
某事 2501
折 2499
相关性 2499
频@@ 2498
宗@@ 2498
沿海 2497
薄@@ 2497
溶@@ 2497
影子 2496
演说 2496
哥@@ 2495
生态环境 2495
线索 2495
实地 2494
爱人 2494
前任 2493
前款 2493
从没 2492
我用 2492
去过 2492
不必要 2491
犹如 2491
音乐@@ 2491
习俗 2491
任职 2491
谋@@ 2490
烤 2490
摸 2490
一体 2489
椅 2489
社会保障 2489
势头 2489
雾 2488
星球 2488
局@@ 2486
预报 2485
条文 2485
滴 2484
阳@@ 2483
票@@ 2483
交货 2481
挤 2481
长者 2480
不起 2479
起初 2479
播@@ 2478
惨@@ 2478
委任 2478
刷 2477
参议院 2477
复杂性 2477
桥@@ 2476
长久 2476
浸@@ 2476
派对 2475
建模 2475
夜里 2475
整整 2475
v 2474
麦 2474
历史性 2474
依赖于 2472
半个 2472
亏损 2472
89 2472
家庭@@ 2471
16@@ 2471
一分钟 2471
童年 2471
用法 2471
用地 2470
原先 2470
跨国公司 2470
赤@@ 2469
留给 2469
警 2469
座@@ 2468
源于 2467
丹尼尔 2467
服务业 2466
一度 2466
常设 2466
即时 2465
多项 2465
是@@ 2465
辉煌 2464
裙子 2464
模板 2463
极了 2462
手上 2461
文化@@ 2458
外交部长 2458
子弹 2457
财@@ 2457
出租 2455
执政 2454
不容 2454
回事 2453
有何 2452
泰 2452
无知 2451
七个 2450
球场 2450
魔法 2450
所得税 2450
八月 2450
份额 2448
育@@ 2448
己 2447
索取 2447
不时 2447
菲 2446
安盟 2446
讯 2445
窝 2444
在场 2444
不出 2444
第二期 2444
就让 2443
凝@@ 2443
加深 2443
扩@@ 2443
腾 2443
被捕 2442
膨胀 2442
布置 2442
有意思 2442
传来 2442
论点 2442
赶上 2441
原材料 2441
选用 2440
冻结 2440
菌@@ 2440
吞@@ 2440
猪@@ 2438
大幅度 2438
裔 2437
跟随 2437
艺术@@ 2437
工作队 2437
收藏 2436
馀 2436
电视机 2436
遇 2436
汗 2435
蜡烛 2435
双语 2435
次序 2435
对称 2435
四川 2435
永不 2434
6.@@ 2433
疼 2432
总共 2432
听力 2432
非统组织 2432
梁@@ 2431
山上 2430
碰撞 2430
院长 2430
轻轻 2430
本土 2429
限期 2429
草原 2429
益@@ 2428
绳子 2428
浪@@ 2427
伏 2427
筛选 2427
模具 2427
逃跑 2426
肯尼亚 2426
封锁 2426
优美 2425
豪华 2425
评审 2425
军方 2425
理智 2424
记载 2424
弱点 2424
无可@@ 2423
Q@@ 2423
浓@@ 2423
可不是 2422
考生 2422
牛肉 2422
机票 2422
兼@@ 2421
一倍 2420
小镇 2420
用水 2420
课@@ 2420
大于 2420
转动 2420
耦合 2418
都市 2417
吁请 2417
树枝 2416
阵 2416
简短 2416
贾@@ 2416
躲 2414
大师 2414
滤@@ 2414
院@@ 2414
静脉 2413
搬@@ 2413
4.@@ 2413
第一章 2413
爷爷 2412
两倍 2411
洁净 2411
评级 2411
父@@ 2411
绩效 2411
效@@ 2411
价格@@ 2410
嘲笑 2409
乃是 2409
年间 2409
尾巴 2408
胺 2408
税率 2408
危及 2407
豆 2406
小伙子 2406
新建 2406
四分之一 2405
俗@@ 2405
营地 2404
威尔 2403
深处 2401
众所周知 2401
第三次 2401
结局 2399
铝@@ 2399
极限 2399
裁判 2398
径 2398
敲 2398
电梯 2398
候@@ 2398
伙计 2398
陶瓷 2397
to 2396
销毁 2396
漫@@ 2396
旗 2396
末@@ 2395
珍惜 2395
签发 2395
名额 2394
词语 2393
多元化 2393
交叉 2393
原油 2393
岁月 2393
点燃 2393
开办 2393
管理系统 2392
Ma@@ 2392
志愿 2391
荣@@ 2391
算是 2390
熔@@ 2390
管理层 2390
摩托车 2389
闪@@ 2388
患有 2388
学期 2388
纹 2387
弟兄 2387
火山 2387
人能 2387
决定性 2387
此刻 2386
攻@@ 2386
颇 2386
两岸 2386
项@@ 2386
新疆 2386
讯息 2385
过时 2385
报复 2384
储@@ 2384
责备 2383
婚 2383
5.@@ 2382
医 2380
op@@ 2380
腰 2380
挑@@ 2379
困惑 2379
减小 2379
倾斜 2379
隔 2379
肥@@ 2378
浅 2378
先后 2378
一代 2377
仍旧 2377
截@@ 2377
火星 2377
撞@@ 2377
歌唱 2376
纳米 2376
登上 2376
保加利亚 2376
砖 2375
尺 2375
气温 2374
汤@@ 2374
碰@@ 2374
好消息 2374
帕 2374
硬币 2374
推销 2374
紧缩 2374
视角 2373
远处 2373
盘子 2373
妇 2373
棉@@ 2373
搞@@ 2372
CD 2372
长得 2372
不符 2371
可不 2371
找个 2371
下周 2371
犹大 2371
四处 2370
欧元区 2370
许@@ 2369
拔@@ 2369
科研 2369
裁@@ 2367
签@@ 2367
超市 2366
枪支 2366
采矿 2366
织物 2365
币 2365
树立 2365
教导 2365
卫生组织 2365
假装 2364
岩@@ 2364
同期 2364
信息技术 2364
怒@@ 2364
混 2362
历@@ 2362
魔鬼 2361
崇拜 2360
对照 2359
侵害 2359
树上 2358
心理@@ 2358
收拾 2357
导演 2357
潜@@ 2357
原有 2356
糟 2355
比如说 2355
篮球 2354
简历 2354
稍微 2354
商学院 2353
砂@@ 2353
同行 2353
跑步 2353
地毯 2352
蜂@@ 2352
薄膜 2352
儿@@ 2352
导航 2351
CT 2351
职@@ 2351
留意 2350
券 2350
西班牙语 2350
扫@@ 2349
许 2349
推翻 2349
走私 2349
嗨 2349
福特 2348
炉@@ 2348
大致 2348
前所未有 2348
恤金 2348
何 2346
积 2345
民族@@ 2345
接纳 2345
多人 2343
举止 2343
裤子 2342
不确定性 2342
伪造 2342
范@@ 2342
视图 2341
没想到 2341
阵线 2341
叶子 2340
丝毫 2340
罪@@ 2340
销@@ 2339
腰@@ 2338
好看 2337
想像 2336
东欧 2336
稳 2335
少女 2335
身材 2334
酯 2333
占用 2332
好莱坞 2331
平方米 2331
盆地 2330
会计师 2330
沉积 2329
谷@@ 2328
这本 2328
深圳 2328
注定 2327
太好了 2327
雨水 2326
大臣 2326
认 2325
带走 2324
画家 2323
肠 2323
产品@@ 2323
流体 2323
信赖 2322
九年 2322
开来 2322
元首 2322
北京@@ 2321
扫雷 2321
手工 2320
同志 2320
坏@@ 2320
篇文章 2320
作文 2320
欧安会 2320
验@@ 2319
ap@@ 2319
析 2318
出血 2318
买家 2317
好奇 2317
穿越 2316
北约 2315
印尼 2315
稀@@ 2314
疑@@ 2314
et 2314
依旧 2313
以防 2313
抢劫 2313
广泛应用 2313
休闲 2312
渗透 2312
知名 2312
总量 2311
情人 2311
胜@@ 2310
肺@@ 2309
征服 2309
抵 2309
地产 2309
复议 2309
野生 2308
宫@@ 2308
氧@@ 2308
戒指 2307
断裂 2306
英国@@ 2306
庇护 2306
预言 2305
月底 2305
拨@@ 2304
生涯 2304
贝尔 2303
迄今为止 2303
霜 2302
讽刺 2302
格林 2301
诉 2301
败@@ 2301
早日 2301
脉 2300
发了 2299
氯@@ 2299
净@@ 2299
带上 2298
党派 2298
似 2297
头部 2297
棕色 2297
兴 2297
旁@@ 2296
挣扎 2296
可否 2296
引 2296
佳@@ 2295
议案 2295
去除 2295
平稳 2295
更具 2294
事务所 2294
长官 2293
高盛 2293
汇票 2293
比利时 2293
消化 2292
逃离 2292
译@@ 2291
骂 2290
漆 2290
增幅 2290
创立 2288
生境 2288
标识 2287
胸 2287
大选 2287
涨 2286
簿 2286
转身 2286
合伙 2286
缩 2285
涂 2284
嘴唇 2284
挖@@ 2284
08 2284
隆@@ 2283
赴 2283
it 2282
钢琴 2281
兹@@ 2281
最少 2281
贵族 2280
申@@ 2280
改革开放 2280
后代 2279
真空 2279
家属 2279
佣金 2279
天线 2278
给@@ 2276
与会者 2276
收音机 2274
宿舍 2274
闲@@ 2273
世人 2273
劳 2273
擅长 2273
流域 2273
驻@@ 2273
蒸汽 2272
产品质量 2272
景色 2272
先知 2272
二年 2272
预约 2271
哀@@ 2271
置于 2271
锦@@ 2270
身子 2269
耗@@ 2269
枝 2269
迈@@ 2269
甜 2268
内战 2268
身后 2267
07 2267
开幕 2267
刑 2267
伤亡 2267
中国共产党 2267
托管 2267
花钱 2266
配件 2266
单击 2266
塑造 2266
兔子 2266
制服 2266
让步 2265
通报 2265
泉 2264
溶液 2264
高质量 2264
人选 2264
返@@ 2264
熟@@ 2262
解散 2262
旅费 2261
美利坚合众国 2261
益处 2260
特有 2260
抛@@ 2260
ul@@ 2260
齿轮 2259
书写 2259
日后 2259
继@@ 2258
牌@@ 2258
枝@@ 2258
1987 2258
高管 2258
数字@@ 2257
麦凯恩 2257
柏@@ 2257
此举 2256
崇高 2256
十一月 2256
跟@@ 2255
膏 2255
联赛 2255
营运 2255
相互作用 2254
发光 2254
还给 2253
督察 2253
受过 2252
姿势 2252
肥 2252
鹿 2251
缺 2250
走开 2250
冰淇淋 2249
上方 2249
放入 2248
实习 2248
恋爱 2248
一枚 2248
一封 2247
葬 2246
信誉 2246
东帝汶 2245
途中 2244
第五章 2244
赶 2243
飞行员 2243
巨人 2243
源@@ 2243
名人 2242
突尼斯 2242
光纤 2242
the 2242
并发症 2241
拆@@ 2241
13@@ 2241
望@@ 2241
放心 2240
快要 2240
猴子 2240
单身 2240
石油@@ 2240
放大 2239
非政府 2238
厚度 2237
ak@@ 2237
鲍@@ 2236
碗 2235
犯下 2235
暖@@ 2234
深远 2233
俄国 2233
减缓 2233
掩盖 2232
余 2232
键盘 2231
硅 2231
视野 2230
示例 2230
海盗 2230
率@@ 2230
三分之二 2230
本级 2230
似@@ 2229
第一条 2229
刊 2228
彩色 2228
继 2228
协同 2228
配方 2227
罚 2227
挖 2226
od@@ 2226
重新@@ 2226
息@@ 2225
档 2225
纸张 2225
教科文组织 2225
指明 2224
颗 2224
』 2222
丙@@ 2221
卡拉 2221
摩洛哥 2221
对外贸易 2220
失效 2220
全国人民代表大会常务委员会 2220
神话 2219
红外 2219
罪恶 2218
宿@@ 2218
换句话说 2217
住宿 2216
扭转 2216
巡@@ 2216
院子 2215
An@@ 2215
配额 2215
一再 2215
暗 2215
局局长 2215
园@@ 2214
握 2214
油田 2214
频道 2214
剧院 2214
林业 2213
藉 2212
第六 2212
跌@@ 2212
AC 2212
遏制 2211
不动 2211
住所 2210
诊所 2210
嘉宾 2210
情愿 2209
毛病 2209
出门 2209
圆形 2207
便于 2207
概括 2207
星期日 2207
发票 2207
中止 2206
艾伦 2205
酮 2205
埃塞俄比亚 2205
泪@@ 2204
光谱 2203
更高 2203
萧条 2202
美味 2202
一刻 2202
跨越 2202
难度 2201
仰@@ 2201
弦 2200
忍 2200
放进 2199
增添 2199
另@@ 2199
员@@ 2199
06 2199
qu@@ 2198
女生 2198
案@@ 2198
区域性 2198
忠实 2198
很棒 2197
相连 2197
匈牙利 2197
打断 2196
厕所 2195
俄 2195
联邦政府 2195
把@@ 2195
征聘 2195
小鼠 2193
替换 2192
最具 2192
耕地 2192
Add 2192
不已 2191
饿 2191
彩 2191
空缺 2191
关上 2190
无比 2190
犯人 2190
字典 2190
火炬 2189
了不起 2189
增 2189
得分 2188
虎 2188
交际 2186
狂 2186
肩@@ 2186
偶@@ 2186
改组 2186
直线 2185
准时 2185
人口@@ 2185
编程 2184
葡萄 2184
打发 2184
论证 2182
大道 2181
输 2181
网格 2181
退化 2181
辞 2180
面孔 2179
哪怕 2178
因特网 2178
凡是 2177
过得 2177
尔德 2177
偶像 2177
虑 2177
磨损 2175
烂 2175
佐@@ 2175
额@@ 2175
一整天 2174
公共@@ 2174
大纲 2174
沙发 2173
大笑 2173
燃@@ 2172
12@@ 2172
取出 2171
艾 2171
盖茨 2171
金色 2171
当成 2170
泄漏 2170
悲惨 2170
戒@@ 2170
电子商务 2169
7.@@ 2169
专业@@ 2169
非凡 2168
预料 2167
全民 2167
互利 2167
有期徒刑 2167
阶级 2166
发酵 2166
角落 2165
愿@@ 2165
唯@@ 2165
练 2165
评 2165
敏 2164
章程 2164
嫉妒 2163
东道国 2163
一艘 2163
续 2162
从句 2162
脾气 2162
强壮 2162
坟墓 2162
段时间 2162
累积 2161
闻名 2160
仇恨 2160
相互@@ 2160
发作 2159
厂商 2159
列举 2158
炮 2158
屠杀 2158
中国人民银行 2158
柔软 2157
潮湿 2157
竹@@ 2157
鲜花 2156
资本主义 2156
一首 2156
学员 2156
水质 2156
兑换 2156
第三方 2156
一路 2155
酱 2155
乌拉圭 2155
手法 2154
唱片 2153
著作 2152
肠@@ 2150
逐@@ 2150
救灾 2150
统@@ 2149
默认 2149
丑闻 2149
锌 2149
供水 2148
标准化 2148
印发 2148
售 2147
所能 2147
已知 2147
孤立 2147
伦理 2146
鼓 2146
格局 2146
ing@@ 2145
服@@ 2145
单个 2145
钟@@ 2145
肌 2145
当初 2145
创伤 2145
鸟@@ 2144
录像 2144
填补 2143
借助 2142
岗位 2140
骑@@ 2140
本能 2140
脂@@ 2140
大人 2140
询 2140
杀人 2140
嘴里 2139
挫折 2139
同性恋 2138
大事 2138
准许 2137
外套 2136
尺度 2136
友@@ 2136
乐器 2136
受损 2135
蛋@@ 2135
抽象 2135
ov@@ 2135
录@@ 2135
窗@@ 2134
连同 2134
问问 2133
废水 2133
吐 2133
股@@ 2132
新增 2132
介@@ 2132
停车场 2131
杯子 2131
法律@@ 2131
焦@@ 2130
现代@@ 2130
分担 2130
龄 2130
第四次 2130
地狱 2129
钱包 2129
经济衰退 2129
绘制 2129
起飞 2129
手表 2128
显而易见 2128
祖先 2128
开罗 2128
抹 2127
溜@@ 2127
毫无@@ 2127
静态 2127
鹰 2127
诚@@ 2127
缘故 2127
山谷 2126
香烟 2126
上校 2126
残忍 2125
播 2124
市中心 2124
肚子 2124
Bank 2124
us 2124
特遣队 2124
商品@@ 2123
宽容 2122
人性 2122
州长 2121
载体 2121
空白 2121
近日 2121
液压 2120
预见 2120
最有 2120
字符串 2120
招 2119
暴风雨 2119
两大 2119
会费 2119
微小 2118
邮政局 2118
无意 2117
斑@@ 2117
艰巨 2117
辈 2116
避开 2116
巡逻 2116
停车 2116
报名 2116
孙@@ 2115
约翰逊 2115
不成 2114
老虎 2114
瓶子 2114
富人 2114
灵感 2113
学费 2113
巨头 2113
越过 2113
技术人员 2113
灾 2112
晶体 2112
州@@ 2112
妻 2112
代谢 2111
打扮 2111
免受 2111
词典 2111
净化 2111
抢 2111
这片 2110
瘦@@ 2109
人民检察院 2109
姐妹 2108
床@@ 2108
船员 2108
百分点 2108
克隆 2108
起源 2107
第三条 2107
符 2106
染 2106
推理 2106
04 2105
核实 2105
望远镜 2104
出国 2104
设在 2104
傻 2103
可惜 2103
不止 2103
并购 2103
年初 2103
样式 2103
逼 2102
痕迹 2102
聘用 2102
肌@@ 2101
铅 2101
卡片 2101
不应 2099
平均@@ 2099
雅各 2099
期刊 2098
分手 2097
伙伴关系 2097
来信 2097
不予 2097
开列 2097
著@@ 2096
山区 2095
部份 2095
事儿 2095
ation 2095
绑架 2095
出台 2094
砂 2094
沃 2094
桑 2093
负面 2093
间隔 2093
姓 2093
暂@@ 2092
门徒 2091
延期 2091
男朋友 2091
获悉 2091
阿塞拜疆 2091
弥@@ 2090
应变 2090
预备 2089
判 2089
墙壁 2088
稳@@ 2088
不可思议 2088
手套 2088
顺便 2088
干活 2088
凶@@ 2087
行程 2087
移交 2087
兴建 2085
at 2085
顾@@ 2085
琴 2085
钩 2084
这边 2084
希尔 2084
好几个 2084
漏@@ 2083
轮胎 2083
健身 2083
09 2083
领导者 2082
科学研究 2082
第九条 2082
稍 2081
5000 2081
匆匆 2081
邮局 2081
il 2081
民政 2081
顶部 2080
开头 2080
王后 2080
男士 2079
认出 2079
定于 2079
低估 2079
1985 2079
缔约 2079
网球 2078
供应链 2078
旅@@ 2078
东盟 2078
定居 2078
裂缝 2077
郊区 2077
证明书 2077
有效期 2077
随之 2076
包围 2076
涉嫌 2076
自由化 2076
来文 2076
埋@@ 2075
矿产资源 2075
脚步 2075
地表 2074
闹 2074
眼里 2074
撰写 2074
内向 2074
珠@@ 2074
灿烂 2074
锡@@ 2074
海湾 2073
规约 2073
迁@@ 2073
道德@@ 2073
中说 2073
映射 2072
禁运 2072
第六条 2072
商场 2071
多余 2071
杰夫 2071
谘 2071
站点 2070
充分利用 2070
肌肤 2069
革新 2069
声誉 2069
损 2069
虎@@ 2069
热线 2069
塑@@ 2068
确@@ 2068
兑 2068
多大 2068
花园里 2067
山顶 2067
回避 2066
配套 2066
祖父 2066
01 2065
尽管如此 2065
留下来 2065
兴起 2065
亦可 2065
心态 2064
亚美尼亚 2064
被动 2063
干嘛 2063
坚固 2062
扭曲 2062
净额 2062
客厅 2061
运动@@ 2061
战术 2061
坎@@ 2061
物价 2061
武装部队 2061
罢了 2060
同伴 2060
子孙 2060
家禽 2060
家务 2060
晚饭 2060
助手 2059
诚信 2059
一辈子 2058
膝盖 2058
说谎 2058
毫米 2057
时会 2057
缓和 2057
一下子 2056
保护@@ 2056
免 2056
恐慌 2055
飓风 2055
有待 2055
奉献 2054
壮@@ 2053
借贷 2053
柜台 2053
不定 2053
答道 2053
医药 2052
半小时 2052
衫 2051
锡 2051
军事@@ 2051
晶 2050
上年 2050
判@@ 2049
启示 2049
第二十@@ 2049
珠宝 2048
站@@ 2048
几点 2048
政客 2048
深受 2048
『 2048
礼品 2048
队长 2047
初始 2047
欺诈 2047
社@@ 2047
驻地 2047
亲戚 2046
相机 2046
侵蚀 2046
第二条 2046
分支 2045
狂热 2045
做过 2045
智利 2045
保管 2045
摩根士丹利 2045
终身 2044
详尽 2043
福音 2043
＊ 2043
赌博 2042
岭 2042
经由 2042
改良 2041
性感 2040
右边 2040
果实 2040
不顾 2040
苏珊 2039
电网 2039
全力 2039
尿 2038
杰克逊 2038
成形 2037
刊物 2037
裁减 2037
排斥 2035
农夫 2035
头痛 2034
视力 2034
功 2034
内外 2033
冬@@ 2032
寻常 2032
两条 2032
六十@@ 2032
II 2031
并用 2030
茎 2029
争夺 2029
地中海 2029
投资@@ 2029
妙@@ 2028
外资 2028
荒@@ 2028
采纳 2028
化石 2028
袭 2026
祖母 2026
益 2026
架@@ 2025
口味 2025
选票 2025
百分比 2024
发觉 2024
辞@@ 2024
零售商 2024
毁坏 2023
AS@@ 2023
酌情 2023
既有 2022
赶到 2022
man 2022
困@@ 2021
束缚 2021
商务部 2021
计算机@@ 2020
拆除 2019
古怪 2018
盆 2018
强制性 2018
疏@@ 2018
褐色 2017
1986 2017
表达式 2017
IT 2016
治愈 2016
大夫 2016
候 2015
鸣@@ 2015
票据 2015
胖 2014
发电机 2013
创造力 2013
贩卖 2013
肝@@ 2012
器件 2012
萨尔瓦多 2012
阿尔巴尼亚 2012
瑟 2011
财务@@ 2010
第五条 2010
咨 2010
指向 2009
二百@@ 2009
不明 2009
售价 2008
最长 2007
委内瑞拉 2007
休假 2006
柱@@ 2006
玻璃@@ 2006
邻近 2006
圈@@ 2006
二十 2006
祖@@ 2005
车上 2005
二十年 2004
减弱 2004
不清 2004
德尔 2004
倘若 2003
奔@@ 2002
延误 2002
迈出 2002
蚀 2001
饭@@ 2001
宾馆 2000
雅典 2000
名声 1999
电极 1999
110 1999
豪@@ 1999
玩耍 1999
分析方法 1999
气象@@ 1998
ine 1998
余额 1998
木头 1997
剩 1997
驱逐 1997
经济效益 1997
无须 1997
踩 1997
多元 1996
十五日 1996
变暖 1995
照料 1995
妥善 1995
造型 1994
弃 1993
诱导 1993
穷@@ 1993
职业@@ 1992
动画 1992
叶片 1992
激活 1991
马路 1991
熊@@ 1990
推测 1990
频 1990
外语 1990
函 1990
瞬间 1989
终结 1989
主教 1989
咬@@ 1988
清晨 1988
有罪 1988
厌倦 1988
无害 1987
仍@@ 1987
负载 1987
具体@@ 1987
生动 1987
水管 1987
全是 1987
主管机关 1986
所致 1985
业务@@ 1985
发言者 1985
既@@ 1984
看成 1984
螺旋 1984
发展趋势 1984
危地马拉 1984
演示 1984
没能 1983
计算方法 1983
地向 1982
注释 1982
信息化 1982
缴付 1982
Q 1981
信封 1980
这套 1980
融@@ 1980
开枪 1980
降临 1980
照明 1979
样@@ 1979
幕@@ 1979
灾区 1979
尼加拉瓜 1979
抵消 1979
水手 1978
门外 1977
不锈钢 1977
东亚 1977
外交@@ 1977
一堆 1977
覆@@ 1976
中毒 1976
经济危机 1976
但愿 1976
念头 1975
延 1975
上司 1975
预警 1975
祝愿 1974
研究成果 1974
出差 1974
最高法院 1973
铭记 1973
摇 1973
身旁 1973
中欧 1972
与否 1971
礼拜 1971
问候 1970
低温 1970
外科 1970
难以置信 1970
筹集 1969
经纪人 1969
和服 1969
粗 1967
AT@@ 1967
熟练 1967
利物浦 1966
段落 1966
反抗 1966
It 1966
惊喜 1965
民警 1965
民族自治 1965
见解 1964
病变 1964
关怀 1964
旗下 1964
微波 1963
高科技 1963
摄@@ 1962
勉强 1962
回国 1962
这台 1962
ge 1962
ell 1962
坦 1961
称呼 1961
账 1961
上限 1961
责 1961
ow@@ 1960
吸附 1960
av@@ 1960
休 1960
亲切 1959
年级 1959
哈里 1959
防范 1958
扣除 1958
时说 1958
水道 1957
责任人员 1957
期货 1956
佳 1956
判处 1956
来源于 1955
念@@ 1955
警报 1955
胜任 1955
中将 1955
近东 1955
小偷 1954
一员 1954
申 1954
电报 1953
高血压 1953
涂料 1953
血压 1953
勤奋 1953
教材 1953
贪@@ 1952
压迫 1952
擅自 1952
凸@@ 1951
几率 1951
ry 1951
花朵 1951
新华社 1951
总署 1951
不易 1950
数学模型 1950
离职 1950
昏@@ 1950
胜过 1949
口气 1949
固有 1949
漏 1949
02 1949
老是 1949
扎伊尔 1949
打败 1947
假日 1947
炼@@ 1946
始 1946
积分 1946
胎 1945
复合材料 1945
敬 1945
爆@@ 1945
这辆 1945
空军 1945
磨 1945
勤@@ 1945
型号 1944
导向 1944
界限 1944
矮 1943
溶剂 1943
发病 1943
浪 1943
货车 1943
珍妮 1943
ard 1943
细则 1943
渔@@ 1942
饮酒 1942
贯彻 1942
定制 1941
外长 1941
修饰 1940
巨额 1940
选择性 1939
财物 1939
挥@@ 1939
旗@@ 1939
燃油 1938
不同于 1938
第一天 1938
葛@@ 1937
不堪 1937
著作权 1936
干细胞 1936
备份 1936
组建 1936
美德 1935
下调 1935
织@@ 1935
崭新 1935
太大 1935
Web 1934
血清 1934
盗@@ 1934
现任 1934
一致性 1934
状@@ 1934
艺 1933
法国人 1933
牲畜 1933
ey 1933
郑@@ 1933
访 1932
推导 1932
怎 1931
有效率 1931
1.5 1930
医师 1929
国有企业 1929
二次 1928
确 1928
扑@@ 1928
目睹 1927
海域 1927
垄断 1927
好人 1927
脏@@ 1926
敏@@ 1926
精英 1926
违约 1926
人文 1926
充实 1925
z 1925
泽@@ 1925
切除 1925
高出 1925
胡子 1925
绕@@ 1924
升起 1924
阿尔及利亚 1924
伪@@ 1923
一流 1923
紫色 1923
加密 1923
查理 1923
第四条 1923
辅导 1922
人间 1922
永久性 1922
神经网络 1922
事务处 1922
震动 1921
比较@@ 1921
十五 1921
顿@@ 1921
炸@@ 1921
起点 1921
想念 1921
缓@@ 1920
左边 1920
忙碌 1919
默 1919
怀 1919
申请表 1919
贬值 1918
评定 1918
积极@@ 1918
面部 1918
骑士 1917
后期 1917
国债 1917
出示 1916
集中@@ 1916
中是 1916
邮寄 1916
整 1915
气息 1915
世界卫生组织 1915
青蛙 1915
密集 1915
宜 1913
钠 1913
有序 1913
开门 1913
控告 1912
有过 1912
米兰 1912
开辟 1912
全国性 1912
恶心 1911
岛上 1911
堆@@ 1911
解答 1911
动摇 1911
丧生 1911
鉴别 1910
一是 1910
它@@ 1909
有机@@ 1909
司@@ 1909
某种程度 1909
娅 1909
胎儿 1909
输送 1908
异议 1908
平原 1908
侮辱 1907
油气 1907
税款 1907
比起 1906
蒸@@ 1906
启用 1906
离去 1906
舌头 1905
勾@@ 1905
听从 1905
隐私 1905
03 1905
乏味 1904
跃@@ 1904
怎么回事 1904
广告@@ 1903
禁令 1903
累计 1903
未知 1902
榜样 1902
银行@@ 1902
赶快 1901
钓鱼 1901
钻 1901
饮 1901
Ar@@ 1901
狼@@ 1900
污@@ 1899
宾@@ 1899
上空 1899
好转 1899
毁灭性 1899
正直 1898
挽救 1897
无条件 1897
芋 1897
糖果 1896
泡@@ 1895
海边 1895
加重 1894
飙升 1894
火车站 1894
召集 1894
核算 1894
搜集 1893
反恐 1893
棉 1891
倡导 1891
弗兰克 1890
审美 1890
销售额 1890
强奸 1890
听听 1889
欣@@ 1889
专门知识 1889
行政处分 1889
不服 1888
嫩 1888
华丽 1887
第一位 1887
准确性 1887
均@@ 1886
约束力 1886
惹 1886
一丝 1886
续@@ 1885
通向 1885
奈@@ 1885
重返 1885
那座 1885
繁忙 1884
东南亚 1884
小册子 1884
1978 1883
本合同 1883
程序@@ 1882
深切 1881
路面 1881
起身 1881
切尔西 1881
不曾 1880
缸 1880
儿女 1879
阴谋 1879
意味 1879
恐怖分子 1879
向下 1878
考核 1878
淀粉 1877
专辑 1877
打扫 1877
期满 1877
养成 1876
装配 1876
凯瑟琳 1876
扶持 1876
今天下午 1875
该死 1875
处理器 1875
效能 1875
勤 1875
成型 1875
抑郁 1875
纽@@ 1874
厨师 1874
误 1874
斜 1874
当日 1873
有限元 1872
遮@@ 1872
警官 1872
摘@@ 1872
不足以 1872
毒性 1871
间谍 1871
费率 1871
售@@ 1871
自私 1870
棉花 1869
鸟类 1869
瑟@@ 1869
纺织 1869
羽毛 1868
引人注目 1868
题@@ 1868
齿@@ 1867
职业生涯 1867
眼下 1867
营养@@ 1867
本项 1867
死者 1866
罗马尼亚 1866
大使馆 1866
温家宝 1866
郡 1865
澳门特别行政区 1865
浪费时间 1864
拒@@ 1864
字体 1863
专 1862
am 1862
会议室 1861
武 1861
查找 1861
综合性 1861
辊 1860
穷 1860
狐狸 1860
统筹 1860
囊@@ 1859
研究员 1859
箭 1859
行径 1859
第八@@ 1858
并处 1858
棒球 1857
哲学家 1857
第四十九届 1857
防守 1856
按摩 1856
租用 1856
咳嗽 1856
不算 1856
孟加拉国 1856
蜜蜂 1855
反弹 1855
概率 1855
谋 1855
Inc 1855
追究 1855
存活 1854
ev@@ 1854
书店 1854
高峰 1854
晕@@ 1854
养护 1854
淘汰 1853
烈@@ 1852
拉斯 1851
直觉 1851
营造 1851
肾@@ 1851
国旗 1851
构@@ 1850
数年 1850
窗外 1850
冬 1850
肘 1850
货运 1850
文件夹 1850
涉@@ 1850
比重 1849
氛围 1849
庄严 1848
感知 1848
爱沙尼亚 1848
分化 1847
海里 1847
波特 1847
野蛮 1847
平行 1846
接管 1846
知情 1846
调度 1846
约旦 1846
解决办法 1845
变异 1844
ub@@ 1844
自然资源 1844
猛烈 1844
终端 1844
一棵 1844
抽 1844
一般来说 1843
经营@@ 1843
浏览器 1843
傻瓜 1842
未曾 1842
欢呼 1842
顾 1842
几位 1842
凯特 1841
魔 1841
调试 1841
130 1841
哇 1840
非常高兴 1840
ud@@ 1840
部长级 1840
辛苦 1839
卵@@ 1839
苯@@ 1839
宽度 1839
力气 1839
阀门 1839
烹饪 1839
户@@ 1839
2.5 1839
泄露 1838
直径 1838
氮@@ 1838
语气 1838
箱@@ 1837
饲料 1837
捐@@ 1837
意识形态 1837
忍@@ 1836
沙滩 1836
秋 1836
柏林 1836
容许 1836
器材 1835
膜@@ 1835
出具 1835
崛起 1835
宽恕 1835
议事 1835
香味 1834
日记 1834
缓 1833
回头 1833
瓜 1833
多长时间 1833
动用 1833
苗 1833
尼克 1833
身分 1832
与众不同 1831
大豆 1831
杨 1831
贿赂 1831
好吃 1831
昂@@ 1831
外层空间 1831
历程 1830
实物 1830
测验 1830
指派 1830
通风 1829
深感 1829
脚本 1829
微型 1829
塔吉克斯坦 1829
滑雪 1828
管理工作 1828
腹 1827
大象 1827
绅士 1827
中药 1827
仁 1827
告别 1827
生于 1827
良心 1827
规@@ 1826
副作用 1825
弱@@ 1825
泥土 1825
联想 1825
午@@ 1825
除此之外 1825
烈 1824
焊@@ 1824
主持人 1824
淡 1823
填充 1823
奶酪 1823
传统@@ 1823
津巴布韦 1823
第七条 1823
容纳 1822
有望 1822
难得 1822
第八条 1822
泽 1821
笔者 1821
巧妙 1821
获益 1821
乃至 1821
校正 1821
简报 1821
这篇 1820
天下 1820
户外 1819
Group 1819
支架 1819
醉 1819
宗教信仰 1819
树叶 1818
估算 1817
纱 1816
小船 1816
停下 1816
聚合物 1816
呼叫 1816
构想 1816
淋@@ 1816
高新技术 1816
何处 1816
执行@@ 1816
屑 1815
野 1815
充分@@ 1815
阵@@ 1815
半岛 1814
竭力 1814
鼠标 1814
宝石 1814
核能 1814
承办 1814
林肯 1813
墙@@ 1813
10.@@ 1813
泪 1813
情节严重 1813
享用 1812
不合 1811
天天 1811
很强 1811
谨@@ 1811
抬头 1811
帐篷 1810
显现 1810
干事 1810
现已 1810
空气污染 1810
美的 1809
夸@@ 1809
多方面 1809
航天 1809
艺术品 1808
脚下 1808
司法@@ 1808
精密 1808
供电 1806
补助 1806
奔 1806
裂@@ 1806
密切相关 1806
资深 1806
运费 1805
电器 1805
车间 1805
小事 1804
鸣 1804
羊毛 1804
戏@@ 1804
舆论 1804
细胞@@ 1803
激起 1803
拘@@ 1802
幽@@ 1802
开出 1802
夺@@ 1801
卧@@ 1801
爱心 1801
邻@@ 1801
房委会 1801
终 1800
罢 1800
多媒体 1800
og@@ 1799
ers 1799
献@@ 1799
废料 1799
外资企业 1798
肿 1797
递给 1797
法郎 1797
切割 1796
水下 1795
瓜@@ 1795
二者 1795
仿@@ 1795
参加者 1795
民主化 1794
挑 1794
乃 1793
交互 1792
电影院 1792
实证 1792
凭借 1792
遥感 1792
斯特@@ 1791
演化 1791
第十九条 1791
赐给 1790
完毕 1790
鲜明 1789
降落 1789
经济社会 1789
同类 1788
再生能源 1788
不许 1787
柴油 1787
赛事 1787
乐于 1786
棘手 1786
女友 1786
陌生 1786
精心 1785
复活 1785
未成年人 1785
尼泊尔 1785
位移 1784
闭 1784
身为 1784
乙方 1784
追 1783
潘@@ 1783
悬挂 1783
晒 1783
经受 1783
24@@ 1782
轮廓 1782
定罪 1782
务实 1781
悲哀 1781
序 1781
美军 1781
约瑟 1781
第十四条 1781
里斯 1780
瘦 1780
电子地图 1780
洞@@ 1779
拥@@ 1779
全年 1779
oc@@ 1779
肉类 1778
eg@@ 1778
乳 1778
序言 1778
黛@@ 1777
贪婪 1776
凉 1776
前者 1776
粮 1776
惟一 1776
尽头 1775
最优 1775
医学@@ 1775
人心 1774
光芒 1774
清算 1774
调控 1773
理查德 1773
磷 1772
亲属 1772
届满 1772
灌溉 1772
洋 1771
Car@@ 1771
秘鲁 1771
AN@@ 1771
山羊 1771
排队 1771
标准@@ 1771
牧@@ 1770
刑罚 1770
装运 1770
城市@@ 1770
川 1770
典礼 1769
支柱 1769
卖掉 1769
湾仔 1769
链@@ 1768
病理 1768
不懈 1768
生产者 1768
没关系 1767
分泌 1767
电话@@ 1767
抱@@ 1767
情人节 1766
卖出 1766
俗 1766
汉堡 1766
精灵 1766
处理@@ 1766
摩根 1766
陈 1766
握手 1765
甜蜜 1765
撕@@ 1765
食品@@ 1765
CA@@ 1764
有助 1764
寂寞 1764
众议院 1764
消毒 1763
擦@@ 1763
反对派 1763
渐@@ 1762
商会 1762
全家 1762
注明 1762
港币 1762
兼职 1761
痕 1761
队@@ 1761
滚 1760
巴格达 1760
首领 1760
客户端 1760
聘请 1760
案子 1760
扯 1759
诚意 1759
投资银行 1759
量化 1758
鼻 1758
说明书 1758
第六章 1758
右手 1757
偶 1757
来回 1757
屋子里 1757
族裔 1757
Co 1757
惹@@ 1755
决策者 1755
携手 1755
塔利班 1755
多名 1755
撤回 1754
佛教 1754
股本 1754
爆 1754
se 1754
大雨 1753
克制 1753
开拓 1752
愈 1752
骚扰 1751
网址 1750
过高 1750
陷 1750
门前 1750
登录 1749
伯格 1748
美食 1748
今 1748
好运 1747
坦克 1747
一小 1747
之情 1747
信中 1747
相符 1747
蝴蝶 1747
线程 1747
路边 1747
七条 1747
凌@@ 1746
模特 1746
童@@ 1746
ent@@ 1746
帐@@ 1746
撒谎 1745
打死 1745
照亮 1744
妇@@ 1744
don 1744
男孩子 1743
合法性 1743
偿 1743
三十 1743
涌@@ 1742
盼望 1742
企业@@ 1742
烂@@ 1742
匆忙 1741
冰岛 1741
老化 1741
内阁 1741
不禁 1741
主机 1741
请参阅 1741
雕刻 1740
公司@@ 1740
不远 1740
sp@@ 1740
全国人大常委会 1740
捍卫 1739
金融体系 1738
In@@ 1738
闪电 1737
地形 1737
冠@@ 1737
社会福利 1737
出自 1737
27@@ 1737
掌@@ 1736
匠 1736
身体健康 1736
孕妇 1736
勃@@ 1735
扰乱 1735
发售 1734
必定 1733
喜 1733
踏@@ 1733
布莱尔 1733
Fed 1733
借给 1732
公共卫生 1732
China 1732
海伦 1731
适度 1731
仙@@ 1731
上下文 1730
笑声 1730
减低 1730
﹐ 1730
抛 1730
安娜 1729
舌 1729
入睡 1729
莲 1729
驱@@ 1729
首歌 1729
芯 1729
人工@@ 1728
1984 1728
单方面 1728
一夜 1728
八个 1728
切断 1727
急需 1727
黑夜 1727
受害人 1727
胡锦涛 1727
卫生署 1727
酚 1726
简便 1726
厘米 1726
须@@ 1725
微观 1725
飞船 1725
外空 1725
出境 1725
照射 1724
拟@@ 1724
希拉里 1724
瓶@@ 1724
敏捷 1724
司长 1724
光滑 1723
在意 1723
日至 1723
第十条 1723
自我@@ 1722
自动@@ 1722
地下水 1722
充当 1722
捕获 1722
ic 1722
洁 1721
心理学家 1721
荣 1720
爱国 1720
脸色 1720
破碎 1720
淹没 1720
态@@ 1719
疾@@ 1719
剧烈 1719
重大@@ 1719
展出 1719
搅拌 1719
办事 1719
母语 1719
营业执照 1719
总务 1719
减灾 1718
IN@@ 1718
保卫 1717
届时 1717
涨@@ 1717
接种 1716
阻力 1716
触 1716
免除 1716
台阶 1716
习 1716
三国 1716
反倾销 1716
沟@@ 1715
宾 1715
广东 1715
二人 1715
纪 1715
缝@@ 1714
学历 1714
闹@@ 1713
谷物 1713
稍后 1712
恒星 1712
人造 1712
商界 1712
暖和 1711
水流 1711
迟 1711
廊 1711
艺@@ 1711
附上 1711
预示 1710
微妙 1710
培@@ 1710
过渡时期 1710
玉 1709
高昂 1709
疟疾 1708
一连串 1708
近代 1708
牢 1708
矿业 1708
锋 1707
奇妙 1707
友善 1707
争 1707
忙@@ 1707
享@@ 1706
克拉 1706
打交道 1706
w 1706
发音 1706
象是 1706
防扩散 1706
比喻 1705
没人 1705
盲@@ 1705
援 1705
太阳@@ 1705
收养 1705
哥本哈根 1704
厂@@ 1704
破坏性 1703
加载 1703
拼命 1703
扇 1703
融 1703
掩@@ 1703
柳@@ 1702
仓 1702
敲@@ 1702
抚养 1702
格拉 1702
震 1701
覆 1701
ay 1701
蒙古 1701
会话 1700
横向 1700
贼 1700
先决条件 1700
雅虎 1700
搜查 1700
在职 1700
桃@@ 1699
装修 1699
催@@ 1699
辩@@ 1699
盲目 1699
安妮 1698
胆 1697
楼上 1697
甲方 1697
奉@@ 1697
各人 1696
陶@@ 1696
付给 1696
马克思主义 1696
病情 1695
消费@@ 1695
贪污 1695
宣@@ 1694
壮 1694
深深地 1694
常会 1694
寒 1693
受害 1693
教徒 1693
掉@@ 1693
人身 1693
下车 1693
增值 1693
第十一条 1693
融化 1692
十二@@ 1692
杜 1692
轨迹 1691
触发 1691
舰 1691
浴室 1691
凉@@ 1691
场面 1691
又@@ 1691
款额 1691
傻@@ 1690
就象 1690
时髦 1689
盆@@ 1689
筋 1689
哭@@ 1688
遵照 1688
领带 1688
旧金山 1688
活泼 1688
据称 1688
泪水 1687
我刚 1687
瓣 1687
向导 1687
第十三条 1687
传染 1686
小鸟 1686
赐 1686
氧化@@ 1686
怜悯 1684
遗嘱 1684
致辞 1684
冠 1683
想象力 1683
同胞 1683
失误 1682
轻轻地 1682
忠告 1682
怀着 1682
交通工具 1682
ate 1681
赶紧 1681
荡@@ 1681
优 1681
硝@@ 1681
一看 1681
开端 1680
初次 1680
写下 1680
柔和 1680
努@@ 1679
尤为 1679
律法 1679
吐@@ 1679
皇后 1679
IMF 1679
空运 1678
Con@@ 1678
克莱@@ 1678
鉴@@ 1678
十个 1677
借款 1677
基本法 1677
世界贸易组织 1676
临近 1675
尘 1675
驾车 1675
金银 1675
油漆 1674
航空器 1674
普遍性 1674
会为 1673
伏@@ 1673
址 1673
可笑 1673
奋@@ 1673
困 1672
罪名 1672
毒素 1672
猜想 1671
泰勒 1671
赫斯 1671
诺言 1671
伍 1671
援引 1671
分组 1671
裁员 1670
开幕式 1670
低收入 1670
难受 1669
分支机构 1669
排序 1669
这时候 1669
山脉 1668
呆@@ 1668
恶意 1668
西岸 1667
拿走 1666
莎士比亚 1666
获利 1666
描写 1665
近似 1665
语义 1665
压制 1665
ad 1665
晨@@ 1664
一到 1663
别忘了 1663
小狗 1663
眼神 1663
葬礼 1663
RE@@ 1662
悲观 1662
ly 1662
发展@@ 1662
润@@ 1661
都@@ 1661
始@@ 1661
美学 1661
窗子 1661
工商行政 1661
会计@@ 1660
聆听 1660
喜剧 1660
国家机关 1660
田野 1659
土豆 1659
赏@@ 1659
卷入 1659
主语 1659
开销 1659
游览 1659
映@@ 1659
二级 1659
清新 1658
遇@@ 1657
焊 1657
燃 1657
运营商 1657
现今 1657
秦@@ 1657
湖泊 1656
触摸 1656
强硬 1656
侵权 1656
克里斯 1656
杆@@ 1655
此处 1655
面貌 1655
傲慢 1655
港元 1655
磁场 1654
水晶 1654
指导@@ 1654
帆 1654
衬@@ 1653
工作量 1653
装有 1653
数百万 1653
开创 1653
人道主义法 1653
屈@@ 1652
败 1652
牢固 1652
逆转 1652
色情 1652
高大 1651
淡水 1650
荧光 1650
促销 1650
虽@@ 1650
相遇 1650
磁盘 1650
就是说 1650
三大 1649
研究进展 1649
烫 1649
非常感谢 1649
同意书 1649
一词 1648
电动 1648
荡 1647
恶魔 1647
卵 1647
裂纹 1647
芬 1647
操 1647
城市化 1647
挪@@ 1646
长长的 1646
坐标 1646
所有者 1646
整洁 1646
双眼 1645
催化 1645
敞开 1645
加紧 1645
达成协议 1645
服饰 1644
勇@@ 1644
核定 1644
不可或缺 1643
涂层 1643
财 1643
萎缩 1643
临到 1643
多达 1643
爱好者 1643
学业 1643
款式 1643
晓得 1643
大衣 1643
不吃 1642
# 1642
审视 1642
半导体 1642
释@@ 1642
征求 1642
发布会 1642
一带 1641
体外 1641
主观 1641
尔顿 1641
受益人 1641
涌 1640
黏@@ 1640
归还 1640
除去 1640
皇@@ 1640
抬起 1639
赞@@ 1639
子公司 1639
臭 1639
变迁 1639
不断@@ 1639
第十二条 1639
举起 1638
午夜 1638
饲养 1637
one 1637
戒烟 1636
便会 1636
振兴 1636
锁定 1636
三条 1636
十届 1636
饼干 1635
卓@@ 1635
村子 1635
老朋友 1634
订阅 1634
宜@@ 1634
水准 1634
法老 1634
更能 1633
虚拟@@ 1633
奴 1632
省级 1632
犯@@ 1631
甚么 1631
中立 1631
磁 1631
亲吻 1631
柴@@ 1631
农药 1631
第十五条 1631
灾@@ 1630
之旅 1630
屁股 1630
驴 1630
春节 1630
敌@@ 1630
芳@@ 1629
曼联 1629
市值 1629
本条 1629
相等 1628
进球 1628
抽屉 1628
自觉 1628
无视 1627
产权 1627
城乡 1627
屋宇 1627
小时候 1626
沿岸 1626
体育运动 1626
味@@ 1626
歌声 1626
掩饰 1626
精美 1626
③ 1626
农业@@ 1625
遗忘 1624
公共服务 1624
思想@@ 1624
原则上 1624
口译 1624
未必 1623
时分 1623
过失 1623
墨 1622
烟雾 1622
硫@@ 1622
不及 1622
猎人 1622
︰ 1622
奇异 1621
ir 1621
二是 1621
多万 1621
销售@@ 1620
填 1620
杀伤 1620
高潮 1619
叫声 1619
关掉 1619
逾期 1619
抗体 1618
总能 1618
码@@ 1618
常务委员会 1618
选取 1618
二零零六年 1618
核证 1618
古典 1617
腹部 1617
精致 1617
四条 1617
购置 1617
顶级 1616
出资 1616
还好 1616
高度重视 1616
第一届 1616
氧气 1615
器具 1615
烦@@ 1615
粘 1615
征税 1615
地步 1615
低迷 1615
La@@ 1614
技 1614
坚实 1614
像@@ 1613
过量 1613
识 1613
十分@@ 1613
献 1613
感谢您 1613
颤抖 1612
一瓶 1612
不介意 1612
感应 1612
保护区 1612
衍生 1611
运动会 1611
降到 1610
降解 1610
爱上 1610
实务 1610
普京 1610
奶油 1609
鲜 1609
探 1609
胚胎 1609
饮用 1609
减免 1609
指着 1608
参赛 1608
快捷 1608
忘@@ 1608
挨@@ 1608
不佳 1607
日渐 1607
捕 1607
源代码 1607
中非 1607
重叠 1606
天主教 1605
牢@@ 1605
逗留 1605
生产率 1605
Har@@ 1605
运算 1604
光辉 1604
事后 1604
渗@@ 1604
旅途 1604
货品 1604
水库 1604
驶@@ 1604
违法行为 1603
稳固 1603
品尝 1602
纯洁 1602
为准 1602
两项 1601
雕像 1601
上衣 1601
铸@@ 1601
基督徒 1601
畅@@ 1601
老实 1601
正要 1601
剥削 1601
娘 1600
机密 1600
判定 1600
房产 1600
操作@@ 1600
生产线 1600
第三十@@ 1600
陪伴 1600
虚弱 1599
孙 1599
偏离 1598
缩减 1598
启发 1598
建设项目 1598
粗糙 1597
交易@@ 1597
铃 1597
宏@@ 1596
万物 1596
疲倦 1596
半年 1596
毫不@@ 1596
克里@@ 1596
生产@@ 1596
保育 1596
灰尘 1595
结尾 1595
精简 1595
呃 1595
笔记 1595
大有 1594
遥@@ 1593
腺 1593
争执 1593
懒惰 1592
可观 1592
子宫 1592
窄 1592
使者 1592
前方 1592
违@@ 1591
法制 1591
留言 1591
来得 1590
动植物 1590
伟@@ 1589
闪烁 1589
辉 1589
陪审团 1589
据@@ 1589
彼@@ 1589
顺着 1588
摄入 1588
轰@@ 1588
串@@ 1588
入学 1588
数月 1587
小屋 1587
检控 1587
金子 1586
镇@@ 1586
胡 1585
玩笑 1585
特使 1585
主管人员 1585
肾 1584
捕@@ 1584
矮@@ 1583
抗生素 1583
京@@ 1583
撤@@ 1582
综合征 1582
每位 1582
洞穴 1582
扭@@ 1582
凹@@ 1582
僵局 1582
尘@@ 1581
祸 1581
委会 1581
羡慕 1581
一口气 1581
恳求 1581
车队 1580
纹@@ 1580
疲软 1580
教皇 1580
lo@@ 1580
流失 1580
东北 1579
1982 1579
青年人 1578
锅炉 1578
衰老 1578
ong 1578
赖 1577
西欧 1577
猜@@ 1577
台上 1577
带动 1577
徐@@ 1576
免得 1576
果汁 1576
改性 1576
剧本 1576
外壳 1576
十足 1575
海面 1575
成因 1575
辅@@ 1575
秀@@ 1575
澳 1575
想过 1574
电阻 1574
沃尔@@ 1574
当地人 1574
境界 1574
优于 1574
捷克 1574
180 1574
打造 1573
集装箱 1573
解放@@ 1573
呼 1572
托马斯 1572
汗@@ 1572
议@@ 1572
敬意 1572
收益率 1571
被判 1571
公报 1571
Sp@@ 1571
中介 1571
痒 1571
面板 1570
连结 1570
氟@@ 1570
雄 1570
警惕 1569
钟头 1569
ce 1569
简洁 1568
西北 1568
神情 1568
莎拉 1568
醉@@ 1568
才@@ 1568
MBA 1568
不上 1567
办学 1567
多于 1567
下令 1567
时要 1567
狄@@ 1567
黑山 1567
拿来 1566
恭@@ 1566
首长 1566
中心@@ 1566
高尚 1565
决不会 1565
颈 1565
CO@@ 1565
Su@@ 1565
怪物 1565
一次性 1565
礼服 1564
放宽 1564
上周五 1564
迟@@ 1564
空前 1564
软弱 1563
背叛 1563
归纳 1563
经销商 1563
软件@@ 1562
显出 1562
抹@@ 1561
总有 1561
席@@ 1561
巧@@ 1561
一百一十 1561
科索沃 1560
亮@@ 1560
挡 1559
挣 1559
商品价格 1559
丑 1558
尝 1558
就业机会 1558
1949 1558
镍 1557
草坪 1556
人要 1556
备用 1556
表扬 1556
第二十三条 1556
掌 1555
白俄罗斯 1555
暖 1555
欧洲人 1555
国情 1555
拉脱维亚 1555
漂@@ 1554
纷@@ 1554
电气 1554
株 1554
陆军 1554
婚姻@@ 1554
该部 1554
严 1554
IC@@ 1553
铸造 1553
特质 1553
ind@@ 1553
圣诞老人 1553
观光 1553
另一@@ 1553
还原 1552
舱@@ 1552
洛克 1552
持有人 1552
现存 1551
枯@@ 1551
隐瞒 1551
环境影响 1551
冷漠 1551
渥 1551
3000 1551
加纳 1551
广东省 1551
口腔 1550
过敏 1550
地层 1550
完整性 1550
腐@@ 1550
弹药 1550
客气 1549
在我看来 1549
堂@@ 1549
辱 1549
不太可能 1549
伊斯兰教 1549
损@@ 1548
AL@@ 1548
胸部 1548
以至 1548
陛下 1548
IS@@ 1548
沙特阿拉伯 1548
重力 1548
时钟 1548
玛格丽特 1547
迷惑 1547
按揭 1547
芬@@ 1547
力求 1547
肝脏 1546
性行为 1546
献给 1546
组装 1545
以内 1545
激进 1545
傍晚 1545
外债 1545
击中 1544
奖项 1544
导游 1544
那场 1543
名誉 1543
摊@@ 1543
说来 1543
伞 1543
巧 1542
界线 1542
苍白 1542
定性 1542
用人单位 1542
第七章 1542
热门 1541
1979 1541
下班 1540
无情 1540
响@@ 1540
梯@@ 1540
附带 1540
十一届 1540
心思 1539
操@@ 1539
夸张 1539
瘫痪 1539
私隐 1539
那件事 1538
兆 1537
沥青 1537
化工 1537
价格上涨 1537
结构@@ 1537
串 1537
搜索引擎 1537
往常 1536
蚂蚁 1536
短信 1536
暴雨 1535
漏洞 1535
出口商 1535
蒸发 1535
星系 1535
摊款 1535
马克思 1534
规管 1534
喔 1533
割 1533
拔 1533
犹豫 1533
斯顿 1533
染@@ 1533
夏威夷 1533
授@@ 1533
防空 1533
哩 1532
射线 1532
麻醉 1532
广义 1532
研@@ 1532
党员 1532
大火 1532
AIG 1532
设计@@ 1532
长城 1531
～ 1531
三明治 1530
消防 1530
XML 1530
店里 1530
店@@ 1530
毛额 1530
ER@@ 1529
骨骼 1529
相爱 1529
演习 1529
信徒 1529
阻挡 1529
只得 1529
沙田 1529
仁慈 1528
爱德华 1528
氨酸 1528
运河 1528
男生 1528
召唤 1528
全局 1528
第六@@ 1528
农作物 1527
传奇 1527
第二十五条 1527
创始人 1526
自定义 1526
镇压 1526
太高 1526
微弱 1525
就行了 1524
或者说 1524
榜 1524
化妆品 1524
借此 1523
兑现 1522
背上 1522
肉体 1522
缺席 1522
有所不同 1522
开发区 1521
捕捉 1521
常规武器 1521
第四十八届 1521
香蕉 1520
多重 1520
逃脱 1520
锐@@ 1520
肮脏 1519
刚好 1519
打印机 1519
核对 1519
不利于 1519
戒 1519
承包 1519
服务中心 1518
用到 1518
批判 1518
感恩节 1518
夺取 1518
浴 1517
潮@@ 1517
在乎 1517
珍珠 1517
抑郁症 1517
增至 1517
民航 1517
专心 1517
语句 1517
范例 1516
亚伯拉罕 1516
行为@@ 1516
资源管理 1516
追逐 1515
青睐 1515
撞击 1515
余地 1515
涨幅 1515
砸 1515
民主主义 1515
饱@@ 1514
更糟 1514
作证 1514
忧郁 1514
南极 1514
外交政策 1514
加固 1514
写出 1514
晚些时候 1514
害@@ 1514
幼儿 1514
这才 1513
辣 1513
唤醒 1513
阔@@ 1513
下个月 1513
1967 1513
诱@@ 1512
纪@@ 1512
偏 1512
分辨 1512
少于 1512
和平部队 1512
躲避 1511
呈现出 1511
海豚 1511
叉 1511
函@@ 1511
发型 1511
皮革 1511
奉行 1511
宏 1511
犹太 1510
令人满意 1510
议定 1510
联合国@@ 1509
］ 1509
添@@ 1508
废 1508
头顶 1508
建筑师 1508
西南 1508
钞票 1508
一共 1508
一九@@ 1508
转型期 1508
事务局 1508
桌@@ 1507
面上 1507
无法@@ 1507
洁@@ 1507
懒@@ 1507
棚 1507
混合物 1506
尼斯 1506
自然界 1506
六方会谈 1506
全港 1506
人有 1505
衷心 1505
流血 1505
身心 1505
um 1505
二战 1505
物理学 1505
新生儿 1505
阅 1505
袋子 1504
买下 1504
无所@@ 1504
亭 1503
染色体 1503
低成本 1503
出身 1503
裁 1502
吸毒 1502
如果说 1502
圆满 1501
岂 1501
马吕斯 1501
体育馆 1501
第二十六条 1501
周边 1500
脑子里 1500
来往 1500
经纪 1500
分公司 1500
获准 1500
娃娃 1500
面具 1500
估价 1500
送交 1500
糊 1499
诊 1499
忠@@ 1499
形容词 1499
处决 1499
怀特 1498
高贵 1498
开发@@ 1498
更长 1498
大麻 1498
典 1498
Le@@ 1498
里程碑 1498
车祸 1498
自决 1498
高尔夫球 1497
草拟 1497
160 1497
载荷 1497
摔@@ 1497
玛丽亚 1497
平凡 1497
绒 1497
始于 1497
结实 1497
可疑 1497
巢 1497
一页 1497
虾 1497
丧@@ 1497
核试验 1497
拿破仑 1496
衣物 1496
河水 1496
充分发挥 1495
扑 1495
地去 1495
第二十条 1495
结构性 1494
不怕 1493
口号 1493
日元 1493
珊瑚 1493
专利权 1493
招待 1493
这人 1493
一轮 1492
Th@@ 1492
固定@@ 1492
炭 1491
海啸 1491
行政处罚 1491
视线 1490
行列 1490
健康状况 1490
上演 1490
而定 1490
［ 1490
有所@@ 1489
不用说 1489
唇 1488
押@@ 1488
胶囊 1488
终点 1487
切换 1487
剥@@ 1487
所指 1487
己@@ 1487
五分钟 1487
滥@@ 1486
飞往 1486
En@@ 1486
菲尔 1485
很漂亮 1485
奇特 1485
财政@@ 1485
饮@@ 1484
电影@@ 1484
秘诀 1484
独立@@ 1484
凯 1484
塞人 1484
裤 1483
叹 1483
身高 1483
振 1483
创下 1483
动手 1483
抚@@ 1483
不受 1482
| 1482
体力 1481
马德里 1481
热心 1481
猫@@ 1481
私有化 1481
手下 1481
好玩 1480
躲@@ 1480
让@@ 1480
坏事 1480
康乐 1479
染料 1479
矿山 1479
身穿 1479
恰@@ 1479
多样 1479
腾@@ 1479
学术界 1479
女童 1479
废弃 1478
投机 1478
WTO 1478
阻塞 1478
宫殿 1478
况 1478
警卫 1478
加油 1478
坦桑尼亚 1478
付费 1477
该行 1477
训@@ 1477
战略@@ 1477
做生意 1477
过剩 1477
看似 1476
旗帜 1476
ch 1476
一百 1476
商务@@ 1475
来访 1475
人际关系 1475
Am@@ 1474
恐龙 1474
阻 1473
要花 1473
有空 1473
23@@ 1473
和谐社会 1473
装满 1472
不大 1472
铅@@ 1472
突变 1472
海港 1472
海运 1472
一封信 1472
审讯 1472
较强 1472
红十字 1472
北欧 1471
饥荒 1471
竖@@ 1471
程@@ 1471
吃掉 1471
气球 1471
乳腺癌 1470
小子 1470
此地 1470
Corp 1470
天地 1469
责任感 1469
绝不会 1469
杠杆 1469
大家庭 1469
积极性 1469
省份 1468
板块 1468
旅行社 1468
第七@@ 1468
出版社 1467
漫步 1467
共产党 1467
对立 1467
上半年 1466
精明 1466
格外 1466
尽情 1466
复原 1466
隐 1465
农田 1465
亚当 1465
贾 1465
汀 1465
揭露 1465
爸 1465
ik@@ 1464
住户 1464
杀手 1463
ity 1463
定律 1463
庄 1463
下述 1463
叠 1463
中央银行 1463
用力 1463
造就 1462
走近 1462
电厂 1462
面包@@ 1462
海滨 1462
有史以来 1462
Pro@@ 1462
斯洛伐克 1462
鲍勃 1462
捕鱼 1461
消逝 1461
第@@ 1461
环境污染 1461
说完 1460
浮 1460
悲痛 1460
啥 1459
原型 1459
独一无二 1459
范 1459
亲人 1459
马尔@@ 1459
殖民 1459
款@@ 1459
城市规划 1459
est@@ 1458
敬畏 1458
ter@@ 1458
扶@@ 1458
布雷 1458
北韩 1458
账单 1458
庆 1457
受体 1456
消 1456
抗拒 1456
显示器 1456
展览会 1456
谚语 1456
缺失 1455
圣灵 1455
修补 1455
患@@ 1455
儿童@@ 1455
争辩 1454
聚合 1454
收据 1454
功能@@ 1454
流传 1454
附录 1454
知识@@ 1454
摄像机 1453
组织@@ 1453
垫@@ 1453
第十八条 1453
砍@@ 1452
受不了 1452
不合理 1452
存货 1452
发生变化 1452
务必 1452
胰岛素 1452
月初 1452
大气层 1452
史蒂夫 1452
女士们 1451
扶贫 1451
讲解 1451
邮戳 1451
荒谬 1450
片刻 1450
血糖 1450
人手 1450
黎@@ 1450
粗鲁 1450
29@@ 1450
消防@@ 1449
惧怕 1449
关键技术 1449
负面影响 1449
宽松 1449
碧@@ 1449
ve 1449
合理化 1449
渡@@ 1448
护 1448
电磁 1448
集群 1448
灭@@ 1447
十字架 1447
寡@@ 1447
扫 1447
第二十一条 1447
好友 1446
滩 1446
晋升 1446
黎 1446
乡下 1446
精神病 1446
环绕 1445
迭代 1445
科目 1445
取得成功 1445
第十七条 1445
自卫 1444
炎热 1444
不便 1444
稳定@@ 1444
洪 1444
备受 1444
会长 1444
吸取 1444
本性 1444
功夫 1444
集体@@ 1444
裙 1443
弟 1443
有点儿 1443
臭@@ 1442
期限内 1442
免税 1442
难点 1442
浴@@ 1441
协 1441
雷斯 1441
炮@@ 1441
尖叫 1440
仇敌 1440
扰 1440
构 1440
有限责任 1440
第二十七条 1440
做梦 1439
猪肉 1439
招募 1439
中产阶级 1439
喉@@ 1439
功效 1439
紧急情况 1438
引力 1438
每桶 1438
化验 1438
舟 1437
川@@ 1437
模样 1437
控股 1437
传动 1437
继承人 1437
零部件 1437
肽 1437
抵御 1436
宇航员 1436
钾 1436
急于 1436
洒 1436
Mac 1436
句型 1436
骗子 1435
夸大 1435
验 1435
规矩 1435
调查结果 1435
ib@@ 1435
公营 1435
举例 1435
喊道 1434
厌烦 1434
双胞胎 1434
联合@@ 1434
市政 1434
出价 1433
上将 1433
随即 1433
化学物质 1433
铁矿石 1433
联网 1433
煽动 1432
硕士 1432
航运 1432
送达 1432
吵@@ 1432
海报 1432
第十六条 1432
贮存 1431
固 1431
摆在 1431
概况 1431
AC@@ 1431
诚挚 1430
窗帘 1430
棵 1430
ie 1430
水稻 1430
尤 1430
人生@@ 1430
暑假 1430
时限 1430
统计数字 1430
ell@@ 1429
植 1429
起伏 1429
整齐 1429
肺癌 1429
阿布哈兹 1429
杆菌 1428
工序 1428
递@@ 1428
鲨鱼 1428
运输@@ 1428
数字化 1428
高等学校 1428
塑料@@ 1427
探测器 1427
天内 1427
萨拉热窝 1427
不管怎样 1427
体操 1427
混淆 1426
承运人 1426
看守 1426
贺卡 1426
执行长 1426
张力 1426
逢 1426
技术性 1426
那人 1426
中风 1425
战后 1425
忙于 1425
统治者 1425
嘴@@ 1425
大片 1425
一无所知 1425
109 1425
十一 1425
色素 1424
赖@@ 1424
中世纪 1423
忽@@ 1423
面粉 1423
局限 1423
添加剂 1423
得意 1422
旷野 1422
长达 1422
Be@@ 1422
棒@@ 1422
六条 1422
十分钟 1422
量子 1421
阿拉@@ 1421
绑 1421
格尔 1421
140 1421
烦 1421
铅笔 1421
构架 1421
货币基金 1421
游泳池 1420
岛@@ 1420
善意 1420
ent 1420
海洋法 1420
Windows 1419
植@@ 1419
乌 1419
水量 1419
域名 1419
说起 1418
海洋@@ 1418
笨 1418
粉碎 1418
塑性 1418
市政府 1418
蜘蛛 1418
HIV 1417
焦 1417
挤压 1417
战役 1417
封面 1417
也门 1417
研究院 1417
猴 1416
uc@@ 1416
怎样才能 1416
嘴巴 1416
吸入 1415
进食 1415
岁@@ 1415
改动 1415
维和 1415
食品安全 1415
上星期 1415
瞄准 1414
倒闭 1414
疲惫 1414
召 1414
妇女@@ 1414
本章 1414
平息 1413
织 1413
保障@@ 1413
内政 1413
漫画 1412
art@@ 1412
离散 1412
不好意思 1412
时速 1412
日程 1412
公务 1412
仪@@ 1411
边上 1411
眠 1411
日历 1411
美女 1410
筹@@ 1410
书中 1410
徒@@ 1410
OS 1410
证券交易 1410
www 1410
散布 1409
趣 1409
二十一 1409
学习@@ 1409
爱丽丝 1408
块@@ 1408
大米 1408
车厢 1408
口岸 1408
积金 1408
应考 1408
登陆 1407
浩@@ 1407
彻@@ 1407
这门 1407
工商 1407
j 1407
第一百 1407
某一 1406
特里 1406
彭@@ 1406
主角 1405
营养不良 1405
尖锐 1405
浓缩 1405
能为 1405
贸易法 1405
这样的话 1404
法学 1404
凭证 1404
忧伤 1404
起着 1404
地为 1403
普通@@ 1403
诚 1403
眉@@ 1403
辨@@ 1403
垮 1402
片段 1402
喀@@ 1402
第二十四条 1402
畸形 1401
掌控 1401
安宁 1401
安德烈 1401
谢谢您 1401
相比之下 1401
近几年 1400
肤色 1400
攀升 1400
碟 1400
卫生部 1400
汇编 1399
一身 1399
手枪 1399
叠@@ 1399
恐吓 1399
拖欠 1399
不可分割 1399
否决 1399
早上好 1399
托尼 1398
海峡 1398
仁@@ 1398
镜@@ 1398
牛仔裤 1398
蜂蜜 1398
缔造 1398
注册商标 1398
互联网安全 1398
图标 1397
典@@ 1397
驾驶员 1397
㈡ 1397
姿 1396
导师 1396
合作社 1396
hk 1396
介意 1395
反驳 1395
幻@@ 1395
发性 1395
打个 1395
优异 1395
并发 1394
机床 1394
野兽 1394
称作 1394
关键字 1394
驾@@ 1394
弹簧 1394
世间 1393
探究 1393
礼仪 1393
竞@@ 1393
几家 1393
奥斯卡 1393
id 1392
之道 1392
国际化 1392
出口@@ 1392
咽 1392
赛特 1391
祈求 1391
店铺 1391
求职 1391
成份 1390
帐单 1390
美分 1389
骑马 1389
溜 1389
奎@@ 1389
这幅 1389
中华 1389
那辆 1389
奢侈 1388
缓存 1388
弓 1388
伸展 1388
治安 1388
走到 1388
黄油 1388
下文 1388
下属 1388
进修 1388
━ 1388
愚@@ 1387
担@@ 1387
停顿 1387
质量@@ 1386
维多利亚 1386
庭@@ 1386
名片 1386
悠久 1386
渠 1386
ob@@ 1386
功课 1386
流逝 1385
甲板 1385
医疗保险 1385
差点 1385
陷阱 1384
整顿 1384
期权 1384
一大堆 1384
幸存者 1384
end@@ 1384
所行 1384
搅@@ 1383
防卫 1383
免疫@@ 1383
tion 1383
显微镜 1382
剪 1382
静止 1382
吉米 1382
雕塑 1382
中西部 1382
瀑布 1381
朵 1381
业余 1381
十三 1381
牙医 1380
植被 1380
电线 1380
追赶 1379
倒塌 1379
排出 1379
天花板 1379
后卫 1379
孟@@ 1379
技@@ 1378
杂 1378
伸手 1378
废墟 1378
升至 1378
专业人士 1378
那本书 1378
PC 1378
经社理事会 1378
水源 1377
唐 1377
ex@@ 1376
航线 1376
迎来 1376
评判 1376
行动计划 1376
习@@ 1376
畅销 1375
亲近 1375
SO@@ 1375
挑战性 1375
膝 1374
北极 1374
模拟@@ 1374
手动 1374
共和党人 1374
兔 1374
斯坦 1374
民兵 1374
奸@@ 1374
苦恼 1374
第二届 1374
书院 1374
番 1373
寺 1373
咖啡@@ 1373
苍@@ 1373
跳跃 1373
队列 1373
红十字会 1373
万一 1373
那家 1373
微不足道 1372
两边 1372
晚期 1372
以求 1372
国防部 1372
蜡 1371
学问 1371
训练@@ 1371
解开 1371
体面 1370
逃走 1370
AM@@ 1370
持续性 1370
经常性 1370
标明 1370
名册 1370
个人电脑 1370
三十日 1370
断定 1369
构件 1369
合作@@ 1369
已婚 1369
风险管理 1369
人质 1369
脑子 1369
伴@@ 1368
孤儿 1368
卖淫 1368
合资 1368
数学@@ 1368
剑@@ 1367
偏差 1367
寄给 1367
光荣 1367
雇 1367
管理机构 1367
接获 1367
中亚 1367
这所 1367
砖@@ 1366
毕@@ 1366
记忆力 1366
曼谷 1366
竹 1366
患上 1366
拱@@ 1366
旱@@ 1366
地处 1365
调制 1365
停滞 1364
外形 1364
CS@@ 1364
硬化 1364
力图 1364
万名 1364
预算外 1364
股票市场 1363
给定 1363
冷冻 1363
机组 1363
炼 1363
没用 1362
欺@@ 1362
凭@@ 1362
亚太地区 1362
这段 1361
茜 1361
大为 1361
敏感性 1361
万亿美元 1361
领事 1361
吵 1360
锅@@ 1360
二十世纪 1360
动议 1360
公民权利 1360
排雷 1360
class3 1360
诅咒 1359
轰炸 1359
班上 1359
丘@@ 1358
敏锐 1358
胆固醇 1358
结晶 1358
11.@@ 1358
多哈 1358
照看 1358
迦@@ 1358
发病率 1358
历来 1358
霸@@ 1357
印制 1357
国务卿 1357
照相机 1357
终生 1357
蠢@@ 1356
扩充 1356
薇 1355
反过来 1355
极力 1355
闪光 1355
娃 1355
遗失 1355
高地 1354
从小 1354
首位 1354
强盗 1354
半数 1354
限定 1353
赠 1353
煤气 1353
新来 1353
邮品 1353
危@@ 1352
盛 1352
混合@@ 1352
渴 1351
中起 1351
黎明 1351
极好 1351
通行 1351
一团 1350
他妈的 1350
屏 1350
class4 1350
品味 1349
以南 1349
可信 1349
全面@@ 1349
两地 1349
si@@ 1349
兽医 1349
快速增长 1348
幼儿园 1348
前线 1348
解脱 1347
非常@@ 1347
坝 1347
悄悄 1347
de 1347
特区 1347
联利 1347
太小 1346
低声 1346
疯@@ 1346
法律责任 1346
消费品 1346
帖 1345
酷 1345
加班 1345
思念 1344
攻 1344
交通事故 1344
不怎么 1343
滑稽 1343
禁 1343
发掘 1343
对话框 1343
债权 1343
驱动器 1343
镇上 1342
耐 1342
天津 1342
开着 1342
斯里兰卡 1342
买进 1342
思索 1341
控制权 1341
饱和 1341
内陆 1341
南北 1341
旅游@@ 1341
果断 1340
鸿@@ 1340
跑道 1340
上调 1340
过错 1340
英文版 1340
会员卡 1339
鸽子 1339
忍耐 1339
篮子 1339
起码 1339
订货 1339
日本@@ 1339
团长 1339
金币 1339
报警 1338
适应性 1338
跌幅 1338
伟 1338
摸@@ 1337
高水平 1337
1970 1337
哈萨克斯坦 1337
忘掉 1337
一届 1337
跟进 1337
中小型 1337
不来 1336
市场份额 1336
说实话 1336
倍@@ 1336
天性 1336
㈠ 1336
Google 1335
小国 1335
辛 1335
侦探 1335
iz@@ 1335
堤 1335
普通人 1335
附表 1335
激怒 1334
坏消息 1334
心想 1334
查验 1334
马其顿 1334
神经元 1333
说些 1333
盗版 1333
署@@ 1333
金字塔 1333
增速 1332
数百@@ 1332
排放量 1332
涌入 1332
钓@@ 1332
税务局 1332
class2 1332
卫 1331
哥斯达黎加 1331
加利福尼亚 1331
种群 1331
爷 1330
化物 1330
高等 1330
概@@ 1330
医学院 1330
归咎于 1330
脊@@ 1330
河边 1330
琴@@ 1329
淫@@ 1329
丰厚 1329
反思 1329
济 1329
盈余 1329
明日 1329
两点 1329
各有 1328
篮@@ 1328
几百@@ 1328
见过 1328
难民营 1328
世贸组织 1328
南京 1328
厄瓜多尔 1328
低下 1327
蓄@@ 1327
中医 1327
祖 1327
翁 1327
ess 1327
class5 1327
脉@@ 1326
米勒 1326
纽约@@ 1326
棍 1325
矿床 1325
磁带 1325
春季 1325
氏@@ 1325
流利 1325
二维 1324
物件 1324
大桥 1324
ver@@ 1324
高涨 1324
新闻界 1324
转递 1324
港岛 1324
得来 1323
享 1323
粉末 1323
大赛 1323
卡特 1323
寡妇 1323
取向 1323
铸 1323
必要条件 1323
走来 1323
亚太 1323
砍 1322
退还 1322
产能 1322
能源@@ 1322
制剂 1322
城区 1322
邮 1322
斯基 1321
SA@@ 1321
充电 1321
人中 1321
地基 1321
图画 1321
欧洲@@ 1321
新颖 1320
冰冷 1320
绵@@ 1320
转过 1320
害羞 1320
手势 1320
凑@@ 1320
12.@@ 1320
第五@@ 1320
集邮 1319
下一代 1319
染色 1319
热水 1319
医疗@@ 1319
侵入 1319
本科 1319
爱因斯坦 1319
BS 1319
梯度 1318
帅 1318
送往 1318
骚乱 1318
长寿 1318
KB 1318
扣押 1317
尊 1317
饮用水 1317
盾 1316
三角 1316
宴 1316
奔跑 1316
浑身 1315
盟友 1315
拐@@ 1315
堕落 1315
吉他 1315
唉 1315
压抑 1315
两份 1315
绩 1314
智 1314
舌@@ 1314
自制 1314
教养 1313
起步 1313
可乐 1313
旋 1313
做饭 1313
垂 1312
题材 1312
珂 1311
犯罪行为 1311
布莱@@ 1311
柬 1311
络 1311
收支 1311
丸 1310
相位 1310
两张 1310
刑@@ 1310
发烧 1310
肯尼迪 1310
潜水 1310
解读 1310
看书 1310
赞比亚 1310
第二十九条 1310
境地 1309
欢喜 1309
口音 1309
划定 1309
充斥 1309
嫌疑人 1309
决策@@ 1309
纪念@@ 1308
通讯@@ 1308
方可 1308
秋季 1308
class1 1308
序@@ 1307
新人 1307
丛林 1307
抽出 1307
磷@@ 1307
兼容 1307
老太太 1307
残留 1307
日趋 1307
安定 1305
芽 1305
吻合 1305
文学@@ 1305
尊@@ 1305
孙子 1305
特许 1305
表述 1305
六十 1305
全方位 1305
男女平等 1305
税务机关 1305
发疯 1304
反正 1304
当场 1304
CE@@ 1304
拳 1304
阻挠 1304
虔诚 1303
肩 1303
觉@@ 1303
武装冲突 1303
国防@@ 1303
缘@@ 1302
队友 1302
维奇 1302
尸@@ 1302
悠@@ 1302
早点 1302
开发人员 1302
前夕 1302
锯@@ 1302
县@@ 1302
建构 1302
懒 1301
着陆 1301
喉咙 1301
精通 1301
第七十@@ 1301
万个 1300
赠@@ 1300
口中 1300
发挥作用 1300
麦当劳 1300
愁@@ 1300
动乱 1300
管理制度 1300
分工 1300
爽 1299
加倍 1299
风味 1299
尔特 1298
池@@ 1298
凶手 1298
门票 1298
定向 1298
悉尼 1298
削@@ 1297
寂静 1297
锚@@ 1297
产妇 1297
创纪录 1297
一新 1296
袜子 1296
机能 1296
抬@@ 1296
泳 1296
University 1295
庆@@ 1295
夺得 1295
101 1295
抨击 1294
狮 1294
基因@@ 1294
度量 1294
沙拉 1294
IBM 1294
带回 1294
于本周 1294
断层 1294
滤波器 1294
该文 1294
十五@@ 1293
关键性 1293
排水 1293
成品 1293
传给 1293
失衡 1293
山坡 1293
一并 1293
敦@@ 1293
事业单位 1292
愈合 1292
万吨 1292
拆卸 1292
跌倒 1291
极少 1291
Sc@@ 1291
刮 1291
野餐 1291
冉阿让 1291
悟 1290
105 1290
地被 1290
牛排 1290
侦察 1290
保全 1290
用电 1290
处方 1289
比利 1289
丰 1289
野外 1289
第八 1289
无私 1289
不难 1289
互助 1289
暗杀 1289
而行 1289
抵触 1288
适于 1288
复习 1288
卸@@ 1288
早饭 1288
ep@@ 1288
小费 1287
风力 1287
途 1287
变压器 1287
章节 1287
中华民族 1287
加仑 1287
Ad@@ 1287
荷 1287
一切都是 1286
冷淡 1286
鲸 1286
偿@@ 1286
过滤器 1286
聚焦 1286
航空@@ 1286
臣 1286
我该 1286
学术@@ 1286
→ 1286
丢@@ 1285
生态@@ 1285
凝胶 1285
灾难性 1285
哺乳动物 1285
月光 1285
两类 1285
竞争性 1285
推销员 1284
习惯于 1284
住院 1284
美国国会 1284
Bar@@ 1283
更深 1283
换取 1283
资源@@ 1283
局限性 1282
伸 1282
笼 1282
率领 1282
太过 1282
出卖 1282
留学 1282
1981 1282
第二十二条 1282
炫耀 1281
小路 1281
卧 1281
气流 1281
德国人 1281
养老金 1281
克拉克 1281
国际货币基金组织 1281
国际奥委会 1281
一趟 1281
委托人 1281
时装 1280
伪 1280
碰巧 1280
公顷 1280
幽灵 1280
养殖 1280
弃权 1280
地利 1280
Morgan 1280
句@@ 1279
忧@@ 1279
别墅 1279
却@@ 1279
雕 1279
16.@@ 1279
酗酒 1279
之路 1279
肩上 1279
苔丝 1279
藏族 1279
欠@@ 1279
每隔 1278
试验@@ 1278
债务人 1278
复合@@ 1278
拼写 1277
Mc@@ 1277
工作效率 1277
浪潮 1276
冻 1276
愉悦 1276
沉 1276
外汇储备 1276
薪资 1276
纪念品 1275
暴行 1275
小心翼翼 1275
恢复@@ 1275
盟 1275
既定 1275
辖下 1275
糊涂 1274
隔壁 1274
慈爱 1274
双向 1274
数据处理 1274
迪克 1274
拜托 1274
PLC 1274
处长 1274
开发商 1273
女神 1273
孤单 1273
ah 1273
if@@ 1272
歌剧 1271
新一代 1271
鼠@@ 1271
光临 1270
民族主义 1270
蓝图 1270
PC@@ 1270
斜坡 1270
植物@@ 1269
贯穿 1269
轮流 1269
心意 1269
够@@ 1269
销售量 1269
认捐 1269
廉署 1269
细致 1268
曝光 1268
统计数据 1268
委@@ 1268
醋 1267
喘 1267
编织 1267
车道 1267
音频 1267
同盟 1267
盗窃 1267
备选 1267
花旗集团 1267
识@@ 1266
扔掉 1266
察 1266
公开@@ 1266
RO@@ 1265
植入 1265
项链 1265
符合@@ 1265
美金 1265
中间@@ 1265
访@@ 1265
分量 1264
布拉@@ 1264
格斯 1264
咸@@ 1264
珥 1264
嚷 1263
重型 1263
凌晨 1263
车轮 1263
政局 1263
纽约市 1263
节食 1263
劝告 1263
太久 1262
高山 1262
邮箱 1262
自尊 1262
作风 1262
地盘 1262
乙醇 1262
弃@@ 1262
审判@@ 1262
出路 1261
天气@@ 1261
壮观 1261
赔@@ 1261
单调 1261
好坏 1261
花瓶 1260
扶 1260
氯 1260
公元 1260
科尔 1260
保险费 1260
毛巾 1259
附有 1259
沉思 1259
临界 1259
而后 1259
相片 1259
近乎 1258
动身 1258
而出 1258
创办 1258
并行 1258
研究@@ 1258
讲究 1258
恤 1258
短文 1258
Z 1257
冲洗 1257
镇静 1257
正确性 1257
做个 1257
二零零四年 1257
达赖喇嘛 1257
用餐 1256
两侧 1256
大战 1256
丽莎 1256
谜 1256
亡 1256
试点 1256
精华 1255
古希腊 1255
堕胎 1254
百年 1254
很多年 1254
心跳 1254
执照 1254
妮@@ 1253
个子 1253
无罪 1253
成交 1253
墨水 1253
鸭 1252
尝@@ 1252
嫁@@ 1252
无礼 1252
幽默感 1252
舰队 1252
抄@@ 1251
预防措施 1251
浓 1251
拐 1251
关键@@ 1251
看望 1251
ke 1251
贫@@ 1251
麻醉药品 1251
架子 1250
极具 1250
酸性 1250
苯 1250
握@@ 1250
光泽 1250
吃晚饭 1250
参见 1250
丰田 1250
炸 1250
per@@ 1250
金融服务 1250
里克 1250
赖斯 1250
诉@@ 1250
滤波 1249
靠着 1249
搜@@ 1249
疑 1249
克尔 1249
四种 1249
尘土 1249
一揽子 1249
劫@@ 1249
class6 1249
触及 1248
肺炎 1248
尸 1248
粒@@ 1248
常任理事 1248
顶端 1247
湿度 1247
德拉 1247
评论家 1247
产地 1247
会儿 1247
叛乱 1247
一经 1247
据报 1247
晕 1246
馆@@ 1246
所处 1246
钢筋 1246
不通 1246
潜能 1245
杭州 1245
起源于 1245
答覆 1245
安全区 1245
水里 1244
应为 1244
我必 1244
人民代表大会常务委员会 1244
框@@ 1243
第三十条 1243
朱 1243
急忙 1243
紫外线 1243
开业 1243
顾及 1243
地道 1242
底层 1242
驳回 1242
遵从 1242
侦查 1242
例行 1242
信函 1242
总干事 1242
严密 1241
站立 1241
投降 1241
ard@@ 1241
不太@@ 1240
误导 1240
每种 1240
厨@@ 1240
进出 1240
外交官 1240
微风 1240
爆破 1240
依法@@ 1240
嫁 1239
脑部 1239
出任 1239
转运 1239
政治权利 1239
他用 1238
州市 1238
闻@@ 1238
重构 1238
仗 1238
洗澡 1238
昨天晚上 1238
14.@@ 1238
聘 1238
瓦斯 1237
估值 1237
畏惧 1237
大叫 1237
匹 1237
外衣 1237
建筑工程 1237
条纹 1236
客房 1236
野心 1236
编译 1236
河里 1236
阵地 1235
滚动 1235
攀@@ 1235
恰恰 1235
弧@@ 1235
发抖 1235
珍@@ 1235
高频 1235
健 1235
那件 1235
才华 1234
文化遗产 1234
审慎 1234
关系@@ 1234
活动@@ 1234
酷@@ 1234
分布式 1234
句意 1234
拍照 1233
踏上 1233
叛@@ 1233
幢 1233
用处 1233
侵@@ 1233
性命 1233
坦白 1233
耗费 1233
九条 1233
古迹 1233
统计调查 1233
流向 1232
谣言 1232
南亚 1232
精子 1232
人称 1232
前锋 1232
财政部长 1232
澳@@ 1232
普尔 1232
地方性 1232
io 1231
一朵 1231
精细 1231
高档 1231
公然 1231
流泪 1231
角落里 1230
赛车 1230
梳@@ 1230
简易 1230
沾@@ 1230
受托人 1230
纳米比亚 1230
誓言 1230
两组 1230
程式 1230
负债表 1230
XX@@ 1230
动人 1229
米尔 1229
侧面 1229
吉尔 1229
丝绸 1229
观赏 1229
下游 1229
把门 1229
1973 1229
of@@ 1228
满意度 1228
关键词 1228
姚明 1228
读取 1228
途@@ 1228
岗 1228
三倍 1228
余下 1228
坚硬 1227
监护人 1227
应予 1227
统 1227
投保 1227
理财 1226
前期 1226
推断 1226
信道 1226
患病 1226
综合症 1226
考虑一下 1226
添 1226
lan@@ 1226
英语口语 1226
John 1226
公屋 1226
常识 1224
签约 1224
波士顿 1224
丛@@ 1224
民主党人 1224
往返 1224
ust@@ 1224
小姑娘 1223
仅为 1223
哨 1223
纵向 1223
昂 1223
莎@@ 1223
妙 1223
夺 1223
兼顾 1222
件@@ 1222
那年 1222
一家人 1222
蜡@@ 1222
难忘 1221
调和 1221
界@@ 1221
走势 1221
连锁 1221
赵@@ 1221
迦 1221
厂家 1221
乙 1221
优越 1220
威士忌 1220
th 1220
一圈 1220
静静地 1220
抬 1220
车票 1220
下方 1220
露天 1220
联大 1220
埋葬 1219
炸药 1219
ang@@ 1219
华人 1219
上海@@ 1218
IP 1218
溶解 1218
问卷 1218
钢铁@@ 1218
转而 1218
几十@@ 1218
警察局 1217
夹克 1217
飞翔 1217
富含 1217
贫困地区 1217
娱乐@@ 1216
敌意 1216
组分 1216
数千 1216
奶粉 1216
截然不同 1216
培训班 1216
eb@@ 1215
竞争者 1215
残 1215
成语 1215
好极了 1215
波浪 1215
哈马斯 1215
送来 1215
十八 1215
转交 1215
第二十八条 1215
香港特别行政区政府 1215
联检 1215
幸@@ 1214
疑虑 1214
当做 1214
感恩 1214
认真@@ 1214
要不是 1213
安德鲁 1213
原告 1213
响起 1213
控诉 1213
恶性 1213
化疗 1213
家庭成员 1213
恶人 1213
仪表 1213
预后 1213
独联体 1213
别处 1212
掷 1212
情报@@ 1212
转基因 1212
不敢相信 1212
知觉 1212
记录@@ 1212
店员 1212
用心 1211
娇@@ 1211
挑衅 1211
现实意义 1211
逆 1211
ew@@ 1211
油脂 1210
黑洞 1210
新郎 1210
街区 1210
证词 1210
问及 1210
社团 1210
相继 1210
珍 1210
现实生活 1209
岸边 1209
发射@@ 1209
三名 1209
哈佛 1209
ow 1209
邦@@ 1209
黄金@@ 1209
这起 1208
薄弱 1208
毫@@ 1208
鲜艳 1208
境况 1208
减税 1208
执业 1208
台北 1208
全人类 1208
专责 1208
乐园 1207
效用 1207
处分 1207
For@@ 1207
路易斯 1207
经贸 1207
基督山 1207
屯门 1207
大韩民国 1207
应得 1206
文凭 1206
另一方 1206
出名 1206
私有 1206
告诫 1206
有益于 1206
基石 1206
帝 1206
纺@@ 1205
Bo@@ 1205
气质 1205
颇为 1205
与会 1205
去掉 1205
用不着 1205
撤退 1205
轮船 1205
跨界 1205
栽培 1204
奢侈品 1204
好些 1204
热闹 1204
乾@@ 1204
综@@ 1204
转为 1204
洗钱 1204
镀@@ 1203
不快 1203
廷 1203
金斯 1203
摔 1203
不能@@ 1203
宣传@@ 1203
郎 1202
国度 1202
愈@@ 1202
聊 1202
定理 1202
奏 1202
住处 1202
for 1202
× 1202
分析法 1201
达西 1201
一小部分 1201
中场 1201
汇款 1201
几句 1200
开除 1200
代理商 1200
从业人员 1200
机动 1200
索尼 1200
CEO 1200
麦克@@ 1200
商量 1200
是否是 1200
下巴 1200
理事国 1200
AD@@ 1199
氧化物 1199
香水 1199
芳香 1199
晚间 1199
方言 1198
辣@@ 1198
疫情 1198
共产主义 1198
大都 1198
一个个 1198
高效率 1198
DP 1198
保护环境 1198
棋@@ 1197
向量 1197
这支 1197
着迷 1197
所起 1197
宽带 1197
革 1197
小于 1197
香气 1196
线条 1196
用药 1196
不感兴趣 1196
阿森纳 1196
也好 1196
物理@@ 1196
看一看 1196
金融时报 1196
王上 1196
ber@@ 1195
据此 1195
小规模 1195
上床 1195
年老 1195
IE@@ 1195
担当 1195
友情 1194
密钥 1194
桌面 1194
可谓 1194
屈服 1194
合资企业 1194
混蛋 1194
妥 1194
停战 1194
插件 1193
身处 1193
大笔 1193
鹿@@ 1193
和平@@ 1193
奖牌 1193
求助 1193
地理@@ 1193
头衔 1192
os 1192
间隙 1192
一匹 1192
证明文件 1192
菲尔德 1191
ter 1191
北爱尔兰 1191
商讨 1191
蟹 1191
无权 1191
高尔夫 1191
男友 1190
皱纹 1190
壶 1190
IT@@ 1190
机体 1190
总督 1190
点心 1190
ick 1190
妊娠 1190
靶@@ 1190
向往 1189
深层 1189
刹车 1189
台风 1189
个性化 1189
ug@@ 1189
环球 1189
奏@@ 1188
虚 1188
吓@@ 1188
绞@@ 1188
混沌 1188
牙买加 1188
多地 1188
金融业 1188
勘查 1188
拆 1187
宣扬 1187
推移 1187
迷失 1187
禁区 1187
概要 1187
选中 1187
遭@@ 1186
客户服务 1186
当心 1186
屏@@ 1186
巴拿马 1186
有种 1186
腔@@ 1186
耗 1186
小提琴 1186
源头 1185
步兵 1185
步入 1185
视网膜 1185
滞@@ 1185
不论是 1185
当今世界 1185
副总裁 1185
独立性 1185
第三十四条 1185
三位 1184
疏忽 1184
朴 1184
绑定 1184
布莱克 1183
紧急@@ 1183
辛格 1183
戴着 1183
ang 1183
特罗斯 1183
威尔士 1182
EC 1182
瘾 1182
基本原理 1182
厌@@ 1182
莱特 1182
互信 1182
荃湾 1182
\ 1182
Don 1182
空间@@ 1181
计画 1181
指纹 1181
虫@@ 1181
追溯到 1181
关键问题 1181
开发利用 1181
栗 1180
生化 1180
无人@@ 1180
微粒 1180
臂@@ 1180
落下 1180
担负 1180
览 1180
浆@@ 1180
背诵 1179
捣@@ 1179
宾语 1179
乒乓球 1179
不相@@ 1179
失控 1179
复发 1179
离不开 1178
彩虹 1178
瑜伽 1178
宿 1178
反对党 1178
真菌 1178
吊销 1178
书记 1178
症@@ 1178
肠道 1177
竞技 1177
情侣 1177
讨@@ 1177
小小 1177
民用航空 1177
各州 1177
兆@@ 1177
1983 1177
落到 1176
高原 1176
三十年 1176
摄影师 1176
忍不住 1176
衬 1176
陪同 1176
娘@@ 1175
峡谷 1175
立体 1175
癌@@ 1175
ot 1175
美林 1175
3.5 1175
获得成功 1175
女演员 1174
曲面 1174
昆@@ 1174
迷信 1174
藻 1174
实用性 1174
现阶段 1174
如实 1174
迈进 1174
庄稼 1174
路程 1173
迫害 1173
顽固 1173
荷载 1173
流产 1173
硬盘 1173
指甲 1173
入手 1173
关押 1173
性生活 1173
君 1173
竟@@ 1173
装船 1173
内衣 1172
减速 1172
时段 1172
平安@@ 1172
一分 1172
求婚 1172
tr@@ 1172
乎 1172
十二个 1171
私下 1171
反击 1171
这天 1171
中旬 1171
总值 1171
那双 1171
最先 1171
医疗卫生 1171
灼@@ 1171
壮大 1171
工商@@ 1171
柜@@ 1170
土壤@@ 1170
池塘 1170
一笑 1170
勇士 1170
102 1170
齐全 1170
笼罩 1170
火鸡 1170
太晚 1169
露面 1169
没见 1169
高级@@ 1169
音乐家 1169
全职 1169
Pr@@ 1169
售出 1169
召@@ 1169
非殖民化 1169
传到 1168
Ab@@ 1168
家用 1168
残余 1168
统一@@ 1168
示威者 1168
演唱 1168
经济体制 1168
可口可乐 1168
严重性 1168
快餐 1168
航海 1168
巾 1167
放电 1167
锤 1167
重庆 1167
变性 1167
一章 1167
我敢 1167
庄@@ 1167
切实可行 1167
交流@@ 1167
源泉 1166
竭@@ 1166
接头 1166
趋于 1166
弓@@ 1166
长老 1166
庞@@ 1166
泛 1166
洒@@ 1166
罚@@ 1166
苗@@ 1166
遗址 1166
不宜 1166
共计 1166
劳务 1166
低廉 1165
旋律 1165
炎症 1165
枕头 1165
me 1165
沙子 1165
每股 1165
外贸 1165
达赖 1165
颇@@ 1164
时空 1164
格里@@ 1164
走动 1164
呵 1164
蛇@@ 1163
渔船 1163
笔记本 1163
组织者 1163
Michael 1163
第二百 1163
硫 1162
后退 1162
当下 1162
多家 1162
握住 1162
体育场 1162
鼓掌 1162
实用新型 1160
陷入困境 1160
打赌 1160
提出申请 1160
降至 1160
肥皂 1160
七日 1160
挡@@ 1159
IPO 1159
适量 1159
刀具 1159
巴比伦 1159
申请@@ 1159
回报率 1159
球赛 1159
针对性 1159
革@@ 1159
液相 1159
各省 1159
冒犯 1158
崇@@ 1158
冥想 1158
倾倒 1158
妻@@ 1158
苍蝇 1158
地参 1158
标本 1157
特征@@ 1157
段@@ 1157
亚伦 1157
邻 1157
郭@@ 1157
退休金 1157
不公 1156
披@@ 1156
一号 1156
第七 1156
撒上 1156
劫 1155
冷却@@ 1155
地下@@ 1155
水池 1155
互相@@ 1155
烟囱 1155
洗手 1155
欣慰 1155
CN 1155
预备役 1155
绿化 1154
首选 1154
润滑 1154
上任 1154
牛仔 1154
债@@ 1154
帆船 1154
毛衣 1154
蚊子 1154
关岛 1154
不至于 1153
誉 1153
换成 1153
分娩 1153
突 1153
伯特 1153
尤指 1153
路透社 1153
布满 1153
戏剧性 1153
苑 1153
参 1153
倒霉 1152
映 1152
温馨 1152
从根本上 1152
徘徊 1152
颤 1151
三点 1151
引致 1151
那一刻 1151
拉伸 1151
猛 1151
af@@ 1151
工作岗位 1151
一千 1151
流出 1150
伪装 1150
总局 1150
燕@@ 1150
瞩目 1150
房租 1150
烃 1149
光彩 1149
每晚 1149
迫@@ 1149
丢弃 1149
无声 1149
呼唤 1149
导出 1149
表征 1148
远方 1148
单车 1148
典范 1148
ner 1148
坚定不移 1148
计算@@ 1148
沙漠化 1148
维斯 1148
1960 1148
赏 1148
损耗 1148
饱受 1148
警队 1148
十日 1148
大埔 1148
回返 1148
他来 1147
获奖 1147
医疗保健 1147
理所当然 1147
镁 1147
碱@@ 1147
德斯 1147
晋@@ 1147
颜@@ 1146
基础@@ 1146
赋@@ 1146
全美 1146
糊@@ 1146
园艺 1146
转子 1146
放慢 1146
合理性 1145
东南 1145
烷 1145
分层 1145
工件 1145
对准 1145
心目 1145
餐桌 1145
说不出 1145
钉子 1145
分类@@ 1145
公交车 1145
柏 1144
复活节 1144
耶稣基督 1144
布鲁@@ 1144
统计学 1144
熊猫 1144
Ｏ 1144
塘 1143
谱@@ 1143
工程项目 1143
有无 1143
粮@@ 1143
宏观经济 1143
义务教育 1143
高点 1143
ef@@ 1143
找寻 1143
黄昏 1143
中指 1143
二零零五年 1143
诈骗 1142
三人 1142
坦率 1142
镇定 1142
位居 1142
数组 1142
零售@@ 1142
呈@@ 1142
旺 1142
发件人 1142
钱财 1141
犹@@ 1141
反应堆 1141
大理石 1141
你家 1141
申明 1141
政变 1141
云南 1141
犯罪@@ 1141
人去 1141
班机 1141
劝@@ 1140
滑坡 1140
脆 1140
胎@@ 1140
剪切 1140
茶叶 1140
色谱 1140
赌 1140
最坏 1140
摇晃 1140
第四十@@ 1140
平板 1139
狠狠 1139
万分 1139
把头 1139
述@@ 1139
免于 1139
祭@@ 1139
注销 1139
鸡肉 1139
时所 1139
竭尽全力 1139
花儿 1139
雕@@ 1138
大大的 1138
在此之前 1138
饭菜 1138
关键因素 1138
受雇 1138
真是太 1138
肢体 1138
art 1138
其间 1138
偷走 1138
国民@@ 1138
阿里 1137
尘埃 1137
墓地 1137
赛跑 1136
海拔 1136
补助金 1136
夏日 1136
国家级 1136
详@@ 1136
马拉 1136
公元前 1136
开立 1136
脑海 1135
皮埃尔 1135
旅行者 1135
历史学家 1135
美景 1135
亡@@ 1135
罗斯福 1135
免疫系统 1134
葡萄@@ 1134
不久前 1134
亨@@ 1134
宁可 1134
打着 1134
之用 1134
值得@@ 1133
潜艇 1133
皱@@ 1133
匙 1133
歇 1133
蜜@@ 1133
英国政府 1133
五十年 1133
写入 1133
é 1133
後@@ 1133
着急 1132
摊 1132
叹@@ 1132
投票@@ 1132
下挫 1132
桃 1132
空闲 1132
罪孽 1132
爪 1132
敷@@ 1131
民间@@ 1131
搁置 1131
水位 1131
察觉 1131
谈起 1131
美容 1130
指针 1130
吞 1130
约瑟夫 1130
迁 1130
定为 1130
一一 1130
关门 1130
电力@@ 1130
出版@@ 1130
捡 1130
不能不 1130
并重 1130
承付 1130
点头 1129
人行道 1129
拉美 1129
良 1129
在世界上 1129
跳动 1129
盛大 1129
1974 1129
第一百@@ 1129
第二节 1129
第一节 1128
阵列 1128
措辞 1128
固执 1128
雄性 1128
ath@@ 1128
动性 1128
学年 1128
工作日 1128
下星期 1128
解剖 1127
智商 1127
通话 1127
溃疡 1127
能干 1127
北京市 1127
欧洲联盟 1127
文盲 1126
丛 1126
企 1126
陷于 1126
窃@@ 1126
路由 1126
被告人 1126
下放 1126
图象 1125
济@@ 1125
1976 1125
韦 1125
不小 1125
暴跌 1125
更正 1125
119 1125
美观 1124
疮 1124
嵌入 1124
予@@ 1124
纹理 1124
西装 1123
静电 1123
1500 1123
状语 1123
匮乏 1123
迈向 1123
本会 1123
山姆 1122
陷@@ 1122
堵塞 1122
新车 1122
维度 1122
一期 1122
词组 1122
如欲 1122
干吗 1121
可取 1121
小朋友 1121
时代@@ 1121
蹦@@ 1121
钢笔 1121
自然保护区 1120
晚宴 1120
左手 1120
烧伤 1120
亚历山大 1120
说服力 1120
土地利用 1120
ley 1120
贫 1120
虚伪 1120
学习者 1120
交通运输 1120
束@@ 1119
内部@@ 1119
总有一天 1119
波长 1119
衰@@ 1119
se@@ 1119
矿产 1119
赚取 1119
心血管 1119
反感 1118
ID 1118
合营 1118
本行政区域 1118
地下室 1117
随机@@ 1117
开发者 1117
姜@@ 1117
录取 1117
肖 1117
饥@@ 1117
南极洲 1117
贷 1117
中学生 1117
缠 1116
佛罗里达 1116
霉素 1116
CD@@ 1116
社会学 1116
加薪 1116
理事 1116
毁@@ 1115
晓@@ 1115
放开 1115
农业部 1115
捷@@ 1115
载入 1115
哈姆雷特 1115
这首 1115
伙 1115
任用 1115
课税 1115
宋@@ 1114
旅游者 1114
顺从 1114
完备 1114
过期 1114
核电站 1114
草莓 1114
辨认 1114
坊 1114
递 1114
挣钱 1114
吊 1114
帧 1114
粉红色 1113
辉@@ 1113
皱 1113
族@@ 1113
分辨率 1113
遗传算法 1113
自治领 1113
NBA 1113
高性能 1113
学说 1113
就读 1113
五天 1113
IP@@ 1112
公牛 1112
茨@@ 1112
老妇人 1112
围着 1112
纪念碑 1112
号召 1112
只见 1112
雌@@ 1112
日内 1112
天气预报 1111
转过身 1111
责任@@ 1111
张开 1111
趋@@ 1111
稀少 1111
遍布 1111
贩毒 1111
保险业 1111
国际性 1111
批出 1111
购物中心 1110
防水 1110
评分 1110
室外 1110
欧洲央行 1110
借用 1110
不知不觉 1110
九个 1110
ST@@ 1110
试用 1110
挑剔 1109
猎物 1109
迁徙 1109
歌词 1109
尔曼 1109
耐用 1109
举报 1109
排行榜 1109
第三期 1109
国境 1109
处所 1109
调查@@ 1109
缺损 1109
蒂娜 1108
罐@@ 1108
服役 1108
钦佩 1108
丢掉 1108
捧 1108
迈 1108
炭@@ 1108
合乎 1108
拢 1107
焚烧 1107
威力 1107
侍@@ 1107
卢萨卡 1107
一手 1106
掌管 1106
跟上 1106
驱使 1106
隐喻 1106
戴上 1106
英勇 1106
拉萨 1106
窒息 1106
四十 1106
正交 1105
整体@@ 1105
唇@@ 1105
并会 1105
短时间 1105
350 1105
梯 1105
及早 1105
强行 1104
赌@@ 1104
仔 1104
医治 1104
真心 1104
绵羊 1104
增长速度 1104
年青 1104
合办 1104
理会 1103
废止 1103
铬 1102
Ph@@ 1102
干得 1102
保姆 1102
高位 1102
亏@@ 1102
发生率 1102
殴打 1102
首脑会议 1102
油墨 1101
会令 1101
散射 1101
气管 1101
赢@@ 1101
许多年 1101
资金@@ 1101
汉字 1101
布里 1101
截面 1100
不朽 1100
无用 1100
打动 1100
ran@@ 1100
膳食 1100
第三十五条 1100
光亮 1099
印第安人 1099
衬衣 1099
苹果@@ 1099
丑陋 1099
las@@ 1099
哼 1099
太快 1099
水上 1099
指称 1099
沙龙 1099
公共利益 1099
200@@ 1099
应用@@ 1099
支派 1099
干脆 1098
偏好 1098
头疼 1098
Br@@ 1098
承担责任 1098
财务状况 1098
并进 1098
光电 1098
促 1098
军用 1098
泳@@ 1097
接入 1097
八十 1097
探险 1097
our@@ 1097
总和 1097
注册资本 1097
窝@@ 1096
渡 1096
粗暴 1096
耻辱 1096
长期@@ 1096
播种 1096
自发 1096
半夜 1096
半球 1096
福克 1096
地里 1095
瑞克 1095
熏@@ 1095
相对@@ 1095
飞快 1095
香料 1095
怕@@ 1095
企@@ 1095
这部分 1095
日益增长 1095
辨识 1095
陪@@ 1095
鸭子 1095
斯蒂@@ 1094
具体情况 1094
萨拉 1094
虚构 1094
家居 1094
瓦尔 1094
好几@@ 1094
过往 1094
ts 1094
统计@@ 1094
手腕 1093
矫@@ 1093
光盘 1093
验收 1093
兽@@ 1093
上游 1093
海浪 1093
高速@@ 1093
羞愧 1093
发展局 1093
吕@@ 1092
浮动 1092
一顶 1092
通用汽车 1092
打工 1092
远见 1092
盲 1092
Ｔ 1092
好奇心 1091
悬崖 1091
淘@@ 1091
照着 1091
声望 1091
能耗 1091
戴维 1091
手机@@ 1091
弄清楚 1091
捷 1091
新世纪 1091
各界 1091
眼球 1090
这颗 1090
美术 1090
传导 1090
存储@@ 1090
中性 1090
笔记本电脑 1090
106 1090
打量 1090
有理 1090
公共场所 1090
危险性 1089
花旗 1089
铀 1089
沙特 1089
家庭作业 1089
退回 1089
吵架 1089
天文学家 1089
肾脏 1089
出场 1089
抗议者 1088
独 1088
呼吸道 1088
亦@@ 1088
意想不到 1088
辨别 1088
学士学位 1088
学习网 1088
物质@@ 1087
詹@@ 1087
发怒 1087
修女 1087
背面 1087
东北部 1087
盛行 1087
回落 1087
刷@@ 1087
主宰 1087
谁@@ 1087
死后 1087
跟前 1087
相适应 1087
班级 1086
断言 1086
疏散 1086
切除术 1086
戴尔 1086
奖赏 1086
新近 1086
凤@@ 1086
肚@@ 1086
辩解 1086
非法@@ 1086
喝一杯 1086
多岁 1086
妹 1086
对外开放 1086
刑事@@ 1086
再现 1085
包装@@ 1085
牧场 1085
矢量 1085
语境 1085
炒@@ 1085
领导@@ 1085
新一轮 1085
总的来说 1085
听证会 1085
魔力 1085
安全带 1085
栅栏 1085
愁 1085
表示感谢 1085
婴 1084
疯子 1084
买入 1084
肥料 1084
慈@@ 1084
伍@@ 1084
空虚 1084
祝@@ 1084
网路 1083
袍 1083
初始化 1083
章@@ 1083
想一想 1083
书本 1083
里奥 1083
装载 1083
不下 1082
福祉 1082
恰好 1082
消遣 1082
1975 1082
肖@@ 1082
缓冲 1082
团聚 1082
美好@@ 1082
马耳他 1082
中央人民政府 1082
高手 1081
灌木 1081
一国 1081
深夜 1081
炒 1080
大腿 1080
蒙特@@ 1080
朋@@ 1080
一队 1080
轮子 1080
不开 1080
中级 1080
急速 1080
哈佛大学 1079
灭亡 1079
上层 1079
教科书 1079
有否 1079
优先权 1079
拳击 1079
期内 1079
中环 1079
宣誓 1079
偿付 1079
International 1079
列明 1079
血统 1078
火花 1078
播出 1078
筑@@ 1078
荒唐 1078
ah@@ 1078
103 1078
聋 1077
深厚 1077
着想 1077
裹 1077
根除 1077
不平 1077
不容@@ 1077
差额 1077
all 1077
米歇尔 1076
浇@@ 1076
前沿 1076
无家可归 1076
布尔 1076
电能 1076
楼下 1076
回信 1076
所有制 1076
中美 1076
非洲统一组织 1076
揭开 1075
语言学 1075
濒危 1075
喷 1075
钢板 1075
卡扎菲 1075
萃取 1075
惊恐 1075
孕 1075
溢 1075
国土 1075
绝缘 1075
ii 1075
本杰明 1074
德黑兰 1074
无能为力 1074
著称 1074
额度 1074
Col@@ 1074
时才 1074
计算结果 1074
闷 1073
辩 1073
大坝 1073
作弊 1073
Ex@@ 1073
缴@@ 1073
外籍 1073
拓扑 1073
强加 1073
邀 1073
制卡 1072
司法部 1072
耸@@ 1072
行进 1072
椎@@ 1071
车里 1071
同情心 1071
心爱 1071
申请者 1071
怎能 1071
塞内加尔 1071
星座 1071
引诱 1070
恒 1070
英文@@ 1070
移除 1070
出错 1070
wh@@ 1070
的士 1070
另行 1070
125 1070
怀里 1069
天体 1069
经理人 1069
之心 1069
揭@@ 1068
五岁 1068
闲 1068
保护主义 1068
付钱 1068
美国银行 1068
篮 1068
报告书 1068
滋味 1067
背部 1067
病因 1067
知识分子 1067
银子 1067
聊@@ 1067
计数 1067
直观 1067
合成@@ 1067
表中 1066
纠缠 1066
折叠 1066
正视 1066
平坦 1066
周到 1066
甘 1066
连续性 1066
前行 1066
饮水 1066
布拉 1066
高处 1066
多层 1066
放射 1066
111 1066
可知 1065
诠释 1065
怀念 1065
class7 1065
式样 1064
边际 1064
锥@@ 1064
椰@@ 1064
登机 1064
玻利维亚 1064
招呼 1064
服装@@ 1064
毯子 1064
拘捕 1064
直流 1063
制动 1063
wor@@ 1063
宽阔 1063
实验@@ 1063
德语 1063
很久以前 1063
仅次于 1063
留学生 1063
社会各界 1063
硬度 1062
热衷于 1062
年份 1062
羞辱 1062
生命@@ 1062
金融公司 1062
三项 1062
五分之一 1062
借钱 1062
帝@@ 1062
会否 1062
马里 1062
责任制 1062
监 1061
妄@@ 1061
筹划 1061
电力系统 1061
邪@@ 1061
超声波 1061
太棒了 1061
交替 1061
看好 1061
青年@@ 1061
商贸 1061
感官 1060
凝 1060
卡路里 1060
布鲁斯 1060
氟 1060
加盟 1060
逻辑@@ 1060
一则 1060
急切 1060
前去 1060
帝国主义 1060
钻井 1060
熄灭 1059
之物 1059
特别@@ 1059
永生 1059
他俩 1059
特纳 1059
得出结论 1059
五千 1059
藤 1059
锦标赛 1059
第三十一条 1059
偷偷 1058
妳 1058
韩 1058
外汇@@ 1058
上天 1058
耍 1057
IM@@ 1057
脱落 1057
括 1057
发展前景 1057
粪便 1057
制药 1057
好比 1057
所学 1057
役 1056
犯错 1056
业已 1056
喜好 1056
木板 1056
魂 1056
紊乱 1056
炎@@ 1056
世界纪录 1056
钛 1056
工地 1056
坚持不懈 1056
吸烟者 1056
15.@@ 1056
发脾气 1055
导入 1055
回升 1055
深海 1055
生计 1055
单据 1055
审计@@ 1055
无误 1055
皇 1055
材@@ 1055
逼近 1055
再用 1055
敲门 1054
滑动 1054
哑 1054
储量 1054
填妥 1054
法律援助 1054
第三十二条 1054
并不知道 1053
巴菲特 1053
私人@@ 1053
女工 1053
毁掉 1053
总算 1053
召回 1053
第一批 1053
ID@@ 1053
亚太经社会 1053
不尽 1052
人用 1052
叹息 1052
群落 1052
王室 1052
108 1052
为生 1052
逸 1052
阐释 1052
四大 1052
固定资产 1052
莲@@ 1052
ni@@ 1051
碑 1051
妓女 1051
溅 1051
稳步 1051
三角形 1051
招待会 1051
纤@@ 1051
170 1051
冰川 1050
卡塔尔 1050
寿@@ 1050
强烈@@ 1050
分段 1050
交战 1050
强力 1050
悄悄地 1050
17.@@ 1050
氨基酸 1050
普查 1050
乌龟 1050
前言 1049
后方 1049
婆@@ 1049
慎重 1049
区间 1049
履@@ 1049
国人 1049
用手 1049
第三十六条 1049
晒@@ 1048
年里 1048
布里@@ 1048
该是 1048
ne 1048
纬 1048
配有 1047
盈@@ 1047
项目管理 1047
葡萄糖 1047
迫 1047
科比 1047
次要 1047
拥 1047
衡 1047
长江 1047
羽@@ 1046
青春期 1046
国家队 1046
青岛 1046
要死 1046
欧美 1046
体制改革 1046
洋葱 1046
西藏自治区 1046
天真 1045
迎合 1045
AI@@ 1045
网友 1045
掌声 1045
基建 1045
财力 1045
巨型 1044
无尽 1044
这批 1044
只用 1044
畜@@ 1044
ff@@ 1043
水体 1043
访客 1043
全力以赴 1043
瓶颈 1043
修剪 1043
释 1043
细心 1043
无限期 1043
诱发 1043
生产工艺 1043
贵国 1043
各大 1042
邓@@ 1042
叮@@ 1042
往前走 1042
周期性 1042
事例 1042
重现 1042
骨髓 1042
领空 1042
售货员 1042
课文 1042
第二季度 1042
雾@@ 1041
专项 1041
数以千计 1041
向来 1041
粉丝 1041
亏 1041
iPhone 1041
西方人 1041
独立国 1041
那份 1040
惨 1040
为难 1040
交易员 1040
朝向 1040
利用率 1040
萨姆 1040
筑 1040
第三十八条 1040
公义 1039
转会 1039
沼泽 1039
再有 1039
新任 1039
体温 1039
不景气 1039
布料 1038
收敛 1038
剃@@ 1038
这有 1038
不及格 1038
九龙@@ 1038
接替 1038
苷 1038
遵行 1038
在建 1038
曲折 1037
那会 1037
失调 1037
盲人 1037
老爸 1037
面条 1037
矿工 1037
固体废物 1037
替@@ 1037
欧洲共同体 1037
游艇 1036
神父 1036
2012 1036
衣着 1036
活化 1036
地站 1036
诱人 1036
塞尔 1036
胁迫 1036
承包@@ 1036
笼子 1035
分子@@ 1035
惯@@ 1035
大学@@ 1035
莱斯 1035
魏@@ 1035
场上 1035
饱 1035
第四个 1035
铺设 1035
选区 1035
科研@@ 1035
说不定 1034
何况 1034
另一边 1034
布鲁塞尔 1034
平均水平 1034
专业化 1034
栏@@ 1034
相邻 1033
毫无意义 1033
不多 1033
挣@@ 1033
果然 1033
羞@@ 1033
笛 1033
颜料 1033
攀登 1033
引领 1033
颈部 1033
郊野 1033
遍@@ 1032
记忆@@ 1032
抢救 1032
付诸 1032
那段 1031
匀 1031
年长 1031
禽@@ 1031
很感兴趣 1031
袜 1030
最大化 1030
深入研究 1030
声响 1030
安全感 1030
地段 1030
格雷 1030
无形 1030
楚@@ 1030
司法机关 1030
电磁@@ 1030
证交所 1030
小儿 1030
区议会 1030
＇ 1030
河道 1029
心头 1029
钙@@ 1029
树干 1029
墓 1029
唯有 1029
现年 1029
皮特 1028
咖啡因 1028
贺@@ 1028
成都 1028
腹泻 1028
ance 1028
解体 1028
魂@@ 1028
大方 1028
汲取 1028
去年同期 1028
元朗 1028
把戏 1027
分级 1027
抽样 1027
公用 1027
趁 1027
臀部 1027
AP@@ 1027
急救 1027
西红柿 1026
做点 1026
导管 1026
真实性 1026
光子 1026
他家 1026
生命力 1026
入狱 1026
视作 1026
大通 1026
鲍尔森 1026
喝水 1026
复审 1026
第三届 1026
任择 1026
茅@@ 1025
用量 1025
拉特 1025
酸奶 1025
捉@@ 1025
沉降 1025
该处 1025
真想 1024
围巾 1024
追随 1024
固然 1024
油画 1024
适 1024
简述 1024
有事 1023
撑@@ 1023
受力 1023
捆 1023
需求量 1023
开花 1023
微微 1023
那块 1023
首个 1023
一滴 1023
鬼魂 1023
重心 1023
行情 1023
磁性 1023
管理体系 1023
屠@@ 1023
年期 1023
宰@@ 1022
高低 1022
不太好 1022
闸 1022
连接@@ 1022
律师@@ 1022
逝 1022
若有 1022
降雨 1021
平滑 1021
13.@@ 1021
钉@@ 1021
大不列颠 1021
剖析 1020
上尉 1020
端口 1020
饰@@ 1020
陆 1020
防火 1019
0.5 1019
和睦 1019
理应 1019
规章制度 1019
丑@@ 1019
昔日 1019
恼火 1019
写给 1019
退役 1019
先是 1019
报刊 1019
趋向 1018
韧性 1018
超重 1018
犯有 1018
阴暗 1018
ure 1018
抑@@ 1018
新书 1018
表示@@ 1018
所提 1018
农村@@ 1018
敢于 1017
穴 1017
亲身 1017
英俊 1017
平衡@@ 1017
意向 1017
喝咖啡 1017
发电厂 1017
身着 1016
充满活力 1016
轧 1016
泛滥 1016
乃@@ 1016
店主 1016
孟买 1016
维修@@ 1016
∕ 1016
疗 1015
荒凉 1015
嫩@@ 1015
礁 1015
性状 1015
遇上 1015
万英镑 1015
大部份 1015
议论 1014
契@@ 1014
仙 1014
火柴 1014
景点 1014
耗尽 1014
失眠 1014
并入 1014
异性 1013
敞@@ 1013
转达 1013
露西 1013
字样 1013
被称作 1013
宏伟 1012
依次 1012
鲸鱼 1012
史上 1012
旅 1012
投行 1012
私营企业 1012
早起 1012
im 1012
坑@@ 1012
果子 1012
闻到 1011
嫌疑犯 1011
先驱 1011
收割 1011
汇集 1011
数个 1011
蕾 1011
文斯 1011
棚@@ 1011
撤消 1011
喇叭 1010
上车 1010
并不需要 1010
寻 1010
一侧 1010
胰@@ 1010
南瓜 1010
较长 1010
扩建 1010
柱子 1010
戈尔 1010
游说 1010
斡旋 1010
骆驼 1010
第一款 1010
铃@@ 1009
雪花 1009
精力充沛 1009
轻而易举 1009
ip@@ 1009
骑车 1009
行长 1009
驰@@ 1009
笨@@ 1008
欧文 1008
挫败 1008
纳德 1008
批发 1008
转换成 1008
抉择 1008
侠 1007
加权 1007
落入 1007
硕士学位 1007
草稿 1007
固化 1007
助长 1007
稀释 1007
104 1007
应许 1006
煎@@ 1006
肢 1006
怨恨 1006
雀@@ 1006
警觉 1006
衰落 1006
晴朗 1006
连贯 1006
放学 1006
定语 1006
散文 1005
挡住 1005
九十@@ 1005
侦@@ 1005
Tr@@ 1005
面对面 1005
突发 1005
荒漠化 1005
中外合作 1005
甜美 1004
顽强 1004
战斗机 1004
内置 1004
克里 1004
打架 1004
就任 1004
何不 1004
脑筋 1003
颠覆 1003
城墙 1003
酸盐 1003
阴道 1003
处处 1003
过夜 1003
派别 1003
黑客 1003
名列 1003
参阅 1003
第五十 1003
打碎 1002
细微 1002
高端 1002
先例 1002
劫持 1002
落成 1002
挂钩 1002
亚特兰大 1002
程序员 1002
选择@@ 1002
润 1002
高级官员 1002
租约 1002
壁垒 1002
加利 1002
沉淀 1001
宪 1001
坪 1001
庆典 1001
MA@@ 1001
梦见 1001
胃口 1001
进口商 1001
中日 1001
所罗门 1001
联合国儿童基金会 1001
二零零三年 1001
彻 1000
世俗 1000
对照组 1000
心肌@@ 1000
翅 1000
蜜 1000
日报 1000
几分 1000
风机 1000
第四届 1000
全权 1000
煮@@ 999
棺材 999
海龟 999
CH@@ 999
双臂 999
沉浸 999
仓@@ 999
下定决心 999
耽搁 998
误会 998
福德 998
刃 998
多半 998
目击者 998
看重 998
坏人 998
豪 998
ess@@ 998
掏出 998
泉@@ 998
PS 998
色调 997
无助 997
存入 997
繁重 997
蒙古@@ 997
这款 997
一旁 997
订定 997
杯@@ 997
喀布尔 997
第一季度 997
详细资料 997
领土完整 997
分隔 996
伐@@ 996
刚度 996
嚼 996
体型 996
咖啡馆 996
沈@@ 996
漆@@ 996
入息 996
一角 995
听觉 995
水污染 995
楚 995
使用寿命 995
废气 995
俄语 995
求职者 995
欢 995
沸@@ 995
第三十三条 995
腿@@ 994
SE@@ 994
高空 994
税法 994
塞拉利昂 994
共用 994
关爱 994
海平面 993
削 993
IS 993
爱是 993
母鸡 993
愤@@ 993
大奖 993
保证金 993
坯 993
金星 992
柯 992
频谱 992
孕@@ 992
节制 992
尼亚@@ 992
腐烂 992
庙 992
进军 992
避孕 992
绿色@@ 992
发展观 992
我愿 992
驾驶执照 992
防疫 992
各族人民 992
胀 991
摆动 991
全能 991
矩形 991
大体上 991
缺口 991
移居 991
圣诞树 991
籽 991
滞后 991
各处 991
监督@@ 991
终了 991
三日 991
医务 991
兄弟姐妹 990
掺@@ 990
灯泡 990
醒@@ 990
ice 990
词义 990
八十@@ 990
空气@@ 989
小猫 989
该区 989
欧佩克 989
决不能 989
出入 989
自助 989
新闻稿 989
注册处 989
第三十九条 989
胖@@ 988
激 988
角膜 988
等离子体 988
投放 988
缩写 988
一线 988
图纸 988
逗@@ 988
国际公约 988
社会保险 988
拘役 988
㈢ 988
马铃薯 987
返 987
凉爽 987
珀 987
绳索 987
喂养 987
这艘 987
肃@@ 987
手头 987
怀有 987
更强 987
诈 987
怨 987
报答 987
译成 987
管辖权 987
毅力 986
纳粹 986
Ind@@ 986
塔尔 986
鹅 986
相近 986
生存@@ 986
限制性 986
近年 986
阿美 986
化妆 985
打字 985
卑@@ 985
小学生 985
魔术 985
一栋 985
奥林匹克运动会 985
哑@@ 984
画像 984
日出 984
柔性 984
用具 984
顶峰 984
不高 984
期盼 984
民事责任 984
欧洲委员会 984
白痴 983
迷路 983
直播 983
辣椒 983
绝大部分 983
袖@@ 983
实用@@ 983
不耐烦 983
采取有效 983
广西 983
洽谈 983
五日 983
体系结构 982
斥 982
纪念日 982
结婚@@ 982
ex 982
表达@@ 982
乞丐 982
莉莉 982
锋@@ 982
18.@@ 982
营办 982
矫正 981
荷尔蒙 981
厄立特里亚 981
佛罗里达州 981
原定 981
ｉ 981
不断扩大 980
悬浮 980
时装@@ 980
四肢 980
奢华 980
俯@@ 980
翠@@ 980
德里 980
衡@@ 980
就职 980
分销 980
环保署 980
吸血鬼 979
析@@ 979
全额 979
谜@@ 979
之夜 979
克拉@@ 978
一如既往 978
生育率 978
为首 978
真话 978
劲@@ 978
减排 978
Di@@ 978
委派 978
溶 978
留心 978
市场竞争 977
雇@@ 977
桂@@ 977
会以 977
加油站 977
筹款 977
达尔富尔 977
阿曼 977
浦@@ 977
未有 977
海丝特 977
生产性 977
第一件 977
aw@@ 976
腰带 976
法典 976
看不出 976
唤起 976
裁缝 976
谦虚 975
往事 975
圈子 975
赦免 975
继续下去 975
材质 975
凝聚 975
清真寺 975
破灭 975
呼声 975
罪案 975
杀虫剂 975
工党 974
前一天 974
血流 974
恐怖袭击 974
举例来说 974
马拉松 974
绘图 974
杂交 974
投影 974
梢 974
武士 973
丰盛 973
车库 973
劝说 973
转变成 973
熟知 973
兵力 973
总线 973
像素 973
经营范围 973
南太平洋 973
技艺 972
矿井 972
国会议员 972
箭@@ 972
兰德 972
一律 972
上场 972
时有 972
提早 972
五条 972
蓄意 971
人文@@ 971
洗涤 971
薪@@ 971
BP 971
贫困@@ 970
很久 970
另一半 970
芳 970
华盛顿@@ 970
产业@@ 970
搭档 970
里昂 970
污泥 970
全心全意 970
侯@@ 969
被困 969
峰值 969
捐献 969
漆黑 969
Gre@@ 969
末端 969
山地 969
合署 969
赞 968
悉 968
硕@@ 968
守卫 968
称号 968
促@@ 968
面料 968
潜意识 968
数十@@ 968
踢@@ 968
策@@ 968
民族区域 968
各派 968
第四十三条 968
受苦 967
琼@@ 967
中来 967
正向 967
仇 967
碍 967
并列 966
圣洁 966
采样 966
专长 966
布兰@@ 966
狂欢 966
译者 966
贯 966
敌军 966
现正 966
自决权 966
大面积 965
校准 965
乳房 965
凝固 965
德曼 965
阳台 965
朝鲜半岛 965
螺@@ 965
设计方案 965
小区 964
郊 964
雀 964
气愤 964
喻 964
电荷 964
唔 964
生机 964
全球@@ 964
财政年度 964
农民工 964
本篇 964
撒下 964
托克劳 964
无所谓 963
记下 963
杖 963
梨 963
这样一来 963
不带 963
熟练@@ 963
留住 963
居留 963
相识 963
民主党派 963
根深蒂固 962
靴 962
匿名 962
模糊@@ 962
雌性 962
作响 962
广播@@ 962
激增 962
非洲人 962
浦 962
此人 962
飞去 962
承载 962
园区 962
凯蒂 962
二十四 962
扭 961
地平线 961
勺 961
威尔逊 961
厌 961
怒气 961
看清 961
克鲁@@ 961
金矿 961
术@@ 961
完工 961
挥霍 961
渡过 961
写成 961
商谈 961
调研 961
ton 961
剧场 961
契 961
侧重 961
进城 961
八条 961
第四十一条 961
响声 960
扇@@ 960
弧 960
灵敏度 960
法测定 960
行者 960
口感 960
许许多多 960
渣@@ 960
复仇 960
ere 960
糟@@ 960
戴维斯 960
耕@@ 960
赠送 959
极化 959
笨拙 959
赌场 959
病房 959
纤维@@ 959
叉@@ 959
酵母 959
稳健 959
错误@@ 959
登记@@ 959
战时 959
分析@@ 959
上海市 959
玫瑰花 959
十四 958
储层 958
国产 958
贝蒂 958
溢@@ 958
或作 958
封建 958
蔑视 958
风俗 958
七十 958
全国@@ 958
数十年 957
下级 957
螺栓 957
勇 957
醒过来 957
巴里 957
器皿 957
大吃一惊 957
火炉 957
强制执行 957
TP 957
摆放 957
增加@@ 957
空袭 957
赶走 957
总计 957
出庭 957
侵略者 956
垃圾@@ 956
遵@@ 956
归来 955
越大 955
不规则 955
过早 955
开放@@ 955
行之有效 955
强国 955
折断 955
打仗 955
接吻 955
道路交通 955
韵 954
醚 954
银色 954
告终 954
回想 954
一排 954
有效途径 954
屏障 953
正试图 953
本世纪 953
劳动合同 953
军火 953
憎恨 952
不需 952
共存 952
战斗@@ 952
克莱 952
咕@@ 952
完好 952
侍者 952
份子 952
飞越 952
那间 952
管理条例 952
107 952
拳@@ 951
羊群 951
地问 951
卜 951
蓬勃发展 951
Kh@@ 951
中途 951
党的@@ 951
表面@@ 951
钢管 951
打听 950
脱水 950
十八@@ 950
似地 950
霍 950
海鲜 950
堡垒 950
死神 950
点子 950
沉闷 950
怪异 950
心理健康 950
中央军事委员会 950
可口 949
证券市场 949
接触@@ 949
工作室 949
短片 949
该市 949
隐患 949
骤@@ 949
救护车 949
运到 949
谈及 949
越是 949
职业病 949
标的 949
Stanley 949
东斯 949
父母亲 948
坦诚 948
普遍存在 948
阴 948
知晓 948
大力@@ 948
毛泽东 948
各个方面 948
220 948
恋人 948
狡猾 947
难堪 947
祸@@ 947
甜点 947
篱笆 947
一棵树 947
构思 947
缩水 947
不致 947
ach@@ 947
关节炎 946
转到 946
克什米尔 946
侵占 946
林中 946
宗教@@ 946
献身 946
Jo@@ 946
缺血 946
独资 946
 946
慌@@ 945
坐落 945
工夫 945
园林 945
风度 945
涩 945
砍伐 945
常数 945
利斯 945
盼 945
扼杀 945
罚金 945
顶点 945
战略性 945
归属 945
遣散 945
此案 945
旺盛 944
高精度 944
遗传@@ 944
琪 944
检获 944
共同利益 944
om 944
脸颊 943
斯蒂芬 943
交织 943
PE@@ 943
外币 943
遗迹 943
原始@@ 943
资历 943
教育部 943
巨大@@ 943
积蓄 942
发热 942
照样 942
电视剧 942
疑惑 942
可用性 942
面谈 942
受灾 942
450 942
中英文 942
第九 942
两国人民 942
• 942
桨 941
佩戴 941
氨@@ 941
yn@@ 941
社会科学 941
应是 941
停泊 941
暗淡 941
空洞 941
步枪 941
一心 941
进口@@ 941
市场营销 941
减至 941
跪 940
不知@@ 940
闯入 940
镶@@ 940
肥沃 940
倒下 940
奏效 940
反叛 940
琼 940
日本政府 940
武术 940
中外 940
西尔 940
香港大学 940
国家标准 940
每届 940
往前 939
矩 939
论者 939
低价 939
威尼斯 939
德国@@ 939
乐团 939
侵袭 939
美貌 939
谋生 938
健身房 938
分校 938
奈 938
MP@@ 938
软骨 938
曼哈顿 938
贝克 938
清偿 938
con@@ 938
阿拉伯人 938
联合体 938
反倾销税 938
凶 937
电动机 937
115 937
无可 937
鞭@@ 937
禽 937
读过 937
各部 937
葛 937
玛利亚 937
唤 936
藤@@ 936
偏爱 936
轻型 936
脂肪酸 936
炮弹 936
态势 936
失明 936
偷窃 936
遗留 936
黑板 936
别说 935
ph@@ 935
洗衣机 935
起誓 935
呕吐 935
AP 935
苦苦 935
在生活中 935
荫 935
率先 935
特派团 935
贱 934
栽@@ 934
农历 934
分行 934
细小 934
危 934
恐怖@@ 934
事实证明 934
瑞德 934
动力@@ 934
省略 934
总体@@ 934
天鹅 933
自大 933
位子 933
刊@@ 933
仰望 933
普斯 933
取胜 933
甲基 933
日落 933
办公时间 933
教资会 933
搞定 932
招致 932
越发 932
蚊@@ 932
横 932
胚@@ 932
拉克 932
一来 932
ler 932
有如 932
童话 932
收紧 932
玄@@ 931
酒类 931
蒋@@ 931
披 931
达尔 931
几内亚 931
淋 931
募集 931
有幸 931
报盘 931
丘 930
时应 930
并非如此 930
烹调 930
者@@ 930
传闻 930
西北部 930
和谈 930
壁炉 930
保住 929
上传 929
自称 929
写信给 929
官僚 929
裂变 929
收听 929
沃尔玛 929
西南部 928
款待 928
争斗 928
着装 928
Sch@@ 928
近几个月 928
for@@ 928
卑鄙 928
转弯 928
偏远 928
一两个 927
摄取 927
党内 927
摩尔 927
投资人 927
迫切需要 927
防洪 927
Sachs 927
珀@@ 926
牌子 926
滞 926
杠 926
ich@@ 926
一扇 926
一幕 926
博士学位 926
伤残 926
局限于 926
公会 926
帐目 926
ung 926
便士 925
践踏 925
飞行器 925
西斯 925
三聚氰胺 925
祥 925
洗手间 925
番茄 925
哮喘 925
坚果 925
三是 925
躺@@ 924
摇摆 924
UN@@ 924
废弃物 924
致敬 924
ore 924
无线@@ 924
村里 924
co 924
援@@ 924
852 924
献上 923
霸 923
分明 923
豹 923
中小 923
翼@@ 923
哄 923
料到 923
抱负 923
之手 923
闹钟 923
az@@ 923
管局 923
同级 923
房利美 923
收于 923
剧作家 922
饶 922
ill@@ 922
难看 922
ue 922
在世 922
缀 922
贸@@ 922
先行 922
粮食@@ 922
JP 922
向着 921
套房 921
记号 921
撒哈拉 921
巧合 921
预售 921
无关紧要 921
挽回 921
下达 921
搭乘 921
存储器 921
活儿 921
雪莉 921
马达 921
生活费 921
承 920
格言 920
计算公式 920
基质 920
奶牛 920
震撼 920
商家 920
学好 920
乔丹 920
小贩 920
气泡 920
专利@@ 920
努力学习 920
广播电台 920
注资 920
管子 919
得益于 919
惠 919
测量@@ 919
全然 919
博览会 919
养育 919
改编 919
账@@ 919
柴 919
哲@@ 919
哈哈 919
模态 919
因应 919
age 919
发货 919
斟酌 919
第八章 919
水泵 918
不同寻常 918
监护 918
王朝 918
归于 918
伤痛 918
掩护 918
围墙 918
甲烷 918
体贴 918
士气 918
淫 918
天黑 918
胸前 917
介词 917
波多黎各 917
涅@@ 917
ant@@ 917
眉 917
IC 917
校友 917
绿茶 917
一幢 917
中国日报 917
辰 917
系统地 916
狩猎 916
可视化 916
互补 916
鳞@@ 916
两分钟 916
ew 916
居所 916
羊羔 916
常任 916
致以 915
栖@@ 915
房门 915
缠@@ 915
石块 915
应聘 915
药剂 915
以供 915
驾驶@@ 915
环境卫生 915
婚前 915
牵引 914
喷射 914
畔 914
贞@@ 914
冯@@ 914
招生 914
打字机 914
灌注 914
角度看 913
想不到 913
后裔 913
瞬@@ 913
恐 913
应收 913
外貌 913
许诺 913
苹果公司 913
甩 913
瓦解 913
歧视性 913
听懂 913
轮椅 913
重要@@ 913
一大@@ 913
筋@@ 913
使劲 913
德勒 913
场馆 913
必需品 912
特殊性 912
民事诉讼 912
点火 912
屏蔽 912
欣 912
一世 912
太空@@ 912
撑 912
电信@@ 912
Cha@@ 912
惟有 912
麻疹 912
贮@@ 912
代数 912
难怪 912
谓语 912
师傅 911
渗 911
ash@@ 911
乔布斯 911
访华 911
劣@@ 911
捕捞 911
自力更生 911
大熊猫 911
沉没 911
宇 911
文件@@ 911
风光 910
其一 910
深渊 910
裸体 910
首饰 910
光碟 910
跨境 910
飞过 910
凝视着 910
开火 910
节约@@ 910
派驻 910
略有 909
道义 909
带宽 909
撕裂 909
普遍认为 909
花瓣 909
失败者 909
仇@@ 909
我想 909
整数 909
造影 909
ment 909
嘉 909
新手 908
挤满 908
水电 908
玛丽@@ 908
梭@@ 908
必备 908
脊 908
冗长 908
靴子 908
分析家 908
更多地 908
想得到 908
四季 908
石墨 908
可不可以 908
胡萝卜 908
牛顿 908
份@@ 908
112 908
为本 908
旧约 908
合法@@ 908
class8 908
阔 907
热潮 907
克莱尔 907
茱@@ 907
适时 907
民意调查 907
一节 907
碳酸@@ 907
ee 907
7.5 907
毗邻 907
最高人民法院 907
不知所措 906
卡罗 906
流畅 906
中国银行 906
枢纽 906
归功于 906
长短 905
蠢 905
几小时 905
三岁 905
选拔 905
筷子 905
杂货店 905
缴费 905
放大器 905
中年 905
年会 905
活塞 904
叙 904
第九@@ 904
1950 904
道琼斯 904
电气@@ 904
请教 904
喝点 904
第四十五 904
鼎@@ 903
在座 903
筒@@ 903
脊髓 903
情书 903
哎 903
追加 903
救生@@ 903
早些 903
关键在于 903
遗弃 902
幅@@ 902
老式 902
光源 902
生命周期 902
机车 902
津 902
痊愈 902
迟钝 902
各式各样 902
时而 902
设计者 902
斑点 902
液化 902
暨 902
该股 902
皆@@ 901
规划@@ 901
互惠 901
茄@@ 901
颈@@ 901
污 901
核心@@ 901
受益者 901
换言之 901
唐太斯 901
渔夫 900
塑料袋 900
被控 900
女郎 900
平和 900
音量 900
危急 900
明确规定 900
缴款 900
L1 900
以人为本 899
田地 899
艰辛 899
坏习惯 899
人身@@ 899
开个 899
得主 899
摘 899
对本 899
照会 899
艺人 898
喝醉 898
穿梭 898
螺旋@@ 898
ox 898
牛津 898
照耀 898
集中精力 898
旺@@ 898
吉利 898
霍乱 898
巴赫 898
稻@@ 898
一岁 898
殿@@ 898
成本@@ 898
参看 898
浙江 898
复员 898
自治县 898
寓@@ 897
之力 897
扰动 897
令人兴奋 897
人则 897
向前走 897
人口普查 897
迷恋 896
有效@@ 896
奥斯@@ 896
百万富翁 896
优惠政策 896
指导意义 896
霍华德 896
反向 896
性关系 896
旷@@ 896
润滑油 896
水务 896
轧@@ 895
线圈 895
泵@@ 895
纱@@ 895
小波 895
柠檬 895
克莱斯勒 895
新政府 895
集结 895
更进一步 895
动态@@ 895
第二阶段 895
饭馆 895
4.5 895
转播 894
推向 894
大学毕业 894
两性 894
移动电话 894
新奇 894
枯竭 894
我本 894
征得 894
注射液 894
地震@@ 894
砰 893
自有 893
沐浴 893
塑 893
凡事 893
贸 893
溪 892
较差 892
填料 892
堆积 892
寺庙 892
纠@@ 892
为重 892
检查@@ 892
揽 892
秒钟 892
事是 892
忌@@ 892
灵敏 892
专业知识 892
失落 892
资产阶级 892
恋@@ 892
极其重要 892
大风 891
视频@@ 891
电容 891
掠 891
答辩 891
君王 891
神经系统 891
草药 891
妆 891
本领 891
挤出 891
赛场 891
馅饼 891
用户界面 891
本体 891
福利@@ 891
第四十二条 891
拉开 890
故乡 890
预处理 890
多糖 890
客机 890
下台 890
气动 890
两国关系 890
皮带 890
初中 890
est 890
晓 890
橄榄球 890
特工 890
财经 890
大山 890
五百 890
舰@@ 889
高雅 889
寸 889
源性 889
昌 889
基因组 889
仰 889
拦@@ 889
绒@@ 889
指挥@@ 889
心肌 889
吓坏 889
来时 889
乌鸦 888
见识 888
掀起 888
横跨 888
性爱 888
阵营 888
君子 888
兄 888
遂 888
背包 888
重伤 888
工资@@ 888
主办@@ 888
碳水化合物 888
几十 888
察看 888
匪 888
叫醒 888
入住 888
优秀@@ 888
德纳 888
心事 887
卫生间 887
理论依据 887
罐头 887
深沉 887
犯错误 887
谈判@@ 887
养活 887
运往 887
膨@@ 887
充 887
梯子 887
紫 887
Par@@ 887
螺纹 887
和平利用 887
带子 886
最高@@ 886
使馆 886
诽谤 886
丰收 886
隐蔽 886
第二年 886
贝尔斯 886
练@@ 886
徵@@ 886
网民 886
一万@@ 886
外围 886
到位 886
机电 886
1.2 886
小型张 886
enn@@ 885
光束 885
律@@ 885
另一只 885
阳性 885
大屠杀 885
第一年 885
谦卑 885
后天 885
仔@@ 885
澡 885
多伦多 885
CT@@ 885
扯@@ 885
身影 885
oun@@ 885
子系统 885
进取 884
2011 884
除掉 884
BBC 884
生物学家 884
乐曲 884
鸭@@ 884
全盘 884
满怀 884
富于 884
抽取 884
贤 884
推开 884
Me@@ 884
刘 884
印度洋 884
该司 884
迈阿密 883
严谨 883
斯塔@@ 883
起因 883
降价 883
访谈 883
困苦 883
信号@@ 883
顶上 882
狭隘 882
曲子 882
矿物质 882
补偿@@ 882
感到高兴 882
老兄 882
举个 882
望去 882
现况 882
小企业 882
合众国 882
请原谅 882
涂抹 881
边坡 881
re 881
袖 881
取缔 881
改建 881
大意 881
牢记 881
第四十四条 881
第二次世界大战 880
梦境 880
概念@@ 880
喉 880
19.@@ 880
伍德 880
勒斯 880
芬芳 880
罐子 880
世界性 880
信奉 880
邮报 880
分散@@ 880
斯科特 880
恐@@ 880
烧毁 880
芭@@ 880
4000 880
谢意 880
结构调整 880
技术转让 880
万圣节 879
纬@@ 879
更快 879
之久 879
阿拉伯语 879
奥尔@@ 879
西安 879
自负 879
表单 879
一九九@@ 879
enc@@ 879
整夜 879
申领 879
总协定 879
估@@ 878
利润率 878
得救 878
复数 878
特尔 878
纤维素 878
完全@@ 878
宝座 878
参与@@ 878
莉亚 878
The 878
Ber@@ 877
雪橇 877
数十亿美元 877
薯条 877
常有 877
转折点 877
国界 877
根基 877
赐予 877
倾 877
搬进 877
膝@@ 877
100@@ 877
检察 877
二十五 877
波斯 876
大树 876
蒂斯 876
高等法院 876
言辞 876
睹 876
iv@@ 876
必有 876
一年@@ 876
进一步提高 876
集成电路 876
受人 876
承租人 876
门槛 875
苛刻 875
剖@@ 875
音调 875
肺部 875
凋亡 875
置评 875
有意识 875
金正日 875
老公 875
旦 875
烯@@ 875
底线 874
ME@@ 874
规避 874
化解 874
逝世 874
电车 874
爽@@ 874
秃@@ 874
anc@@ 874
驯@@ 874
泼@@ 874
泄@@ 874
每星期 874
水印 874
阈值 874
建设@@ 874
大堂 874
额头 874
卫生防护 874
备有 873
漂浮 873
堵@@ 873
仍会 873
ks 873
社会化 873
证券@@ 873
四点 873
发泄 873
正确@@ 873
及格 873
企鹅 872
渍 872
专栏 872
主导地位 872
喊叫 872
拘禁 872
警戒 872
厚厚的 872
粘土 872
扫除 872
反应器 872
戈登 872
第三十七条 872
热切 871
彩票 871
116 871
派系 871
一大批 871
冷水 871
节俭 871
周刊 871
花生 871
禁试 871
西蒙 870
驻扎 870
排球 870
稽@@ 870
打球 870
平壤 870
门户 870
挽@@ 870
加利福尼亚州 870
ati@@ 870
代表大会 870
怜@@ 870
抛售 870
刑事诉讼 870
四分之三 870
民事行为 870
剪辑 869
发行@@ 869
逐年 869
纽带 869
捉 869
早先 869
机智 869
穗 869
翩@@ 869
繁多 869
深水 869
倾销 869
产值 869
郎@@ 868
性情 868
德里克 868
修道院 868
顶尖 868
克利 868
环形 868
达尔文 868
亵渎 868
航天@@ 868
卡拉@@ 868
再造 868
重重 868
武汉 868
瞎@@ 867
溢出 867
工艺@@ 867
两者之间 867
不大可能 867
叙事 867
信用@@ 867
革命@@ 867
诸 867
大力支持 867
斐济 867
西雅图 866
顿时 866
一瞬间 866
唑 866
抚摸 866
乾 866
哀悼 866
佐 866
小队 866
沾 866
搬运 866
二元 866
西贡 866
Ed@@ 865
通货膨胀率 865
滑冰 865
昏迷 865
编辑器 865
忧愁 865
课程@@ 865
蝙蝠 865
四次 865
讨好 865
坡@@ 865
中东地区 865
冲浪 865
筛@@ 865
新政 865
俘虏 865
抗原 865
风筝 865
热处理 865
地望 865
渔民 864
违规 864
差错 864
酬 864
思想家 864
闪耀 864
高价 864
拇指 864
选举权 864
海员 864
互换 864
炉子 864
书上 864
循@@ 864
记入 864
反射@@ 863
Mac@@ 863
无常 863
拳头 863
1972 863
公平@@ 863
拷贝 863
最受 863
趁@@ 863
慕 863
水利 863
符合国家 863
培 863
户口 863
块钱 863
畏@@ 862
浊 862
巴拉克 862
掠夺 862
衰竭 862
第三季度 862
斯坦@@ 862
踢球 862
迪拜 862
嫌 862
增值税 862
马拉维 862
族群 862
世代 862
更为重要 861
椭圆 861
橱窗 861
布斯 861
电站 861
套装 861
购买力 861
美国公司 861
四川省 861
增殖 861
辅 861
利士 861
多种@@ 861
滥用职权 861
七岁 860
鳄鱼 860
振荡 860
罪人 860
公吨 860
自如 860
缓冲区 860
笨蛋 860
俚语 860
经验丰富 860
过大 860
教师@@ 860
阿拉斯加 860
次日 860
诉诸 860
偷运 860
贷@@ 860
二零零八年 860
流浪 859
硫酸 859
孩童 859
香草 859
蚕@@ 859
句话 859
莫过于 859
仿 859
订婚 859
自治州 859
铝合金 859
餐具 858
行车 858
富豪 858
ann@@ 858
所要 858
测量师 858
十六 858
确有 858
语调 858
瘟疫 858
脑海中 858
霞 858
马尔 858
刹@@ 857
起始 857
营救 857
上部 857
破损 857
玉米@@ 857
灾祸 857
左侧 857
霉 857
涡@@ 857
李先生 857
借款人 857
Ac@@ 857
杉 857
ence 857
提供者 857
盒@@ 857
作好 857
无核武器 857
Goldman 857
覆盖@@ 856
趣味 856
耕种 856
遇难 856
独有 856
何等 856
贫困人口 856
老百姓 856
橱 856
无奈 856
化肥 856
贤@@ 856
Wor@@ 856
麻醉品 856
浓郁 855
铸铁 855
老年@@ 855
定居点 855
立陶宛 855
闪 855
推动力 855
耳机 855
无穷 855
切勿 855
宽敞 855
十分之一 855
开通 855
票价 855
股息 855
足球比赛 855
切削 855
199 855
页@@ 854
杂质 854
售卖 854
内核 854
幸存 854
贩 854
流水 854
赞助商 854
美化 854
摸索 854
时间@@ 854
模范 854
核裁军 854
出发点 853
储 853
鞘 853
每一件 853
半径 853
日语 853
阻抗 853
之意 853
露营 853
饮食习惯 853
躯体 853
内疚 853
买主 853
每天晚上 853
综合@@ 853
张贴 853
忠 853
狱 853
矿区 853
廉@@ 853
须要 853
We 853
征兆 852
恶作剧 852
教员 852
萧@@ 852
金发 852
立案 852
新闻记者 852
付清 852
地用 852
平面@@ 852
ht@@ 852
托运 852
运载 852
干杯 852
太远 851
登山 851
MS 851
衰 851
摇头 851
热带@@ 851
亚瑟 851
专制 851
石化 851
萨尔 851
颂@@ 851
字眼 851
品格 851
监理 851
货柜 851
所作所为 850
参赛者 850
浓厚 850
勃勃 850
残暴 850
国防部长 850
一束 850
随身携带 850
如意 850
足迹 850
趣@@ 850
并存 850
盖子 850
双层 850
识别@@ 850
界别 850
整套 850
报送 850
管家 849
多功能 849
轮机 849
波罗的海 849
过热 849
利亚@@ 849
东南部 849
机动车 849
放映 849
第四十条 849
以致于 848
宠@@ 848
高技术 848
密封@@ 848
擅@@ 848
编纂 848
多变 848
TS 848
娥 848
第一项 848
增设 848
电费 848
114 848
航道 847
pp@@ 847
退缩 847
无能 847
电子产品 847
身体@@ 847
裸@@ 847
por@@ 847
很差 847
公益 847
不人道 847
粘度 847
阁 846
凯文 846
解决@@ 846
传播@@ 846
心肠 846
下个 846
堵 846
危险品 846
那本 846
打猎 846
养老 846
无益 846
拉姆 846
农场主 846
已于 846
相辅相成 846
衔接 846
晴 846
独立自主 846
第四十六 846
土族 846
佬 845
并不一定 845
质量标准 845
Bri@@ 845
粥 845
矿石 845
转速 845
分配@@ 845
俊@@ 845
四天 845
减去 845
起居室 845
增长@@ 845
橡树 845
DE@@ 845
安全措施 845
武器装备 845
之声 845
化学武器 845
小汽车 845
所定 845
画廊 844
憎恶 844
谐波 844
瞪 844
提取物 844
产业结构 844
特异性 844
嗓音 844
无忧 844
pro@@ 844
高度@@ 844
三百@@ 844
Richard 844
斯洛文尼亚 844
企业法人 844
已久 843
房里 843
避难所 843
地质@@ 843
压缩机 843
碱性 843
骨架 843
浑@@ 843
晚安 843
有点像 843
起义 843
屡@@ 843
交出 843
便捷 843
辐射@@ 843
关头 843
甲状腺 843
开朗 843
腺@@ 843
污水处理 843
可行性研究 843
内罗毕 842
开阔 842
上床睡觉 842
共同点 842
掉下来 842
三家 842
240 842
首日封 842
不切实际 841
阅@@ 841
帽@@ 841
服务费 841
门诊 841
故障诊断 841
巴克 841
一个多 841
希特勒 841
台词 841
神气 841
怎@@ 841
得体 841
南海 841
交叉@@ 841
一模一样 841
地主 841
听证 841
评选 841
一概 841
通胀率 841
庭院 840
普通话 840
高品质 840
拟合 840
用户@@ 840
同位素 840
租户 840
印刷@@ 840
com@@ 840
蔡@@ 840
团伙 839
崩@@ 839
氨 839
强势 839
灯塔 839
上瘾 839
哄@@ 839
品位 839
锚 839
修好 839
拼 839
工艺品 839
当地政府 839
1977 839
低头 838
坚 838
触犯 838
妖@@ 838
有形 838
两党 838
批评家 838
放贷 838
挨 838
言论自由 838
两旁 838
向外 838
正常化 838
烧结 838
做爱 838
检查一下 838
平方公里 838
街市 838
PA 837
技术支持 837
校园@@ 837
室@@ 837
代词 837
坎 837
一端 837
Cla@@ 837
门上 837
说得对 837
公司债券 837
学系 837
表层 836
震荡 836
手持 836
往后 836
出版商 836
副词 836
母牛 836
厄 836
一般而言 836
惩治 836
那好 836
深表 836
幻觉 835
拉斯维加斯 835
伟人 835
钟声 835
纽约时报 835
嘶@@ 835
择@@ 835
太阳系 835
封建@@ 834
GPS 834
方位 834
十六@@ 834
萝@@ 834
拥护 834
疾 834
瓷器 834
电场 834
司令部 834
事要 833
耀眼 833
歇@@ 833
万能 833
远比 833
侨@@ 833
下落 833
一年一度 833
东南@@ 833
分立 833
滨@@ 832
霍尔 832
歪曲 832
噩梦 832
pr@@ 832
优越性 832
上路 832
遍及 832
白血病 832
老挝 832
公司章程 832
以东 832
耐力 831
交朋友 831
激动人心 831
秘@@ 831
传授 831
亮度 831
礼拜@@ 831
会场 831
好意 831
Mon@@ 831
打招呼 831
汪@@ 831
闯@@ 831
一月份 831
黄河 831
雨量 831
产业化 831
复方 831
而生 831
玲 830
芦@@ 830
摔倒 830
菜肴 830
存有 830
Char@@ 830
路过 830
几句话 830
广播公司 830
非洲@@ 830
一百零@@ 830
瞧瞧 829
墓@@ 829
酸钠 829
系统性 829
外国@@ 829
变质 829
金融中心 829
大力发展 829
逼@@ 829
出生率 829
总而言之 829
You 829
四十八条 829
海岸线 828
无意识 828
已故 828
Cor@@ 828
食谱 828
封装 828
访问@@ 828
滤 828
资料库 828
饮品 828
淹死 828
亚洲地区 828
再来 828
第三节 828
带入 827
先天性 827
激光器 827
花粉 827
圣地 827
热情@@ 827
离家 827
致意 827
足球赛 827
零食 827
劳力 827
一回 826
出行 826
噪 826
对系统 826
萨达姆 826
外科手术 826
摇滚 826
转入 826
独家 826
归因于 826
鹦鹉 826
打下 826
趟 826
赴@@ 826
轴向 826
治安管理 826
挪用 826
123 826
富兰克林 825
酰胺 825
例证 825
焦急 825
尼尔 825
孕育 825
造福 825
孔子 825
镑 825
曹@@ 825
觉醒 825
刚果 825
闪亮 825
all@@ 825
回顾性 825
诉讼法 825
香肠 824
成瘾 824
列国 824
芝 824
神色 824
质地 824
扫罗 824
Mo@@ 824
器械 824
本局 824
所列 823
一块儿 823
魄 823
浮现 823
座椅 823
俱@@ 823
缓缓 823
禁用 823
显微 823
季节性 823
监测@@ 823
直升飞机 823
君@@ 823
巫师 823
精品 823
眼看 823
僵硬 823
才干 823
价格指数 823
着火 823
6000 823
122 823
愈来愈 823
国际标准 823
血浆 822
慈善机构 822
陆续 822
未婚 822
膀胱 822
巴斯 822
蓬@@ 822
陈列 822
长着 822
字节 822
察@@ 822
国际原子能机构 822
第四十七条 822
栽 821
灯笼 821
穿透 821
头盔 821
蜗牛 821
弦@@ 821
晴@@ 821
名言 821
荧@@ 821
圣地亚哥 821
军团 821
热忱 821
毒药 821
篇章 821
古罗马 821
泄 821
歉意 821
医疗机构 821
欢笑 821
he@@ 821
岸上 821
等效 821
驰 821
第三者 821
老龄 821
法团 821
抑或 820
高高的 820
中所 820
心底 820
结构设计 820
客运 820
逐步@@ 820
不良反应 820
金刚石 820
一桩 820
主要@@ 820
厄@@ 820
智者 820
RA@@ 820
艳 820
银行业务 820
技术创新 820
录制 820
脸部 820
省钱 820
MS@@ 820
应由 820
岳@@ 820
ａ 820
足球队 819
蜂 819
贸易顺差 819
哟 819
秉@@ 819
评述 819
口服 819
铁矿 819
致死 819
脚趾 819
可悲 819
降温 819
绕过 819
台湾@@ 819
严格@@ 819
职系 819
用尽 819
国营 819
费力 818
明信片 818
拽 818
衰减 818
庄园 818
孝@@ 818
相干 818
车型 818
大蒜 818
追寻 818
预知 818
销路 818
会议记录 818
书法 817
陈旧 817
咽@@ 817
高风险 817
零钱 817
土地@@ 817
奄@@ 817
大屿山 817
心智 816
骗@@ 816
公关 816
斯塔 816
亚马逊 816
小丑 816
樱桃 816
储藏 816
空间站 816
湿润 816
蘑菇 816
姆斯 816
六日 816
违例 816
滋@@ 815
Facebook 815
松弛 815
嵌入式 815
升温 815
趋 815
悦 815
灌输 815
无法忍受 815
究@@ 815
AB@@ 815
卸 815
效劳 815
倒退 815
默默地 815
睡衣 815
我花 815
不着 815
究 815
颁奖典礼 815
周岁 815
梳理 815
安息 815
存档 815
政务 815
that 815
找回 814
气旋 814
某种意义 814
客车 814
包容 814
瑞士@@ 814
犹 814
较少 814
外科医生 814
山东 814
北美洲 814
四日 814
各区 814
底特律 813
拉登 813
激光@@ 813
世界大战 813
小溪 813
纾 813
咳 813
表现@@ 813
360 813
小组@@ 813
巴巴多斯 813
准备金 813
生来 813
诊治 813
询@@ 813
20.@@ 813
膏@@ 812
幻 812
汹涌 812
嗅觉 812
读完 812
外加 812
四十年 812
贵重 812
新鲜空气 812
民法 812
弊端 812
145 812
暗中 812
亿英镑 812
外边 811
浸泡 811
化学反应 811
懂@@ 811
自行@@ 811
贬低 811
保持@@ 811
书面通知 811
色谱法 811
更佳 811
沉睡 810
嗓子 810
遮住 810
气压 810
年报 810
殷勤 810
虫子 810
乡间 810
语言@@ 810
稀有 810
年限 810
露丝 810
ut 810
翻译成 809
下雪 809
商用 809
作曲家 809
BC 809
公共交通 809
白雪公主 809
顾虑 809
哎呀 809
打来 809
itt@@ 809
遣 809
药材 809
一阵子 808
孩@@ 808
捏 808
稀 808
好评 808
撤军 808
前门 808
族人 808
纯净 808
阶@@ 808
返还 808
ABC 808
原发性 808
香港中文大学 808
多谢 807
蕴@@ 807
右侧 807
叙@@ 807
驱散 807
钳 807
流行病学 807
光照 807
理学 807
最差 807
耕作 807
珠儿 807
瑞银 807
每逢 807
128 807
高等@@ 807
发生@@ 807
肿@@ 806
球菌 806
刚性 806
法国@@ 806
调查报告 806
吞噬 806
崔@@ 806
收盘 806
纲 806
尔森 806
活下去 806
图示 806
吉尔吉斯斯坦 806
实施细则 806
筛 805
共度 805
软件开发 805
脊柱 805
共鸣 805
该校 805
客观@@ 805
公安 805
参考资料 805
水性 805
灌 805
则@@ 805
含糊 805
蹲 805
测绘 805
一代人 805
旱灾 805
免遭 805
中秋节 805
ank 805
烟草专卖 805
开放式 804
劳拉 804
咆哮 804
职场 804
踢足球 804
货币@@ 804
man@@ 804
生产国 804
巨星 804
50@@ 804
感性 803
欢快 803
绵 803
该法 803
咨询服务 803
剂@@ 803
今天上午 803
麻木 803
三角洲 803
五分 803
貌 803
脚踝 803
ony 803
徒劳 802
体质 802
保守派 802
至多 802
盎司 802
一切@@ 802
病症 802
有线电视 802
作法 802
戴安娜 802
最深 802
穆 802
不善 802
自律 802
仑 802
慢跑 802
〉 802
男女@@ 802
爲 802
莫雷尔 802
Capital 802
符@@ 801
誓@@ 801
数控 801
座谈会 801
譬如 801
ock 801
健壮 801
微量 801
三百 801
冶金 801
大连 801
箴 801
物项 801
现实主义 800
给与 800
重写 800
盐酸 800
稳态 800
启 800
馆长 800
咀嚼 800
1200 800
命题 800
怀抱 800
天然@@ 800
are 800
平等互利 800
凄@@ 799
亮点 799
树丛 799
君主 799
哪种 799
可耻 799
庸@@ 799
私营部门 799
公安@@ 799
提单 799
林地 799
批量 799
示意 799
克族 799
罗杰 798
残骸 798
切片 798
尽全力 798
传言 798
惶@@ 798
犹豫不决 798
再也不能 798
戳 798
持股 798
业内 798
汞 798
银河 798
心愿 798
报应 798
特种 798
1.1 798
你别 797
复印 797
退税 797
紧凑 797
走走 797
交配 797
害虫 797
愚昧 797
同居 797
七天 797
幼稚 796
防火墙 796
表皮 796
绝对@@ 796
无偿 796
乔纳森 796
看不@@ 796
玩得 796
责怪 796
渐 796
铭@@ 796
十字路口 796
母亲节 796
列祖 796
嵌 795
林木 795
醇@@ 795
厂房 795
满脸 795
括号 795
纸币 795
抗菌 795
单片机 795
TC@@ 795
距@@ 795
原油价格 795
知识经济 795
奥运@@ 795
这要 794
女主人 794
播放器 794
橙色 794
自由贸易 794
竣工 794
化学成分 794
髓@@ 794
下沉 794
划拨 794
工作坊 794
各家 793
拉德 793
分形 793
延缓 793
使徒 793
世卫 793
维他命 793
盘旋 793
安抚 793
琐事 793
肠癌 793
杀伤性 793
游离 793
总区 793
屁 792
ire 792
最佳@@ 792
键@@ 792
美联社 792
扑灭 792
Un@@ 792
菊 792
犯罪分子 792
ish@@ 792
豆腐 792
尼克松 792
服务质量 792
仲裁@@ 792
中华@@ 792
函件 792
赎回 791
万军 791
瑕疵 791
手掌 791
探访 791
犬@@ 791
传入 791
大阪 791
沸腾 791
我试 791
都行 791
喝杯 791
事业@@ 791
1971 791
国家主权 791
好感 790
land 790
早早 790
刀子 790
水龙头 790
恨@@ 790
广为 790
估量 790
珍视 790
三级 790
依存 790
举足轻重 790
III 790
沉积物 789
消息@@ 789
火力 789
施工@@ 789
拦截 789
拓宽 789
结成 789
更少 789
不动产 789
裤@@ 789
喝茶 789
逊@@ 789
施加压力 789
法文 789
专利申请 789
日光 789
自备 789
凯西 788
实实在在 788
一班 788
编码@@ 788
取而代之 788
重新考虑 788
英雄@@ 788
考古 788
雄心勃勃 788
军事行动 788
姿@@ 788
承保 788
第二种 788
深入@@ 788
航空运输 788
第四十九条 788
海绵 787
锋利 787
摒弃 787
恩斯 787
劈@@ 787
三十一日 787
不惜 787
记者会 787
1.8 787
哈克 787
IV 786
惊慌 786
舵 786
辨 786
救赎 786
陵 786
规范化 786
湖南 786
丹尼 786
轻视 786
红酒 786
使用费 786
辖区 786
香港特区 786
揍 785
逆境 785
海鸥 785
市场需求 785
涉外 785
几项 785
两面 785
着眼 785
预留 785
烷@@ 785
赠款 785
贝宁 785
出人意料 784
佩林 784
谎 784
富足 784
珊瑚礁 784
持续增长 784
融洽 784
PS@@ 784
先锋 784
栋 783
藉由 783
脓@@ 783
破旧 783
不信 783
ist@@ 783
沿海地区 783
供应@@ 783
南南合作 783
反对者 782
权主义 782
内蒙古 782
若干@@ 782
科医生 782
抗争 782
赌注 782
下半年 782
学界 782
皇室 782
检察长 782
西区 781
ass@@ 781
高强度 781
水力 781
弱势 781
里根 781
贝克汉姆 781
宠物@@ 781
衰弱 781
230 781
房地 781
第九十@@ 781
巷 780
论据 780
起重机 780
自已 780
空中@@ 780
藐视 780
2.2 780
圆桌会议 780
代下 780
持续时间 779
纸板 779
联接 779
梅尔 779
贝拉 779
名牌 779
惊醒 779
别无选择 779
骑兵 779
措词 779
拍卖@@ 779
暴乱 779
声援 779
越来越少 779
惩处 779
扁@@ 779
阿尔贝 779
逗 778
里奇 778
ack 778
无机 778
力学性能 778
爵士乐 778
诊@@ 778
总体规划 778
高额 778
经济损失 778
眩 778
臭氧层 778
艾米 778
亮相 777
有钱人 777
冰冻 777
宝藏 777
神学 777
滋润 777
公共关系 777
外人 777
搭建 777
恶性肿瘤 777
胜地 777
健康@@ 777
讥@@ 777
色泽 777
安心 777
飘 777
钻进 777
塌@@ 777
笛@@ 777
通信@@ 777
德利 777
否 777
果树 777
透视 777
生产能力 777
闭会 777
偏向 776
清澈 776
循 776
渊源 776
每件 776
首府 776
赚@@ 776
登记册 776
告诉您 776
LL@@ 776
窃贼 776
市建局 776
楼花 776
大炮 775
碰上 775
洗衣@@ 775
华尔街日报 775
双腿 775
要约 775
领养 775
绪 775
米饭 775
大王 775
打折 775
科特迪瓦 775
第九届 775
努力@@ 774
惊 774
荒野 774
赢家 774
各样 774
CF@@ 774
极高 774
人才@@ 774
绝地 774
条目 774
非常简单 774
穆罕默德 774
国政府 774
欺负 774
113 774
疏远 774
冈 774
蓝天 774
工程学 774
标书 774
百度 773
操控 773
自然环境 773
离子@@ 773
杀戮 773
附着 773
斯科 773
摇摇头 773
增补 773
眷@@ 773
迪士尼 773
袋@@ 773
海牙 773
妥当 773
徽 773
出手 773
伐 772
以北 772
再也不会 772
地壳 772
在校 772
伴有 772
橄榄@@ 772
当务之急 772
网上@@ 772
流行病 772
头儿 772
引爆 772
巡回@@ 772
盈 772
演讲@@ 772
印花 772
昌@@ 772
里德 772
经济委员会 772
个人所得税 772
外勤 772
昏 771
面子 771
手提包 771
京 771
原子@@ 771
滋生 771
传染性 771
赤道 771
保持联系 771
处理程序 771
蝇 771
东区 771
受阻 771
多普勒 771
医药@@ 771
up 771
还款 771
二零零一年 771
压缩@@ 770
ick@@ 770
杂草 770
肤 770
才行 770
尚有 770
垒 770
侯 770
适用范围 770
巴巴 770
情境 770
阶梯 770
挥 770
会期 770
搬家 770
恩典 769
芒 769
2020 769
未成年 769
喂@@ 769
触动 769
煎 769
药剂师 769
实践证明 769
聪明人 769
惟@@ 769
姐 768
细分 768
基线 768
峰@@ 768
印度@@ 768
地爱 768
Lehman 768
扣留 768
九十 768
几条 768
城市居民 768
商标注册 768
涛 767
至上 767
掘@@ 767
十字 767
用例 767
损害赔偿 767
规程 767
鹰@@ 767
弥漫 767
物理学家 767
广泛@@ 767
虐 767
自由主义 767
扼要 767
杂项 767
女巫 767
您好 767
在此期间 766
编排 766
书房 766
蚊 766
所称 766
公鸡 766
本市 766
一击 766
英亩 766
缠绕 766
Brothers 766
1.4 766
凝视 766
外商 766
162 766
и 766
腐 765
反应@@ 765
以利 765
儒@@ 765
接过 765
买来 765
高跟鞋 765
大体 765
蒙特利尔 765
安然 765
怨@@ 765
迎 765
债券市场 765
路口 765
积雪 764
辙 764
教义 764
牵涉 764
寄生虫 764
来电 764
几张 764
遗体 764
And@@ 764
划船 764
积聚 764
联合国总部 764
毫不犹豫 764
当晚 764
负责管理 764
哈里斯 764
二进制 764
we@@ 764
到时候 764
快到 764
径@@ 763
合物 763
溃@@ 763
最能 763
耕 763
菲利普 763
印度人 763
CR@@ 763
风雨 763
潘 763
二个 763
俄亥俄州 763
专有 763
巢@@ 763
黛 763
股东大会 763
两件 762
冰雪 762
传出 762
尖端 762
窄@@ 762
打出 762
拖拉机 762
欣喜 762
一个男孩 762
宪政 762
捷径 762
堪@@ 762
保持沉默 762
可可 762
高龄 762
爱国主义 762
切成 762
慧@@ 762
保持良好 762
小额 762
十七 762
血管@@ 761
风扇 761
液态 761
食堂 761
固态 761
盟@@ 761
栖息 761
高声 761
数周 761
十大 761
ES@@ 761
散会 761
带头 761
套管 761
等国 761
栓 761
射频 761
胞 761
人力资本 761
在编 761
天主 760
AN 760
主教练 760
彻底@@ 760
终极 760
假冒 760
消亡 760
幼虫 760
席卷 760
候选 760
蒸馏 760
第一部 760
重要环节 760
lan 760
高职 760
对儿 760
捆绑 759
填满 759
重塑 759
增益 759
少许 759
牙科 759
搏斗 759
意象 759
现货 759
根本性 759
对阵 759
主人公 759
难免 759
可言 759
超人 759
征用 759
童工 759
出让 758
草图 758
犯规 758
X射线 758
分给 758
请愿 758
湖人 758
祖父母 758
木制 758
董@@ 758
独自一人 758
绣 758
可变 758
不负责任 758
击球 758
＂ 758
年青人 758
掠过 758
姬 757
雏@@ 757
新陈代谢 757
预应力 757
不合@@ 757
丰富多彩 757
维系 757
只想 757
克罗@@ 757
日圆 757
絮@@ 757
面纱 757
正文 757
沃尔特 757
解救 757
评为 757
分析表明 757
定时 757
铲除 757
肇@@ 757
主导@@ 757
订约 757
暂行@@ 757
个儿 756
泊@@ 756
烧烤 756
聚在一起 756
鉴 756
弄清 756
有损 756
殖民主义 756
贞 756
小说家 756
一例 756
杰作 755
优缺点 755
浙江省 755
反常 755
星际 755
第一夫人 755
喜乐 755
瓷 755
照相 755
江苏 755
北角 755
径向 754
抗震 754
风险投资 754
标语 754
种植@@ 754
遣@@ 754
不正 754
省长 754
降低成本 754
汇丰 754
结识 754
总人口 754
MO@@ 754
室内@@ 754
宣读 754
投掷 754
树下 754
约书亚 754
劳工处 754
庆幸 753
好不好 753
枯燥 753
人大 753
稍稍 753
松散 753
污秽 753
否决权 753
一粒 753
雄厚 753
还应 753
全程 753
芽@@ 753
新品种 753
从那以后 753
接电话 752
夺走 752
十几岁 752
波形 752
放射@@ 752
存取 752
一环 752
餐饮 752
长久以来 752
喀麦隆 752
葡萄园 752
文本@@ 752
四级 752
口径 751
赎罪 751
稀土 751
求得 751
阀@@ 751
寨 751
回忆起 751
内特 751
来得及 751
电灯 751
瞎 751
踏 751
功能性 751
慰问 751
水文 751
法定代表 751
杜洛埃 751
溪@@ 750
后院 750
着眼于 750
失常 750
闪闪发光 750
灌木丛 750
建筑业 750
上扬 750
辞去 750
弗雷德 750
依赖性 750
搬迁 750
这栋 750
gov 750
颜 749
博弈 749
塞进 749
血症 749
背着 749
大大提高 749
相称 749
文化背景 749
短短 749
总要 749
正值 749
预付 749
中为 749
亮光 749
买到 749
悟@@ 749
ean 749
严重后果 749
摩加迪沙 749
手续费 749
手帕 748
好笑 748
空地 748
难于 748
推进@@ 748
低点 748
打包 748
手脚 748
田间 748
文化交流 748
计算机系统 748
樱@@ 748
江河 748
第一百五十 748
蛮@@ 747
夷@@ 747
制定者 747
室友 747
从那时起 747
黑白 747
猛地 747
斯利 747
克劳@@ 747
社会秩序 747
自家 747
谎@@ 747
变化@@ 747
今年夏天 747
试探 747
布莱恩 747
2500 747
der 747
严酷 747
御@@ 747
中以 746
历经 746
理论@@ 746
架飞机 746
妄 746
绝佳 746
引出 746
快活 746
实际@@ 746
夜空 746
楼房 746
禁忌 746
环保@@ 746
详细信息 746
复印件 746
勋章 746
压低 746
替代@@ 746
录得 746
切口 745
清扫 745
良性 745
迫不及待 745
仲@@ 745
火箭@@ 745
橡皮@@ 745
多种多样 745
有位 745
FD@@ 745
五次 745
保健@@ 745
高分子 745
低压 745
西九龙 745
红利 745
本周一 745
玩忽职守 745
取样 744
萤@@ 744
域@@ 744
蒲@@ 744
地球@@ 744
商机 744
赢利 744
流动@@ 744
前瞻性 744
万事@@ 744
无耻 744
低调 744
障 744
涌现 744
片子 744
生日礼物 744
友好合作 744
慈悲 743
宾客 743
丧 743
猎 743
诺基亚 743
刚刚开始 743
倒入 743
面试官 743
美方 743
灾民 743
覆盖率 743
容貌 743
叫喊 743
抄 742
展览@@ 742
育种 742
一任 742
再三 742
然大@@ 742
南美洲 742
酒杯 742
首尔 742
阵容 742
焕发 742
办公桌 742
蒙受 742
sc@@ 742
漫游 742
贝尔格莱德 742
旱 742
思绪 742
避难 742
奴役 742
计时 742
考试@@ 742
六届 742
脆@@ 741
狱@@ 741
要命 741
认购 741
筹办 741
两座 741
凑 741
之子 741
专用@@ 741
雨伞 741
到访 741
老头 740
交代 740
本赛季 740
州立大学 740
毛发 740
翘@@ 740
请来 740
书信 740
媒体报道 740
回路 740
比特 740
监察@@ 740
内有 740
姑@@ 740
透镜 740
参考价值 740
五点 740
市场化 740
订明 740
撰文 740
欠缺 739
荒 739
染上 739
颤@@ 739
相伴 739
欢迎@@ 739
窑 739
挨饿 739
外交关系 739
生日快乐 739
装入 739
耀@@ 739
135 739
ra 739
轻声 739
te 739
750 739
牠 738
停住 738
涵 738
腺炎 738
普林@@ 738
孔隙 738
放纵 738
内心深处 738
光栅 738
京都 738
无处不在 738
收成 738
小家伙 738
插座 738
镶嵌 738
畅 738
哈特 738
螺钉 738
损毁 738
背心 738
之多 738
听不见 738
2.4 738
class9 738
盗 737
十天 737
二世 737
成败 737
可恶 737
五角大楼 737
翅@@ 737
攻势 737
付诸@@ 737
千万别 737
希伯@@ 737
担 737
窥@@ 737
农户 737
储蓄@@ 737
缆 737
中美关系 737
调配 737
那家伙 737
不诚实 736
授 736
空气质量 736
主耶稣 736
人意 736
透明@@ 736
交错 736
忘却 736
ack@@ 736
力拓 736
受惠 736
帘 736
财政政策 736
喃@@ 736
拉动 736
钢材 736
供货 736
舞弊 736
经贸合作 736
那张 736
尖沙咀 736
平均值 735
好几年 735
品牌@@ 735
好心 735
陶醉 735
风貌 735
合力 735
Al 735
十九世纪 735
David 735
床边 734
按规定 734
碘 734
胡须 734
近距离 734
棋 734
凝结 734
卫生保健 734
歧@@ 734
最低@@ 734
ation@@ 734
国际事务 734
世界级 734
人均收入 734
永 734
棍子 734
黑猩猩 734
贝壳 734
火烧 734
SR 734
特区政府 734
德鲁 734
相聚 733
118 733
寸@@ 733
直立 733
我见 733
补给 733
洪都拉斯 733
编造 733
学过 733
暴动 733
铃声 733
太难 733
某项 733
驱 733
和善 733
另一端 733
严格遵守 733
爆炸@@ 733
实话 733
知悉 733
整治 733
邓小平 733
欣见 733
艳@@ 732
乌云 732
幸福感 732
兴高采烈 732
两块 732
美国作家 732
充分考虑 732
毕 732
贫血 732
食欲 732
免费@@ 732
相貌 732
捞 732
最美 732
小鸡 732
甸 732
玷污 732
玩意儿 732
柴油机 732
义工 732
少见 732
复制品 732
拉加 732
王先生 732
资料@@ 732
国内法 732
85@@ 732
Ａ 732
面容 731
传输@@ 731
凸 731
麻痹 731
伊斯 731
安东尼 731
松树 731
磺@@ 731
确诊 731
Or@@ 731
写字 731
禅@@ 731
朴素 731
报上 731
评核 731
宰 731
两样 730
结交 730
多多 730
最强 730
℃ 730
乏 730
年末 730
绝缘@@ 730
新德里 730
逛 730
宙斯 730
海洛因 730
各异 730
液晶 730
昭@@ 730
一宗 730
掠@@ 730
纸条 730
太累 730
联合国安理会 730
血栓 730
来宾 730
中小学 730
覆核 730
署理 730
上台 729
学童 729
粒度 729
歪@@ 729
录音机 729
共振 729
宠 729
嘲弄 729
无动于衷 729
淋浴 729
恢复正常 729
那头 729
人气 729
仔细@@ 729
腹腔镜 729
施压 729
抗氧化 729
不懈努力 729
扁 729
假使 729
办公@@ 729
多孔 729
囊肿 729
消极@@ 729
扮演着 729
每件事 728
利用@@ 728
该软件 728
相似之处 728
因果关系 728
箭头 728
7000 728
简单@@ 728
血腥 728
惊异 728
降息 728
栖息地 728
没想 728
重金属 728
防护@@ 728
整晚 728
缴交 728
巴林 728
六点 728
闭嘴 728
外经贸 728
燔 728
大会堂 728
﹝ 728
管线 727
良好@@ 727
督促 727
腓@@ 727
狂风 727
发表意见 727
代表@@ 727
长相 727
那片 727
尊贵 727
宏观调控 727
阿里斯蒂德 727
吾 726
教给 726
哀 726
巴拉圭 726
去向 726
近视 726
化身 726
合同@@ 726
原产地 726
出入境 726
谦@@ 725
弗雷 725
阁楼 725
奴隶制 725
地理位置 725
和尚 725
挥舞 725
特曼 725
全神贯注 725
艾滋病毒 725
婉@@ 725
计划@@ 725
吐温 725
近几年来 725
谈过 725
携 725
不理 725
抓紧 725
Bu@@ 725
河岸 725
地方@@ 725
送回 725
查出 725
试卷 725
一八 725
罪过 724
捆@@ 724
浆果 724
温泉 724
备件 724
羞耻 724
测定方法 724
纺织@@ 724
增高 724
全日制 724
时不时 724
极小 724
充裕 724
冷酷 724
败坏 724
自然而然 724
叁 724
百分@@ 724
〈 724
米拉 724
忏悔 723
历史悠久 723
梦幻 723
拾@@ 723
驳 723
满是 723
悬而未决 723
ook 723
处死 723
课本 723
誓 723
惊吓 723
收件人 723
原产 723
3.2 723
通路 723
康妮 723
来港 723
发火 722
蜿蜒 722
怡 722
锯 722
CM@@ 722
合法化 722
共事 722
咨询@@ 722
可卡因 722
Wh@@ 722
警察@@ 722
Ca@@ 722
故事@@ 722
忧 722
风吹 722
冠状动脉 722
进口产品 722
中型 722
公署 722
上周末 721
龙卷风 721
椭圆形 721
提供@@ 721
防御@@ 721
消磨 721
好得多 721
玩意 721
百万@@ 721
接力 721
迪斯尼 721
汉堡包 721
提炼 721
导体 721
千人 721
入选 721
ISO@@ 721
分部 721
干线 721
Pet@@ 721
2.3 721
2.1 721
堵住 720
浴缸 720
减压 720
塑胶 720
坠落 720
LH 720
眉头 720
地缘 720
Ba@@ 720
鹤 720
琳达 720
全家人 720
正本 720
所载 720
爪子 719
替代品 719
sk@@ 719
挥手 719
明朗 719
权衡 719
差价 719
恩赐 719
剪刀 719
料理 719
相撞 719
刻苦 719
巴布亚新几内亚 719
中国人民@@ 719
电子化 719
职类 719
痘 718
眨眼 718
德森 718
刻意 718
德兰 718
权重 718
佩 718
兰人 718
干掉 718
翻新 718
风景@@ 718
耳边 718
画画 718
蛮 718
泥浆 718
重用 718
长途 718
冥@@ 718
穷国 718
帐号 718
iti@@ 718
生子 718
丽斯 718
第二款 718
私家车 718
特快专递 718
供养 718
耶夫 717
肿胀 717
保佑 717
克森 717
该书 717
并于 717
大程度 717
渴求 717
携@@ 717
朗读 717
输出@@ 717
轻柔 717
昏暗 717
军控 717
1964 717
体育锻炼 717
持牌 717
不说 716
些许 716
谦逊 716
坚称 716
不干 716
结冰 716
房东 716
能比 716
提振 716
议席 716
日间 716
管理体制 716
生词 716
严格执行 716
已获 716
保守党 715
红细胞 715
放出 715
卜@@ 715
外星人 715
痴@@ 715
挑起 715
饿死 715
戏院 715
时节 715
呼喊 715
1961 715
姨妈 715
渲染 715
科学院 715
合同规定 715
132 715
督导 715
文体 714
演绎 714
爷@@ 714
抒@@ 714
弟兄们 714
冤@@ 714
安迪 714
可达 714
探员 714
聋@@ 714
追捕 714
林斯 714
首批 714
争战 714
称职 714
幻灯片 714
粤@@ 714
卵巢 713
猎犬 713
着力 713
世纪末 713
心地 713
深色 713
檀@@ 713
Comm@@ 713
投射 713
财政部门 713
诚然 713
相互尊重 713
所订 713
怒火 712
南美 712
投向 712
联络@@ 712
交由 712
拖动 712
录用 712
诺贝尔奖 712
汗水 712
配制 712
为人知 712
狗狗 712
117 712
很难说 712
何必 712
十九 712
锈 712
商议 712
专职 712
美人 712
切合 712
着重于 712
欢迎您 711
浸 711
山峰 711
任何一方 711
请勿 711
疹 711
传记 711
治疗师 711
栏杆 711
有多@@ 711
下届 711
热点问题 711
TE@@ 711
截 711
姨@@ 711
入场 711
笋 711
家庭暴力 711
战线 711
立体@@ 710
冰块 710
默默 710
吼 710
踪 710
外邦 710
新闻报道 710
化为 710
特里@@ 710
默克尔 710
地想 710
苗条 710
出产 710
乘车 710
另一家 710
上风 710
职业培训 710
际@@ 710
极为重要 710
打篮球 710
晨 710
时效 710
本案 710
210 710
Citigroup 710
公海 710
换个 709
栅@@ 709
蟾蜍 709
床单 709
奥秘 709
水解 709
催眠 709
栓塞 709
涨价 709
印记 709
这间 709
退款 709
教派 709
暴 709
结核病 709
史蒂文 709
高等院校 709
俗语 709
缉@@ 709
烘@@ 708
自然科学 708
谐@@ 708
谋杀案 708
对流 708
想来 708
毒气 708
部族 708
ock@@ 708
位数 708
伤感 708
成就感 708
轻度 708
美术@@ 708
推高 708
和平共处 708
方便@@ 708
薯 708
离心@@ 708
爱意 708
姊妹 708
Sy@@ 708
喧闹 707
植株 707
迷宫 707
奋力 707
盛开 707
航天飞机 707
这为 707
洗衣服 707
获得@@ 707
多一点 707
富翁 707
隔绝 707
共产@@ 707
幸好 707
奶制品 707
转化成 707
皂@@ 707
追溯 707
风俗习惯 707
图形@@ 707
钻孔 707
越狱 707
填海 707
ina 707
全区 707
别国 706
瓦朗 706
Man@@ 706
每张 706
并不认为 706
检查和 706
冠军@@ 706
脱掉 706
恼怒 706
乱七八糟 706
客户机 706
最低工资 706
迷你 706
木星 706
同比 706
臭氧 706
抗性 706
不结盟 706
ham@@ 706
兴旺 706
处女 706
手提 706
经验@@ 706
NE@@ 706
原籍 706
根本利益 706
up@@ 705
古董 705
分流 705
三届 705
盟国 705
放过 705
法师 705
据悉 705
我俩 705
痉挛 705
远期 705
3G 705
厨 705
1945 705
计入 705
不得@@ 704
非得 704
注意事项 704
议院 704
33@@ 704
蒂姆 704
叫作 704
全体会议 704
酯@@ 704
那日 704
商务英语 704
节余 704
海事处 704
起舞 703
灵性 703
泊 703
托盘 703
令人吃惊 703
为什 703
适配器 703
衍射 703
养老保险 703
相关联 703
坠毁 703
云层 703
积极支持 703
矮小 703
无事 703
上届 703
ich 703
昨天@@ 703
脆弱性 703
下决心 703
定额 703
接地 703
法律顾问 703
抵押@@ 703
尤为重要 703
民族乡 703
十四@@ 703
插图 702
碗@@ 702
本该 702
隐含 702
球形 702
灶 702
结石 702
肖像 702
长满 702
罗夫 702
暴躁 702
颇具 702
赞成票 702
真实@@ 702
迭@@ 702
TS@@ 702
山东省 702
英语教学 702
.. 702
核设施 702
Ltd 702
减慢 701
演讲者 701
领地 701
大利 701
马达加斯加 701
世博会 701
息息相关 701
第四季度 701
货款 701
松开 701
LE@@ 701
导线 701
陡峭 701
人次 701
公积金 701
ian 701
对外@@ 701
那名 700
力所能及 700
几千年 700
Java 700
自我介绍 700
应邀 700
脚步声 700
国民党 700
听过 700
凋@@ 700
紧接着 700
摔跤 700
稳妥 700
吸收@@ 700
守护 700
001 700
用钱 700
政协 700
芙@@ 699
那样的话 699
鲁莽 699
声波 699
热能 699
二极管 699
载人 699
籍@@ 699
招牌 699
巴勒斯坦人 699
管理器 699
太贵 699
5.5 699
一百三十 699
调集 699
旅店 698
随之而来 698
标定 698
最低水平 698
身躯 698
浓密 698
牙膏 698
安逸 698
ill 698
保尔森 698
便携式 698
从未见过 698
口香糖 698
复杂化 698
涉 698
沈阳 698
自治机关 698
万桶 698
136 698
痰 697
费城 697
弗吉尼亚 697
社论 697
计价 697
物价@@ 697
恭喜 697
便利@@ 697
学派 697
面目 697
放着 697
夺去 697
岩体 697
CL@@ 697
out 697
折衷 697
耽误 696
火山@@ 696
这回 696
降水 696
闩 696
要用 696
隙 696
病菌 696
银行贷款 696
咖@@ 696
星光 696
代人 696
后台 696
带我去 696
不息 696
光顾 696
建立健全 696
质询 696
商业秘密 696
oh@@ 696
塘@@ 696
面额 696
部长会议 696
一九九九年 696
积极开展 696
展品 695
可贵 695
回声 695
开拓@@ 695
纺 695
铁路@@ 695
邮递 695
1968 695
砸@@ 695
参观者 695
人类学 695
径直 695
听不懂 695
窗前 695
远景 694
辽阔 694
观望 694
宴@@ 694
流氓 694
前额 694
朝鲜@@ 694
印第安@@ 694
成群 694
时态 694
爱迪生 694
斯卡 694
牧 694
嵌@@ 694
乘飞机 694
寄宿 694
单行 694
时时 693
酰@@ 693
嗜@@ 693
山西 693
所见 693
克雷@@ 693
操练 693
逝去 693
笼@@ 693
颠倒 693
上时 693
无核@@ 693
成功@@ 693
毕业@@ 693
解释一下 693
本处 693
﹞ 693
惯 692
斯科@@ 692
朦胧 692
颠簸 692
末期 692
直接@@ 692
聚类 692
据统计 692
半天 692
堪称 692
稿@@ 692
威慑 692
Sar@@ 692
随著 692
四岁 692
短裤 692
只为 692
某物 692
浇水 692
微分方程 692
变化规律 692
爱着 692
巴德 692
研讨 692
保险金 692
软化 691
经合组织 691
血小板 691
焊缝 691
癌细胞 691
一如 691
一百年 691
发表@@ 691
昔 691
扔进 691
1.3 691
旨意 691
绳@@ 691
老家 691
曼德拉 691
US@@ 691
收容 691
详 691
塔吉克 691
河谷 690
法对 690
工况 690
电容器 690
讨 690
氯化@@ 690
成名 690
ies 690
拥有者 690
De@@ 690
通用@@ 690
簇 690
传承 690
问到 690
出口国 690
进驻 690
CI@@ 690
商号 690
里约热内卢 690
工商业 690
主修 690
呈交 690
万多 690
祝您 690
中华人民共和国@@ 690
女仆 689
咒 689
第一名 689
中应 689
粪 689
人格@@ 689
Med@@ 689
卫队 689
祥@@ 689
年华 689
木质 689
相差 689
硅谷 689
大赦 689
该类 689
沉着 689
跌至 689
年头 689
结余 689
招收 689
121 689
检视 688
车门 688
安息日 688
拱 688
即将来临 688
花卉 688
讨价还价 688
一辆车 688
柏拉图 688
快递 688
带回家 688
千万@@ 688
地铁站 688
3.3 688
指标体系 688
发扬 688
加工@@ 687
凭着 687
惠普 687
让你在 687
侵权行为 687
护送 687
陀@@ 687
介于 687
不配 687
几秒钟 687
总公司 687
绑@@ 687
Wal@@ 687
q 687
管理模式 687
尼罗河 687
装卸 687
狭@@ 687
一九八@@ 687
五倍 687
受援国 687
般地 686
试一试 686
两端 686
流露出 686
愤 686
沉沉 686
七点 686
中要 686
攻读 686
粘贴 685
面团 685
分光 685
阻尼 685
严重@@ 685
天文 685
蜜月 685
汇总 685
判断力 685
福克斯 685
善用 685
be 685
乔治@@ 685
其内 685
务员 685
弄错 684
表达方式 684
惯性 684
考古学家 684
配料 684
动向 684
银河系 684
豁@@ 684
重演 684
old 684
嘎@@ 684
Qu@@ 684
运动鞋 684
吓人 684
循环@@ 684
键入 684
伸出手 684
开往 684
消费量 684
供选择 683
PD@@ 683
编译器 683
相似性 683
宫廷 683
比拟 683
里亚 683
无止境 683
服务器@@ 683
剑桥 683
航天器 683
荐 683
梨@@ 683
园子 683
ile 683
保单 683
乌兹别克斯坦 683
点半 683
枪手 683
案情 683
can 683
一大群 682
我怕 682
墩 682
得罪 682
现实@@ 682
慈善事业 682
记念 682
罗马@@ 682
孢子 682
魔术师 682
第一种 682
正当@@ 682
咒骂 682
名气 682
行不通 682
很早 682
代尔 682
st 682
看得见 682
价位 682
靶 682
报关 682
阿鲁沙 682
爱护 681
令人担忧 681
洗衣 681
My@@ 681
大洋 681
标注 681
脾@@ 681
ok@@ 681
贮藏 681
壮丽 681
工作站 681
如图 681
伊朗核 681
标示 681
枕@@ 681
须知 681
描@@ 681
跳水 681
亲友 681
海南 681
十四日 681
基点 680
殷@@ 680
支气管 680
连任 680
产品设计 680
政体 680
抵挡 680
寥@@ 680
少年@@ 680
防线 680
朴@@ 680
已成 680
改写 680
出新 680
皮层 680
黑莓 680
事务@@ 680
视乎 680
拾 680
袋鼠 680
注册@@ 680
斐@@ 680
遮盖 679
随处可见 679
冰山 679
枫@@ 679
必使 679
黄瓜 679
观察@@ 679
萨科齐 679
石油价格 679
车身 679
武装力量 679
隐性 679
UF@@ 679
精选 679
葬@@ 679
谭@@ 679
在实践中 679
自给自足 679
导电 679
相一致 679
跨文化 679
年收入 679
Li@@ 678
计算器 678
意大利人 678
特拉@@ 678
打倒 678
信条 678
安德@@ 678
供应量 678
患难 678
美洲国家组织 678
穆沙拉夫 678
砌 678
用过 678
各不相同 678
这道 678
测井 678
反之 678
8000 678
水土流失 678
品德 678
流行音乐 678
观塘 678
接受@@ 677
值得注意 677
按下 677
皮瓣 677
圣火 677
陶器 677
西伯利亚 677
动物@@ 677
关乎 677
大都市 677
幕后 677
速器 677
悔 677
ong@@ 677
学生会 677
教学方法 677
扔@@ 676
心不在焉 676
盾牌 676
宿主 676
阿波罗 676
母公司 676
各项@@ 676
连衣裙 676
切实@@ 676
牺牲品 676
第三世界 676
增生 676
自言自语 676
吉娜 676
运输工具 676
素材 676
分期 675
不复存在 675
能见度 675
渗入 675
IF@@ 675
印章 675
土星 675
第一阶段 675
特大 675
法律效力 675
检查站 675
利沙 675
1952 675
惇 674
TV 674
票房 674
肝癌 674
数据源 674
切开 674
风速 674
遗漏 674
一团糟 674
旋风 674
举世@@ 674
摄氏度 674
这桩 674
污染环境 674
正以 674
说真的 674
合一 674
清水 674
边界@@ 674
在一起 674
四方 674
该会 674
掳 674
126 674
淡淡的 673
加以@@ 673
全过程 673
琳娜 673
忌 673
希腊人 673
加里 673
连锁店 673
越南@@ 673
年轻@@ 673
牢房 673
寄来 673
改革@@ 673
伸进 673
中等@@ 673
人时 673
适用於 673
劲儿 672
罕 672
装甲 672
保温 672
开裂 672
电位 672
独裁 672
奖品 672
诡@@ 672
茂 672
柠檬@@ 672
第二轮 672
改成 672
持有者 672
营业@@ 672
有太多 672
钓 672
相配 672
服务部 672
帕劳 672
精湛 671
熵 671
适用性 671
加尔@@ 671
刺耳 671
装饰@@ 671
这能 671
神秘@@ 671
射出 671
无法控制 671
独处 671
勤劳 671
颂 671
拉里 671
房舍 671
选举法 671
一书 670
勿 670
宋 670
胆怯 670
不定式 670
自由市场 670
尚无 670
里森 670
标价 670
教程 670
交换意见 670
上帝保佑 670
重大损失 670
1.6 670
场址 670
美洲@@ 669
按着 669
皮质 669
阴茎 669
轨@@ 669
略微 669
纳米@@ 669
散发出 669
重新启动 669
一秒 669
职业道德 669
按键 669
军舰 669
领会 669
轻率 669
落叶 669
婴幼儿 669
严格控制 669
敦 669
纪念封 669
旅游局 668
绘@@ 668
线性@@ 668
癫痫 668
休克 668
租借 668
特意 668
int 668
谢谢你们 668
领事馆 668
民工 668
调速 668
摇篮 668
申办 668
三层 668
香港政府 668
可真 668
该条 668
矿山企业 668
氰@@ 667
深造 667
作出贡献 667
双脚 667
中文@@ 667
陪审员 667
结核 667
探望 667
蹄@@ 667
调节@@ 667
周转 667
涡轮 667
政策措施 667
活鸡 667
拉尔夫 667
丈 666
罗恩 666
丹尼斯 666
转折 666
分布@@ 666
不管怎么 666
凹陷 666
之母 666
支持率 666
借着 666
石膏 666
饰品 666
盛会 666
家庭主妇 666
宇@@ 666
唾@@ 666
附加费 666
普罗@@ 666
138 666
一连 666
终审 666
废话 665
锈@@ 665
使用@@ 665
邓 665
夫斯基 665
几步 665
兴奋剂 665
惬意 665
爱滋病 665
西北@@ 665
颤动 665
ds 665
圣人 665
峡 665
先到 665
算了 664
听话 664
分之一 664
努 664
坏死 664
电脑游戏 664
鲜血 664
弗里@@ 664
腐蚀性 664
一路上 664
公立学校 664
麦克风 664
迟缓 664
副产品 664
新能源 664
潭 664
避 664
初学者 664
铁路运输 664
情事 664
体检 664
3.1 664
增编 664
喷嘴 663
穿戴 663
定论 663
那颗 663
搁 663
隐形 663
厉夫 663
试剂 663
滞留 663
国立 663
做起 663
游荡 663
长处 663
要强 663
温哥华 663
36@@ 663
6.5 663
锻炼身体 663
离岛 663
可供 662
羽毛球 662
醛 662
清白 662
揉@@ 662
燃气 662
眷 662
剥离 662
安全部队 662
乙烯 662
饺子 662
{ 662
组别 662
跃 662
旨 662
表现形式 662
坟@@ 662
第五十一条 662
表彰 661
汤米 661
朵@@ 661
灭火 661
理想@@ 661
层楼 661
真诚地 661
松鼠 661
游戏机 661
况且 661
亲手 661
以示 661
总收入 661
素质教育 661
轨道交通 661
习惯用语 661
抢劫@@ 661
翔 660
奇怪的是 660
试样 660
死人 660
窜 660
岛国 660
追随者 660
英超 660
搏@@ 660
住在一起 660
走运 660
纯化 660
双方同意 660
亚洲@@ 660
综合利用 660
戴夫 660
每名 660
准予 660
主阿 660
身亡 659
龙虾 659
前台 659
丙烯@@ 659
算例 659
190 659
才智 659
月饼 659
雪茄 659
跨过 659
竹子 659
促进@@ 659
吟@@ 659
五种 659
面值 659
利未人 659
造林 659
作王 659
133 659
本题 659
ak 658
高举 658
倾诉 658
DS 658
铵 658
Mor@@ 658
生死 658
洗净 658
BO@@ 658
荫@@ 658
揉 658
Cent@@ 658
不全 658
授课 658
居民@@ 658
举手 658
力争 658
张望 658
各个领域 658
间距 658
处理厂 658
华文 658
冠心病 658
二零零零年 658
虽说 657
音响 657
芯@@ 657
系统对 657
1965 657
献出 657
娜塔莎 657
博茨瓦纳 657
显露 657
脱硫 657
叠加 657
英联邦 657
Tom 657
不遗余力 657
一堂 657
创新能力 657
同性 657
太忙 657
冷藏 656
络@@ 656
莱尔 656
Em@@ 656
我读 656
通讯社 656
恋情 656
纽约州 656
档@@ 656
对峙 656
几名 656
置疑 656
失事 656
府@@ 656
卖空 656
微薄 656
电量 656
ace 656
飞速发展 656
附则 656
一览表 656
理大 656
聆讯 656
敷 655
独裁者 655
立法机关 655
山洞 655
压力@@ 655
流场 655
之神 655
从容 655
砾 655
富国 655
一百万 655
叛军 655
凯利 655
砌@@ 655
量度 655
产品开发 655
纳斯 655
佣 655
变数 655
圭亚那 655
World 655
H5N1 655
借调 655
适中 654
热力学 654
微波炉 654
有氧 654
...... 654
漫 654
熨@@ 654
吝啬 654
发言权 654
再者 654
饿@@ 654
养分 654
针刺 654
服务生 654
图像处理 654
民生 654
为数 654
诉说 653
上门 653
营业额 653
赛马 653
GP@@ 653
大军 653
讽 653
礼节 653
天亮 653
抛开 653
不可否认 653
碾@@ 653
金黄色 653
业务流程 653
裁处 653
乍得 653
突袭 653
小吃 653
防备 653
兄@@ 653
一动不动 653
消耗量 653
该署 653
抛光 652
老大 652
喷发 652
淋巴结 652
油藏 652
诉人 652
波及 652
重启 652
开工 652
发起人 652
干酪 652
高超 652
伤痕 652
沉默@@ 652
增量 652
事迹 652
内幕 652
日程表 652
橘@@ 652
推力 652
特制 652
小山 652
制度化 652
八十年代 652
麻黄素 652
外侧 651
一大笔 651
微机 651
骗局 651
伊尔 651
演进 651
熬 651
地区性 651
年薪 651
这群 651
磷酸 651
裕 651
要紧 651
壁画 651
平等@@ 651
技师 651
醉酒 651
检修 651
演唱会 651
零售业 651
ary 651
委员长 651
悦@@ 650
某处 650
执着 650
审问 650
衣裳 650
以备 650
鼓吹 650
希腊@@ 650
int@@ 650
末尾 650
灰烬 650
好久 650
令人震惊 650
性格@@ 650
轻蔑 650
高斯 650
传热 650
二百 650
离岸 650
印有 650
贵宾 649
T恤 649
唠叨 649
屎 649
熏 649
一站 649
随心所欲 649
应激 649
明明 649
奔驰 649
十点 649
只管 649
人工智能 649
风中 649
水坝 649
价款 649
校舍 649
4.2 649
第五十二 649
124 649
沙湾 649
酝酿 648
就座 648
警示 648
格里 648
之人 648
藉此 648
胶片 648
燃烧@@ 648
病假 648
新世界 648
合作者 648
歌星 648
比分 648
刘翔 648
在短期内 648
郁闷 648
执政党 648
几只 648
迟疑 648
流过 648
苏菲 648
密切@@ 648
市场准入 648
中国外交部 648
呻吟 647
简陋 647
国有资产 647
创业@@ 647
生态学 647
付出代价 647
App@@ 647
貌@@ 647
角逐 647
些@@ 647
取笑 647
Ro@@ 647
幸 647
奉承 647
热狗 647
低级 647
隔开 647
这比 647
狠 647
罗斯@@ 647
第五十五 647
白内障 646
眉毛 646
流浪汉 646
夸 646
立足 646
驼@@ 646
He@@ 646
骚动 646
穴@@ 646
出乎意料 646
建国 646
生物体 646
出席会议 646
哈德 646
锰 646
解放军 646
几件 646
多层次 646
意念 646
建设工程 646
竭 645
一列 645
批评者 645
心境 645
师生 645
遥控 645
回转 645
下行 645
酒馆 645
问世 645
地面@@ 645
根本原因 645
烛光 645
之初 645
装饰品 645
小康社会 645
云彩 645
游玩 645
致富 645
长发 645
判刑 645
集体经济 645
新药 644
受精 644
尝尝 644
摄影@@ 644
赤 644
心存 644
互联 644
反省 644
跳进 644
即刻 644
机器@@ 644
文物保护 644
粮食安全 644
防灾 643
爱慕 643
一大笔钱 643
仙女 643
异步 643
127 643
财产权 643
Internet 643
自学 643
财宝 643
夕阳 643
专家组 643
专门@@ 643
使团 643
妥善处理 643
交纳 643
城邑 643
所长 643
捞@@ 642
单体 642
腋@@ 642
羔羊 642
MP3 642
赐福 642
耿@@ 642
质性 642
喷泉 642
诚恳 642
LED 642
市镇 642
商船 642
一至 642
应立即 642
意见@@ 642
联会 642
一事无成 642
班纳特 641
美术馆 641
重要途径 641
严禁 641
并联 641
太迟 641
圆柱 641
玻璃杯 641
宽大 641
中加 641
颓@@ 641
夫妻@@ 641
饶@@ 641
差遣 641
mm 641
ood 641
独家代理 641
129 641
十二届 641
埋藏 640
雄心 640
不象 640
公职 640
无一@@ 640
过敏@@ 640
栅 640
枯萎 640
现成 640
造价 640
情绪@@ 640
ale 640
梅德韦 640
伽@@ 640
回购 640
归类 640
配置文件 640
每分钟 640
喘@@ 640
福建 640
法是 640
我以 640
ur 640
mon@@ 640
违 639
无与伦比 639
信服 639
自由基 639
打入 639
结了婚 639
终将 639
班长 639
合理@@ 639
统计资料 639
天花 639
幼 639
节约能源 639
民调 639
获释 639
剔除 639
冕 639
纷争 639
给付 639
DS@@ 639
夜总会 639
红外线 639
抖@@ 639
会计准则 639
具体办法 639
眶 639
实况 639
漂 639
居屋 639
总得 638
遗传学 638
埋怨 638
岸@@ 638
紫外 638
图中 638
媒 638
新式 638
旳 638
同年 638
商业性 638
搏 638
锻@@ 638
妒忌 638
越高 638
刷牙 638
卫兵 638
联邦调查局 638
工具@@ 638
后备 638
影视 638
役@@ 637
乳液 637
前端 637
摄氏 637
TO@@ 637
恶毒 637
巴尼 637
醋@@ 637
较量 637
减价 637
僧侣 637
菌株 637
长途@@ 637
注射@@ 637
随从 637
书面@@ 637
信箱 637
所在@@ 637
男子汉 637
阳极 637
141 637
痴呆 637
吉布提 637
社署 637
素食 636
三周 636
就够 636
打捞 636
银行存款 636
时能 636
准确度 636
荣获 636
海豹 636
法术 636
传单 636
数千@@ 636
加勒比海 636
历时 636
宪@@ 636
El@@ 636
扇门 636
巴尔 636
装在 636
马拉@@ 636
派发 636
大众@@ 636
惨重 636
HP 636
射手 636
安放 636
小径 636
文摘 636
明显@@ 636
垢 636
熔化 636
蓬 636
原状 636
法兰 636
橄榄 636
同业 636
斩@@ 635
OK 635
呼吸@@ 635
娜@@ 635
尚待 635
也@@ 635
慕@@ 635
凸显 635
走来走去 635
涉足 635
公用事业 635
眠@@ 635
治好 635
Gen@@ 635
赔偿损失 635
巡回 635
1948 635
新约 635
153 635
举重 634
坚韧 634
劳伦斯 634
212 634
ion 634
徽章 634
不育 634
发芽 634
或多或少 634
消退 634
马桶 634
绘 634
监管部门 634
购入 634
亟需 634
本应 634
年幼 634
爹 634
三千 634
http 634
经合 634
地政处 634
来过 633
被忽视 633
莫里斯 633
坠@@ 633
雪地 633
档案@@ 633
售后服务 633
可望 633
坚守 633
柯林斯 633
豪华@@ 633
暴力事件 633
好几 633
摊位 633
住房@@ 633
22@@ 633
Financial 633
风情 632
勋爵 632
顺利进行 632
效仿 632
发生器 632
纪录片 632
拣选 632
吱@@ 632
情势 632
军备竞赛 632
谎话 632
诉求 632
严寒 632
百老汇 632
官方@@ 632
堤@@ 632
太低 632
哨@@ 632
LO@@ 632
建筑材料 632
下山 632
应聘者 632
音节 632
气相 632
时性 632
袖子 632
什叶派 632
入境@@ 632
江苏省 632
现状及 632
王下 632
渔农 632
占领@@ 631
我主 631
Mer@@ 631
发表声明 631
史无前例 631
刷新 631
陶 631
住址 631
推崇 631
阿姨 631
余生 631
深层次 631
火腿 631
而不@@ 631
厘@@ 631
少校 631
顺应 631
成衣 631
花岗岩 631
前列 631
田径@@ 631
Fr@@ 631
卡尔@@ 631
科技成果 631
人权宣言 631
宜人 630
香槟 630
衍生物 630
实测 630
诺曼 630
可憎 630
冈@@ 630
形态学 630
实情 630
平日 630
试试看 630
简明 630
宅 630
电镀 630
达拉斯 630
和平解决 630
总产值 630
居于 629
性化 629
凶猛 629
SA 629
无所事事 629
主页 629
羊肉 629
基体 629
外伤 629
太阳光 629
260 629
传动@@ 629
散播 629
粗心 629
操作性 629
旁观者 629
穿刺 629
治国 629
意外事故 629
责任心 629
多边贸易 629
425 629
收看 629
第五个 629
缔约方 629
课堂教学 629
4.3 629
变通 629
至於 629
响亮 628
傅@@ 628
责@@ 628
上楼 628
个个 628
可比 628
乔伊 628
让人 628
件事 628
自主权 628
有赖于 628
维持@@ 628
分派 628
定下 628
流行@@ 628
网络安全 628
税额 628
发证 628
Lynch 628
进屋 627
一味 627
嘱咐 627
感谢上帝 627
虹@@ 627
137 627
饰演 627
晚年 627
货物运输 627
不断完善 627
迅猛 627
地貌 627
过头 627
斯托 627
入口处 627
勘察 627
业余时间 627
竖起 627
电波 627
行政诉讼 627
卫星@@ 627
视窗 627
二日 627
class@@ 627
很深 626
思嘉 626
光度法 626
折射 626
粘膜 626
奠@@ 626
第五次 626
学士 626
上映 626
一职 626
发球 626
电价 626
卡罗尔 626
三份 626
达致 626
1.7 626
领海 626
Jack 626
公共政策 626
数据类型 625
相间 625
机上 625
史诗 625
爵 625
垒@@ 625
决斗 625
跋涉 625
Net@@ 625
大得多 625
患儿 625
廉洁 625
这幢 625
十二条 625
美圆 625
密切合作 625
未获 625
吹嘘 624
妄想 624
叔@@ 624
空心 624
东海 624
瓷@@ 624
没完没了 624
过重 624
能源价格 624
仅限于 624
轻便 624
立方米 624
做人 624
ber 624
反腐败 624
正统 623
坏蛋 623
想方设法 623
亩 623
十字@@ 623
彰显 623
韵@@ 623
熙@@ 623
Tim@@ 623
失业者 623
丰满 623
象牙 623
玻@@ 623
流星 623
深陷 623
中称 623
为的是 623
分心 623
Sa@@ 623
吵醒 623
井下 623
静脉@@ 623
应用软件 623
低沉 623
表决权 623
书记官 623
行政法 623
要不然 622
人世 622
焚@@ 622
消散 622
录像带 622
箔 622
冲刷 622
接通 622
错综复杂 622
嗦 622
妥善解决 622
互不 622
天国 622
自信心 622
年均 622
继而 622
中子 622
劳作 622
} 622
椎间盘 622
温度计 622
Se@@ 622
Ag@@ 622
旺角 622
义务人 622
海关@@ 622
卡通 621
荷兰@@ 621
机会@@ 621
伦斯 621
陡@@ 621
击打 621
阻断 621
比萨 621
推论 621
欠款 621
疏 621
潮汐 621
策略性 621
MI 621
红灯 621
破坏@@ 621
奖章 621
舔 621
伟大@@ 621
那套 621
迫切@@ 621
老天 621
锦 620
迟早 620
霜@@ 620
貌似 620
可为 620
有朝一日 620
标志性 620
湍流 620
茂密 620
那不勒斯 620
闲逛 620
累累 620
慧 620
舒缓 620
布雷顿 620
感人 620
压倒 620
牢牢 620
暴风雪 620
弹头 620
轰动 620
想见 620
其本 620
廉政公署 620
酋长 619
公民@@ 619
大举 619
糖浆 619
看做 619
笔直 619
肝炎 619
主场 619
不足为奇 619
普选 619
声学 619
机械化 619
收入@@ 619
韧带 619
该州 619
人造@@ 619
单张 619
工艺流程 619
集团公司 619
工业生产 619
比亚 619
182 619
法律文书 619
歹徒 618
橱柜 618
CC 618
滩@@ 618
费尔@@ 618
意在 618
斯克 618
喧@@ 618
尼古拉 618
一派 618
投票权 618
利害关系 618
陆上 618
多亏 618
螺丝 618
外资银行 618
饲@@ 618
漩涡 618
社会制度 618
递增 618
连接起来 618
长子 618
工商管理 618
协调@@ 618
良知 618
高中生 618
Fa@@ 618
第二项 618
卤@@ 617
天后 617
猫头鹰 617
GA 617
髓 617
渐进 617
汶川 617
驾 617
喷出 617
停滞不前 617
高明 617
Fi 617
莫名其妙 617
出众 617
羚羊 617
有生@@ 617
捕食 617
双边关系 617
早年 617
岭@@ 617
牧民 617
转录 617
古典@@ 617
好客 617
佳节 617
边防 617
高级别 617
一九九七年 617
五百@@ 617
PL@@ 616
制冷 616
拷@@ 616
年龄段 616
经济性 616
优选 616
拆开 616
无休止 616
善待 616
一刻@@ 616
John@@ 616
振奋 616
航天局 616
入门 616
纯度 616
配对 616
les 616
下流 616
应从 616
专题讨论 616
空格 615
攻击者 615
碎石 615
暑期 615
勃 615
母乳 615
直销 615
凿@@ 615
相当@@ 615
奖杯 615
承建商 615
鳍 615
盐水 615
④ 615
赎 615
珊 615
了结 615
罗宾@@ 615
遍地 615
创造条件 615
受访 615
⑤ 615
迦勒 614
来不及 614
继电器 614
博士@@ 614
撇@@ 614
动静 614
太少 614
沫 614
而过 614
皮肤@@ 614
上载 614
吵闹 614
移植@@ 614
保费 614
该次 614
良机 614
38@@ 614
过日子 614
地支 614
诸如此类 613
主演 613
群山 613
飞鸟 613
转载 613
慕尼黑 613
平方@@ 613
灵顿 613
橄榄油 613
加息 613
待人 613
与非 613
美国财政部 613
激进分子 613
椒@@ 613
str@@ 613
城镇居民 613
这一@@ 613
保护措施 613
不足之处 613
偏低 613
聚氨酯 613
苏州 613
分会 613
亚太区 613
安德森 613
兼并 613
深圳市 613
以法 613
687 613
和蔼 612
劣势 612
烟气 612
到场 612
报仇 612
时针 612
鸡尾酒 612
商业化 612
里头 612
数据挖掘 612
搂 612
很近 612
媚 612
泌@@ 612
仆@@ 612
自来水 612
烯 612
不结盟运动 612
公私 612
饭后 612
所在单位 612
委婉 611
智能化 611
豫备 611
油炸 611
被子 611
斯通 611
斯德哥尔摩 611
ta@@ 611
喧嚣 611
偿债 611
宫颈 611
亚伯 611
理睬 611
半决赛 611
求助于 611
和平统一 611
贯@@ 611
视觉@@ 611
多种形式 611
明知 611
一性 611
158 611
今年以来 611
检查组 611
终究 610
凯莉 610
漠不关心 610
维亚 610
掌权 610
鸿沟 610
ip 610
大餐 610
皮毛 610
放牧 610
疲弱 610
西班牙人 610
电脑系统 610
招聘@@ 610
油井 610
酚@@ 610
北非 610
该地 610
脂肪@@ 610
高炉 610
多位 610
接连 610
煤炭@@ 610
合同法 610
公平竞争 610
Merrill 610
射流 609
收容所 609
悉@@ 609
修斯 609
埃里克 609
兜@@ 609
公证 609
by 609
资质 609
芙 609
机率 609
护卫 609
呵呵 609
醒来时 609
脸庞 609
城门 609
35@@ 609
39@@ 609
庄重 608
枪击 608
猖獗 608
受试者 608
伯南克 608
希刺克 608
被盗 608
珠宝@@ 608
毛毯 608
巴特 608
嗜好 608
剧中 608
龟 608
穿著 608
甘油 608
勒索 608
甩@@ 608
迅@@ 608
曰 608
杏@@ 608
欧亚 608
呐 608
ol 608
调查表 608
十二日 608
人子 608
贡 607
伤病 607
赋 607
洗礼 607
语用 607
压电 607
颠@@ 607
文件系统 607
大肆 607
活在 607
意见书 607
睡不着 607
沉船 607
开发新 607
自尊心 607
牙刷 607
补充@@ 607
树种 607
当着 607
弃置 607
赶来 607
施瓦@@ 607
蝶@@ 607
出局 607
问卷调查 607
畜牧业 607
扎克 607
王位 607
白昼 607
企业界 606
850 606
豌豆 606
见证人 606
悔@@ 606
掘 606
抑制剂 606
重创 606
迟迟 606
车手 606
并不@@ 606
摄像头 606
会用 606
这些年来 606
深知 606
发出@@ 606
畅通 606
威廉姆斯 606
短路 606
遮蔽 606
偏僻 606
造纸 606
阳光@@ 606
中共 606
写明 606
必要措施 606
即期 606
214 606
第五十三条 606
教育网 606
寄生 605
坚持下去 605
留着 605
加速度 605
且@@ 605
分词 605
恩惠 605
两国之间 605
断绝 605
中国移动 605
岳 605
下场 605
物力 605
op 605
保安@@ 605
歌颂 605
贬@@ 605
尼龙 605
反演 605
平静下来 605
赔偿@@ 605
高层次 605
国务委员 605
公司法 605
利坚 605
点缀 604
蛙 604
比作 604
疗@@ 604
控制技术 604
深思 604
探寻 604
海藻 604
奥利弗 604
受到@@ 604
镇痛 604
常说 604
比赛@@ 604
演奏@@ 604
讲故事 604
重担 604
蔚@@ 604
噜 604
水土保持 604
流器 604
厄运 604
ear@@ 604
以上学历 604
吨@@ 604
考查 604
熟人 604
教士 604
睁 604
专科 604
213 604
二零零二年 604
用功 604
果酱 603
数位 603
痴迷 603
村落 603
驳斥 603
不道德 603
攻击性 603
家门 603
勾 603
说成 603
Nor@@ 603
识字 603
英汉 603
都市@@ 603
免征 603
诸位 603
155 603
经贸关系 603
我心 602
统计分析 602
优先级 602
不良@@ 602
右翼 602
迹@@ 602
伯利兹 602
拐杖 602
Per@@ 602
相对论 602
就餐 602
耐克 602
设区 602
孩儿 602
背离 602
软件产品 602
GIS 602
价值@@ 602
为限 602
专营 602
第一期 602
Ｗ 602
大有@@ 601
闷@@ 601
AA@@ 601
筹 601
西瓜 601
啼@@ 601
条理 601
窟 601
棕@@ 601
长成 601
愧@@ 601
预想 601
禁不住 601
鼹鼠 601
实实 601
海湾@@ 601
北极@@ 601
erv@@ 601
邪 601
单向 601
算术 601
迪斯 601
ana 601
数据分析 601
2.6 601
浇 601
Sal@@ 601
车速 601
全会 601
下手 601
军事设施 601
滚筒 600
短短的 600
原子弹 600
这般 600
营养素 600
诺贝尔 600
重任 600
兜 600
全套 600
大步 600
图书@@ 600
萎@@ 600
丧气 600
创业者 600
只须 600
要害 600
宪报 600
技术改造 600
临床意义 600
深圳@@ 600
入学率 600
征询 600
利害 600
投寄 600
删去 599
嗓@@ 599
乍@@ 599
计算机辅助 599
能以 599
痴呆症 599
捷克@@ 599
北京大学 599
ank@@ 599
书面形式 599
领导层 599
荒地 599
大人物 599
咒语 599
原地 599
NO@@ 599
检定 599
放假 599
少有 599
流转 599
会堂 599
报请 599
Gr@@ 598
放手 598
跌落 598
不计 598
马匹 598
变态 598
纪律@@ 598
形体 598
选购 598
胶带 598
新英格兰 598
议长 598
雷特 598
调情 598
一具 598
CN@@ 598
无损 598
美国市场 598
Sam@@ 598
逼迫 598
影院 598
直截了当 598
保险人 598
动器 598
口水 598
雨天 598
rip@@ 598
秤 598
一般说来 598
两眼 598
货架 597
喷雾 597
不在意 597
荆棘 597
心满意足 597
连续@@ 597
橡皮 597
层层 597
账目 597
脸红 597
暴君 597
窃取 597
政界 597
拂@@ 597
低水平 597
弘扬 597
舟@@ 597
集市 597
钞 597
新工艺 597
馈@@ 597
怡@@ 597
用车 597
先天 597
出口商品 597
陆路 597
磐石 597
约合 597
克斯坦共和国 597
反面 596
嘟@@ 596
基底 596
喷涂 596
凝聚力 596
自由度 596
掺杂 596
必然@@ 596
羽 596
涡 596
衍生品 596
生平 596
不明智 596
谈一谈 596
蒸 596
星云 596
下层 596
绝不能 596
讲台 596
尾部 596
重整 596
基础性 596
分项 596
婆 596
物业管理 596
力场 596
傲 596
二千 596
载明 596
现役 596
5.2 596
马特 595
巴塞罗那 595
接见 595
等同于 595
囚禁 595
教书 595
珍藏 595
惜 595
老龄化 595
匿@@ 595
检验@@ 595
引述 595
Gu@@ 595
不经意 595
持久性 595
彗星 595
后门 595
路易 595
贵州 595
虫病 595
忆及 595
文娱 595
附图 595
昼夜 594
宏大 594
哲学@@ 594
夺目 594
最高点 594
沧@@ 594
知名度 594
去处 594
单元格 594
英国首相 594
权柄 594
不可抗力 594
硒 594
雷德 594
伤者 594
利性 594
长江@@ 594
属实 594
仓储 594
Comp@@ 594
142 594
密切联系 594
六岁 594
平庸 593
竞选活动 593
工程建设 593
测量方法 593
2015 593
餐桌上 593
切尔 593
爬行 593
保险业务 593
榨@@ 593
输掉 593
res@@ 593
难者 593
New@@ 593
电子设备 593
终端@@ 593
花边 593
乳腺 593
现金流 593
Op@@ 593
数控@@ 593
停止使用 593
铣@@ 593
救出 593
抖 593
凄凉 593
待命 593
救命 593
哥伦布 593
书架 593
保护环 593
发布@@ 593
卫生局 593
借此机会 593
新市镇 593
所受 592
鸽 592
海洋生物 592
波斯@@ 592
之王 592
素养 592
越来越@@ 592
一个半 592
特殊@@ 592
阴沉 592
履行职责 592
坠入 592
存量 592
洛夫 592
枪杀 592
定量分析 592
连接器 592
tin 592
杀掉 592
太平洋地区 592
亿人 592
审计员 592
口试 592
毕业典礼 591
蚁 591
流程图 591
波音 591
名录 591
汉斯 591
书目 591
呜@@ 591
舞蹈@@ 591
解剖学 591
假若 591
埃尔@@ 591
见见 591
千名 591
阿姆斯特丹 591
窦 591
风能 591
恕 591
喊@@ 591
与日俱增 591
买不起 591
看得出 591
神甫 591
第十届 591
供款 591
头晕 590
一盒 590
驱动程序 590
全体@@ 590
原创 590
粘性 590
RNA 590
点亮 590
爱丁堡 590
CNN 590
电影节 590
冗余 590
字面 590
流亡 590
敲响 590
驴子 590
绸@@ 590
闲聊 590
赔 590
足球@@ 590
好书 590
蓬勃 590
高密度 590
腾出 590
广大@@ 590
帐幕 590
Ne@@ 590
中国人民解放军 590
营商 590
索尔 589
假说 589
置换 589
石英 589
结合@@ 589
汽 589
无言 589
垃圾邮件 589
深思熟虑 589
正当理由 589
肆虐 589
寂 589
平整 589
德州 589
学得 589
班车 589
混杂 589
霉@@ 589
汉族 589
高产 589
修辞 589
胞@@ 589
不良影响 589
收支平衡 589
申索 589
eh 589
译员 589
届@@ 589
34@@ 589
 589
缤纷 588
无畏 588
伯恩 588
热烈欢迎 588
破解 588
画出 588
留有 588
一动 588
抑制作用 588
生殖@@ 588
沦为 588
单单 588
孙女 588
大亨 588
超级大国 588
美元汇率 588
穿衣服 588
车夫 588
手稿 588
北区 588
ED@@ 588
定点 588
神像 588
巴西@@ 588
迁往 588
直布罗陀 588
二十五日 588
泣 587
驾驭 587
园丁 587
一条@@ 587
取暖 587
大气@@ 587
摇滚乐 587
萨克 587
乞求 587
罢免 587
合营企业 587
高素质 587
PO@@ 587
影星 587
多加 587
飞跃 587
范式 587
瞎子 587
剩@@ 587
嗅@@ 587
饱满 587
敲打 587
小河 587
亚地区 587
控股公司 587
一时期 587
胸口 586
疲@@ 586
远足 586
王星 586
详述 586
磨削 586
生产成本 586
早前 586
端的 586
俯瞰 586
晶体管 586
观光@@ 586
第二位 586
刃@@ 586
形貌 586
伦敦@@ 586
道格拉斯 586
事关 586
157 586
拴 586
登入 586
二十日 586
操心 585
邻居们 585
橙@@ 585
骇@@ 585
发炎 585
碘@@ 585
波段 585
信任@@ 585
0000 585
哗@@ 585
胡同 585
无从 585
中学@@ 585
王宫 585
勇于 585
尼日尔 585
研磨 585
州政府 585
生理@@ 585
地笑 585
路由器 585
柳 585
Bern@@ 585
赫伯特 585
厥 585
感到@@ 585
公益事业 585
涅 585
教学模式 585
WSJ 585
四位 584
恭维 584
细腻 584
输电 584
疤痕 584
溺@@ 584
米亚 584
生命危险 584
实验性 584
百分之五 584
日益@@ 584
喂食 584
离弃 584
哈尔 584
心室 584
两层 584
本区 584
太平 584
礼堂 584
滋 584
讲演 584
讨论一下 584
少数@@ 583
瑞斯 583
圣徒 583
枕 583
一分钱 583
出没 583
皮鞋 583
闲置 583
没人能 583
溪流 583
由衷 583
运动场 583
打乱 583
离任 583
高得 583
无味 583
淡化 583
一株 583
避孕药 583
并肩 583
著作权人 583
渠@@ 583
新年快乐 583
为人@@ 583
320 583
四项 583
139 583
增列 583
伴奏 582
强健 582
酸酯 582
插头 582
展现出 582
腿部 582
病患 582
度假@@ 582
AR 582
宽广 582
却说 582
临时性 582
输入@@ 582
罗德@@ 582
糊口 582
劳累 582
拖车 582
闸@@ 582
油气@@ 582
劳工@@ 582
拆毁 582
签定 582
大洲 582
走遍 582
SARS 582
已达 582
寄出 582
la 582
辖 582
地要 581
飞到 581
非传统 581
暂 581
很重 581
一串 581
收买 581
引人@@ 581
oy@@ 581
脑中 581
送入 581
天桥 581
复盖 581
摇动 581
按计划 581
第四节 581
耍@@ 580
又称 580
财务报告 580
可调 580
真挚 580
内脏 580
一出 580
手柄 580
电化学 580
帖子 580
有利可图 580
腰部 580
睡得 580
取得胜利 580
关键时刻 580
资金来源 580
向东 580
讲讲 580
楼层 580
战俘 580
摩天大楼 580
河北省 580
前列腺 580
紧张@@ 580
密集型 580
西撒哈拉 580
雷诺 579
泥沙 579
精髓 579
禽鸟 579
lin@@ 579
真空@@ 579
乳酪 579
跳过 579
寿 579
驻军 579
深爱 579
而战 579
小人 579
胳@@ 579
脾 579
稻草 579
支护 579
喜庆 579
葱 579
萨摩亚 579
图像@@ 579
字段 579
排气 579
倚靠 579
繁荣@@ 579
面向对象 579
研究课题 579
底座 579
格雷@@ 579
记起 579
资源分配 579
第三天 579
谚 579
亚的斯亚贝巴 579
徵收 579
职权范围 579
就行 578
凤凰 578
岩浆 578
救护 578
su@@ 578
在历史上 578
0.7 578
饭碗 578
财务管理 578
交易者 578
战机 578
等离子 578
假发 578
繁华 578
钢丝 578
文艺复兴 578
解密 578
着实 578
失真 578
嬉戏 578
真爱 578
Ros@@ 578
抵抗力 578
里程 578
鸦片 578
皂 578
全身心 578
破烂 578
陈先生 578
被害人 578
供参考 578
奥组委 578
古城 578
会考 578
刺痛 577
双亲 577
绊 577
拒绝接受 577
新月 577
串联 577
褪色 577
虫害 577
会来 577
日程安排 577
萨斯 577
华纳 577
满足感 577
救治 577
出演 577
胜出 577
一有 577
圣母 577
传教士 577
积压 577
刘易斯 577
贪污@@ 577
移动@@ 577
卒 577
多媒体@@ 577
裹@@ 577
280 577
岂@@ 577
欧安 577
十八日 577
番@@ 576
时报 576
四围 576
推广应用 576
耗资 576
安保 576
音译 576
到手 576
机型 576
囚 576
可信度 576
抬高 576
猜疑 576
势必 576
马萨诸塞州 576
腕@@ 576
好听 576
棕榈@@ 576
175 576
升降机 576
斯说 576
主旨 576
雅加达 576
多钱 576
职工@@ 576
外向 575
斐 575
膝关节 575
断面 575
洞察力 575
走私@@ 575
蝗虫 575
栩@@ 575
驳@@ 575
第一家 575
交响@@ 575
充满信心 575
核电 575
卓有成效 575
踩@@ 575
今年年底 575
寄托 575
围栏 575
官司 575
吉祥物 575
Econom@@ 575
被保险人 575
1963 575
净值 575
you 575
律政司 575
萝卜 574
二氧化@@ 574
溶胶 574
贫民窟 574
龟@@ 574
象征性 574
前人 574
体形 574
单是 574
墨西哥湾 574
那晚 574
恐惧@@ 574
摄影机 574
得多 574
躁@@ 574
IO@@ 574
弊 574
噪@@ 574
明显提高 574
尺@@ 574
文艺@@ 574
Ra@@ 574
协商一致 574
维拉 574
绿灯 574
平方英尺 574
哨所 574
最高人民检察院 574
猴@@ 573
卵子 573
刀剑 573
147 573
传球 573
寓言 573
扶手 573
彼得@@ 573
造访 573
德意志银行 573
自杀@@ 573
立法@@ 573
墨尔本 573
街角 573
曙光 573
英特尔 573
副教授 573
咸 573
眨 573
乳制品 573
诡计 573
生前 573
市内 573
帮手 573
冰激凌 572
追问 572
Pri@@ 572
兰花 572
公车 572
褐@@ 572
拖鞋 572
徒步旅行 572
1969 572
失灵 572
联系人 572
集体所有 572
Dav@@ 572
上船 572
长远@@ 572
粉色 572
财产@@ 572
嫌疑 572
二号 572
十多年 572
风趣 572
内膜 572
合格@@ 572
逃出 572
3.6 572
西撒 572
布鲁克林 571
任性 571
二楼 571
药店 571
斥责 571
Management 571
杏仁 571
恪守 571
躲开 571
毯 571
蹂躏 571
绝妙 571
污染@@ 571
下水道 571
色彩@@ 571
飞行@@ 571
通行证 571
之苦 571
ish 571
出院 571
定单 571
乘船 571
警长 571
公路@@ 571
官兵 571
中尉 571
斯脱 571
26.@@ 571
晃@@ 570
新闻媒体 570
Sim@@ 570
伤疤 570
咕 570
笼罩着 570
没有@@ 570
抗氧化剂 570
测试方法 570
带你去 570
孵@@ 570
纸箱 570
Sha@@ 570
参选 570
效忠 570
佣人 570
社群 570
节省@@ 570
金枪鱼 570
1955 570
ide 570
人才培养 570
DC 570
专利法 570
3.4 570
代上 570
筹备会议 570
白领 569
坍塌 569
踪迹 569
里边 569
仓促 569
赞誉 569
多点 569
木乃伊 569
不成@@ 569
不得已 569
如此@@ 569
平淡 569
盖住 569
此时此刻 569
打喷嚏 569
玩游戏 569
煤气@@ 569
谣 569
顽@@ 569
方向盘 569
跨度 569
旅行@@ 569
原件 569
134 569
一九九八年 569
艺术作品 568
多彩 568
波尔@@ 568
代理@@ 568
灵巧 568
文学作品 568
起动 568
原位 568
let 568
滋养 568
刻画 568
墨西哥@@ 568
作出反应 568
兄弟@@ 568
排练 568
练习@@ 568
潜入 568
讯号 568
构筑 568
逃亡 568
围困 568
铸件 568
四面 568
筹备@@ 568
人比 568
ith@@ 568
退火 568
BR 568
路旁 568
台湾同胞 568
脉搏 568
下岗 568
第五十九 568
优习 568
信号处理 567
扫帚 567
心碎 567
化剂 567
酿@@ 567
高估 567
见于 567
184 567
半场 567
berg 567
坦率地 567
丢脸 567
技术员 567
逸@@ 567
最远 567
揣@@ 567
突如其来 567
DO@@ 567
敢肯定 567
爬山 567
小便 567
上周四 567
游人 567
变体 567
苹果树 567
我司 567
声调 567
当面 567
沙威 567
1.9 567
极性 566
鲑鱼 566
闲暇 566
股票@@ 566
心率 566
落地 566
联机 566
茫然 566
不光 566
最低点 566
经济繁荣 566
熊市 566
一天天 566
ase 566
q@@ 566
罗伯@@ 566
德克萨斯州 566
励@@ 566
燃料电池 566
媒@@ 566
贩子 566
性骚扰 566
瘫 566
接待@@ 566
印花税 566
年满 566
经济合作@@ 566
点算 566
干扰@@ 565
Hu@@ 565
复位 565
改装 565
临床@@ 565
子民 565
总统大选 565
歪 565
榜@@ 565
四名 565
甲醛 565
红军 565
大雪 565
何方 565
奥斯汀 565
推到 565
团队精神 565
交回 565
ics 565
黛安娜 565
承接 565
自立 565
偷偷地 565
基数 565
计数器 565
三只 565
基础教育 565
一英里 565
得奖 565
石油气 565
经贸@@ 565
如需 565
鼓动 564
黄蜂 564
面颊 564
饵 564
音符 564
真谛 564
睾丸 564
书桌 564
建于 564
蒙德 564
从头@@ 564
介 564
回响 564
说不@@ 564
冲出 564
钦 564
口吻 564
口罩 564
高分 564
生锈 564
暂定 564
质子 564
单项 564
多数@@ 564
折旧 564
缺氧 564
逃生 564
英语水平 564
基本概念 564
介乎 564
工业贸易 564
第五十四条 564
百分之 563
脚印 563
宇宙@@ 563
冲压 563
脱颖而出 563
手杖 563
路线图 563
母乳喂养 563
妞 563
核桃 563
世行 563
库克 563
上岸 563
炉火 563
全息 563
天文学 563
贝基 563
暴力行为 563
填区 563
不值 562
扳@@ 562
爸爸妈妈 562
活性剂 562
XP 562
紧密联系 562
实习生 562
集中营 562
房顶 562
琢磨 562
伤势 562
专家@@ 562
这太 562
第一轮 562
篝火 562
哲 562
搞好 562
清早 562
斯汀 562
乡镇 562
橡木 562
营区 562
俄罗斯@@ 562
搞笑 561
其为 561
促进作用 561
预测@@ 561
零星 561
马尼拉 561
事事 561
创造@@ 561
先令 561
拿下 561
三方 561
修养 561
歌迷 561
皇马 561
澳元 561
科斯 561
概览 561
龄@@ 561
重生 561
无阻 561
242 561
圆柱@@ 561
炮火 561
其所 561
排污 561
发展权 561
投机@@ 560
帕克 560
乎乎 560
SQL 560
病态 560
舞者 560
掏@@ 560
电影明星 560
诱因 560
卖家 560
二手@@ 560
有所增加 560
卢森堡 560
处女@@ 560
敬拜 560
财务报表 560
热水器 560
视听 560
驻留 560
减产 560
籽@@ 560
登山@@ 560
大气污染 560
工作日内 560
时数 560
均等 560
服刑 560
ade 560
二十一日 560
九十年代 560
沼泽地 559
置身于 559
水肿 559
蒸气 559
逆向 559
临床表现 559
死因 559
马戏团 559
托斯 559
钟情 559
适应@@ 559
指示@@ 559
粗略 559
报销 559
悔恨 559
复印机 559
亲王 559
胃癌 559
肥皂@@ 559
选举@@ 559
受限制 559
几百年 559
展会 559
行政区 559
惋惜 559
产科 559
心上 559
罗切斯特 559
尼古拉斯 559
las 559
de@@ 559
俄罗斯联邦 559
奥林匹克运动 559
会想 558
美容@@ 558
棵树 558
主题@@ 558
葱@@ 558
花纹 558
湖边 558
蔬@@ 558
火热 558
仿效 558
榜首 558
非常适合 558
邀请@@ 558
开庭 558
宅@@ 558
水电站 558
美满 558
吧@@ 558
1959 558
火药 557
牡蛎 557
不同之处 557
盎@@ 557
遇到困难 557
病害 557
广东@@ 557
胡椒 557
拔出 557
货运@@ 557
不离 557
过关 557
言行 557
联结 557
窗体 557
何在 557
白兰地 557
埃尔 557
醒目 557
古埃及 557
防务 557
溜走 557
经文 557
三角@@ 557
人种 557
东方@@ 557
篇幅 557
财务会计 557
精制 557
家畜 557
同感 557
纯属 557
开户 557
加州大学 557
没来 557
开发银行 557
一小@@ 556
甲醇 556
黄酮 556
头寸 556
出事 556
门铃 556
电力公司 556
酱@@ 556
消沉 556
港湾 556
制片人 556
开垦 556
枯 556
贩@@ 556
岗@@ 556
业务范围 556
体化 556
厅@@ 556
一无所有 556
诉讼@@ 556
没人会 555
观察者 555
久远 555
矛@@ 555
惧 555
五大 555
吉斯 555
嗅 555
蕴含 555
今夜 555
长出 555
水灾 555
绿洲 555
un 555
禁烟 555
私立 555
停业 555
收受 555
八点 555
明文 555
酒后 555
十八岁 555
头脑@@ 555
湾@@ 555
高音 554
痛快 554
财政赤字 554
培养@@ 554
社会关系 554
大能 554
系统分析 554
有机物 554
肿块 554
两场 554
其事 554
师父 554
ISO 554
服务公司 554
往年 554
她家 554
深情 554
北极熊 554
芬奇 554
就职@@ 554
领先地位 554
蹲@@ 554
筋疲力尽 554
外婆 554
酬@@ 554
屋内 554
趾@@ 554
聚乙烯 554
Adobe@@ 554
绳之以法 554
颊 554
梭 554
IX 554
会议@@ 554
如期 554
8.5 554
公有制 554
院士 554
高高@@ 553
砷 553
滑板 553
时日 553
更衣室 553
HTML 553
九点 553
预算案 553
拖累 553
算子 553
受挫 553
对华 553
某件事 553
be@@ 553
自然人 553
枚举 553
制图 553
书包 553
骨质 553
打网球 553
心怀 553
小女儿 553
离别 553
应允 553
重度 553
居住@@ 553
144 553
152 553
并报 553
续会 553
意志力 552
MA 552
差劲 552
深呼吸 552
重振 552
恶性循环 552
失利 552
诞@@ 552
巴尔干 552
蛾 552
伯明翰 552
方块 552
烹@@ 552
道夫 552
肚 552
换上 552
资本@@ 552
本行 552
大不了 552
蹒跚 552
憔悴 552
退货 552
狭小 552
毛皮 552
锤子 552
稠 552
卡斯 552
报税 552
1966 552
矢@@ 552
化工@@ 552
高考 552
剖面 552
徒劳@@ 552
本期 552
宇宙飞船 552
扩大@@ 552
法制@@ 552
0.1 552
检举 552
优质服务 552
National 552
搞错 551
草率 551
拧@@ 551
粗俗 551
内尔 551
序列@@ 551
状态@@ 551
结肠 551
抓起 551
幼年 551
嫌犯 551
弹奏 551
洞里 551
ite 551
保有 551
比照 551
机翼 551
借助于 551
追查 551
繁琐 551
切尔诺贝利 551
LA 551
贪 551
两款 551
实际行动 551
财政预算 551
硫酸@@ 551
过快 551
专题@@ 551
绝非 551
一包 551
131 551
凿 551
要钱 551
奥斯陆 551
语篇 551
解说 551
医管局 551
填报 551
新高 551
青草 550
雷尔 550
毫 550
侦测 550
学徒 550
应答 550
食管 550
苔 550
互 550
廷@@ 550
两部 550
身份验证 550
梗 550
烟花 550
不见得 550
之美 550
同日 550
操作员 550
下垂 550
公用@@ 550
预防@@ 550
起诉书 550
本院 550
佳肴 549
中枢 549
不一 549
几百 549
渗透@@ 549
摄入量 549
药片 549
畅销书 549
式化 549
无名 549
通量 549
ker 549
赶出 549
疫@@ 549
监视器 549
分离@@ 549
银牌 549
太长 549
持枪 549
栏目 549
水利@@ 549
大湖 549
援助@@ 549
攻打 549
幸亏 549
区域合作 549
布图 549
法学院 548
湖水 548
锥 548
楔@@ 548
课上 548
维克 548
欧盟委员会 548
秘密@@ 548
特兰 548
郊外 548
辟 548
布丁 548
崇尚 548
完后 548
沿途 548
单数 548
细化 548
到家 548
第一份 548
炮击 548
喝彩 548
加盖 548
显示屏 548
肺结核 548
蟑螂 548
卸货 548
公共场合 548
这趟 548
拘束 548
问好 548
泉水 548
完全相同 548
本品 548
与其说是 548
预设 548
一发 548
华语 548
学生@@ 548
腮@@ 547
晃动 547
极佳 547
热诚 547
弱小 547
ory 547
磁铁 547
老兵 547
悬 547
便条 547
表态 547
冲向 547
开张 547
子里 547
反响 547
煞@@ 547
玩弄 547
一年级 547
杉@@ 547
内分泌 547
文艺 547
催化@@ 547
苏打 547
特此 547
该段 547
聘任 547
珠三角 547
持久和平 547
650 547
普通法 547
阳市 547
继续加强 547
徇私舞弊 547
渺小 546
弗朗@@ 546
蓄 546
账款 546
夹具 546
洁白 546
一席之地 546
承载力 546
X光 546
拨打 546
模型@@ 546
进晚餐 546
拿给 546
接手 546
停电 546
显眼 546
赔偿金 546
黯淡 546
生出 546
本事 546
慎@@ 546
录音带 546
试行 546
绽放 546
AG 546
转换器 546
涵@@ 546
每秒 546
乳酸 546
辽@@ 546
中长期 546
雅悯 546
建议书 546
突显 546
九日 546
161 546
海关总署 546
公道 545
股指 545
一整套 545
忠于 545
共创 545
下部 545
不好@@ 545
启程 545
建筑设计 545
165 545
临床试验 545
这会儿 545
布利 545
涌出 545
东西方 545
看得 545
杰森 545
主编 545
来函 545
诀窍 545
ty 545
基加利 545
修读 545
Institute 545
调拨 545
楼面 545
休会 545
人性化 544
凯伦 544
之以@@ 544
鼓起勇气 544
革命性 544
出奇 544
帆@@ 544
裙@@ 544
活得 544
伤员 544
MC 544
福布斯 544
文具 544
划线 544
休息室 544
满怀@@ 544
弹道导弹 544
流速 544
人儿 544
股东会 544
里尼 544
有的是 544
148 544
被占领土 544
财政司 544
盗贼 543
竿 543
偏偏 543
经典@@ 543
各族 543
CA 543
头皮 543
防腐剂 543
绊@@ 543
惯常 543
点点 543
Peter 543
脱下 543
渺茫 543
方程式 543
刑事法庭 543
讲课 543
东北@@ 543
腌@@ 543
一脚 543
私 543
缴税 543
停产 543
所生 543
差分 543
咄@@ 543
技术标准 543
务求 543
赤贫 543
圆圈 543
问句 543
一百二十@@ 543
信息网 543
Rev 543
易事 542
我常 542
恭 542
超时 542
保持稳定 542
水壶 542
ani 542
输血 542
梵@@ 542
难事 542
权势 542
胶水 542
阿诺德 542
A股 542
燕子 542
西班牙文 542
网点 542
立法者 542
求学 542
寒风 542
Mob@@ 542
匹马 542
日夜 542
想想看 542
合共 542
芭蕾舞 541
滨 541
漂流 541
愈加 541
盔甲 541
快照 541
古典音乐 541
最难 541
当真 541
装作 541
应用领域 541
很酷 541
大路 541
ve@@ 541
路段 541
不堪@@ 541
CP 541
烟叶 541
预兆 541
送货 541
体能 541
解码 541
腊@@ 541
关系人 541
221 541
质检 541
拟备 541
Wachovia 541
一百四十 541
编入 541
阿拉伯国家联盟 541
得当 540
精神分裂症 540
温度@@ 540
更难 540
视而不见 540
外层 540
低频 540
Bl@@ 540
肋 540
飞速 540
伽 540
拉拉 540
在经济上 540
亚特 540
烘烤 540
Research 540
贝尔@@ 540
购物@@ 540
着头 540
最合适 540
坚持@@ 540
筹集资金 540
试题 540
国库 540
十一日 540
牵 540
监测员 540
驱车 539
常见@@ 539
请别 539
意味@@ 539
普鲁@@ 539
屁@@ 539
回馈 539
渗流 539
开放性 539
怯@@ 539
失去@@ 539
想必 539
佩里 539
驶过 539
牛津大学 539
搞清楚 539
高中@@ 539
客体 539
细长 539
实惠 539
接收@@ 539
钛@@ 539
模块化 539
te@@ 539
巫婆 539
Securities 539
8226 539
iPod 539
头号 539
受训 539
由省 539
抽象@@ 538
登记手续 538
胜者 538
突发事件 538
浅析 538
境遇 538
住宅区 538
服药 538
交易商 538
新奥尔良 538
试一下 538
小巧 538
交换@@ 538
烟民 538
敬佩 538
武装@@ 538
新股 538
无理 538
少年人 538
子句 538
警卫队 538
活生生 538
爱河 538
矛 538
ations 538
厕 538
就业@@ 538
对生 538
马利亚 538
各界人士 538
军事化 538
4.1 538
156 538
the@@ 537
受审 537
泳池 537
株@@ 537
媲美 537
为数不多 537
211 537
光环 537
不妥 537
山丘 537
镜像 537
请假 537
雌激素 537
理发 537
从业@@ 537
境@@ 537
肋骨 537
奴@@ 537
田里 537
数以百计 537
拉丁 537
辅导@@ 537
铭 537
山市 537
交通部 537
管治 537
饶恕 536
哪些@@ 536
水槽 536
绒毛 536
崩 536
淋巴细胞 536
膀@@ 536
室温 536
寄居 536
洞口 536
晃 536
国力 536
乖乖 536
几百万 536
轧制 536
打了个 536
紧张局势 536
罗伊 536
杀菌 536
应变@@ 536
迫在眉睫 536
十九日 536
钟爱 535
俺 535
砂岩 535
正为 535
衣柜 535
锡安 535
社区@@ 535
现代性 535
长沙 535
冯 535
诺夫 535
苏格拉底 535
嬉@@ 535
捐 535
比不上 535
僵尸 535
稀疏 535
燃煤 535
出走 535
犯罪率 535
霸权 535
莫扎特 535
耳环 535
无非 535
敌方 535
雨季 535
电源@@ 535
仕@@ 535
成矿 535
不解 535
私人资本 535
色拉 535
杯酒 535
生产资料 535
见鬼 535
节水 535
居民身份证 535
166 535
阿布@@ 534
尼古丁 534
哪位 534
摸摸 534
详细分析 534
杜绝 534
财长 534
重重@@ 534
篡改 534
缺乏@@ 534
本金 534
甜食 534
烧掉 534
伤亡@@ 534
ata 534
纬度 534
司令 534
神灵 534
钥 534
Mich@@ 534
SS@@ 534
稠@@ 534
坠 534
采伐 534
内陆国 534
柜子 534
群星 534
舵@@ 534
前部 534
合作项目 534
移位 533
尿液 533
链条 533
滑行 533
说好 533
同步@@ 533
隶属 533
木匠 533
mar@@ 533
军事力量 533
茅斯 533
伯爵夫人 533
人脑 533
受众 533
丽丝 533
象个 533
莱德 533
钮 533
辱骂 533
射程 533
粪@@ 533
异化 533
牵连 533
圈套 533
避孕套 533
点点头 533
毛虫 533
米德 533
画作 533
好了吗 533
联合国大会 533
尿道 533
胸膛 533
配给 533
干练 533
增订 533
中华人民共和国政府 533
相提并论 532
乖@@ 532
双边@@ 532
怠 532
裸露 532
穆巴拉克 532
特拉 532
瓷砖 532
极端主义 532
充气 532
奸 532
SEC 532
社交@@ 532
本年度 532
管理学 532
公尺 532
预感 532
事前 532
DA 532
看护 532
门廊 532
萌芽 532
纹身 532
发明家 532
用意 532
权威性 532
区域@@ 532
和约 532
铲 532
在案 532
185 532
政策性 532
星巴克 532
打中 532
ma 532
垃圾桶 531
留出 531
颗粒@@ 531
风向 531
传奇@@ 531
方形 531
文法 531
斤 531
基本面 531
第一段 531
卢卡斯 531
抗击 531
不振 531
施用 531
凡人 531
缕 531
神殿 531
石灰 531
巴克莱 531
两间 531
提供援助 531
塌 530
拉链 530
配送 530
犹太教 530
铐 530
针灸 530
软组织 530
绷带 530
伊斯坦布尔 530
马力 530
基部 530
海军陆战队 530
错觉 530
行销 530
小车 530
剧情 530
得起 530
念书 530
情报局 530
内侧 530
蕊 530
名下 530
两岁 530
手艺 530
金融城 530
互连 530
断开 530
雀鸟 530
穿孔 530
下表 530
调低 530
远东 530
股票价格 530
社会活动 530
玛莉 530
胡乱 529
工匠 529
伸缩 529
实用价值 529
重症 529
伴着 529
左翼 529
威严 529
胜利者 529
芒@@ 529
警务 529
精疲力竭 529
骂@@ 529
两根 529
两手 529
高企 529
房主 529
多方 529
扫描仪 529
东道主 529
湿透 529
不懂 529
烟火 529
泰德 529
毛细管 529
不如说是 529
澳门@@ 529
课时 529
根本@@ 529
杰瑞 529
大哭 529
篷 529
山庄 529
作一 529
闯 529
幸福@@ 529
市辖区 529
时尚@@ 528
片中 528
漂白 528
弱者 528
dy 528
吴 528
发电@@ 528
不爱 528
PP 528
博得 528
明珠 528
沿线 528
阿拉伯@@ 528
魁@@ 528
募@@ 528
Web@@ 528
联邦@@ 528
短期内 528
早晚 528
手写 528
归档 528
为业 528
毙 528
英语词汇 528
吃点 528
辐照 528
契机 528
获发 528
白细胞 528
政府@@ 528
仆 528
甫 528
ste@@ 528
无不 528
吉尔@@ 528
sa@@ 528
客气话 528
同义词 527
弗雷@@ 527
恒定 527
竞标 527
大麦 527
蓄电池 527
万年 527
不断加强 527
茶壶 527
茵 527
万辆 527
据我所知 527
淤@@ 527
pl@@ 527
确保@@ 527
烤箱 527
唯物@@ 527
牛犊 527
新泽西 527
危险废物 527
VI 527
保护性 527
3D 527
ham 527
残奥会 527
输送@@ 527
邸 527
乘火车 527
般@@ 527
保险单 527
增产 527
极强 527
80@@ 527
十七日 527
222 527
琐碎 526
急躁 526
刀片 526
喷气 526
致病 526
无形资产 526
帝王 526
记录下来 526
海军@@ 526
TC 526
创造者 526
鸟巢 526
讲师 526
离奇 526
碰见 526
夸耀 526
显明 526
忆 526
联手 526
坐飞机 526
水箱 526
数学家 526
亚麻 526
压倒@@ 526
僵 526
渔护署 526
窦@@ 526
万人次 526
多米尼加共和国 526
即兴 525
滚滚 525
休闲@@ 525
伞@@ 525
tic@@ 525
眼界 525
捧@@ 525
手边 525
降级 525
笨重 525
懒散 525
懊悔 525
这么久 525
氢气 525
踱@@ 525
值钱 525
吝@@ 525
IR@@ 525
全自动 525
钝 525
蔽@@ 525
豆子 525
邮政@@ 525
270 525
儒家 525
祭坛 525
经营权 525
招来 525
真情 525
友好关系 525
入世 525
class10 525
AS 524
参考@@ 524
一拳 524
坏话 524
缝隙 524
计算机技术 524
判别 524
施肥 524
开源 524
坝@@ 524
麻布 524
快感 524
门将 524
派往 524
球星 524
讲坛 524
探针 524
撤 524
统统 524
自营 524
Po@@ 524
天主教徒 524
一盘 524
修课 524
享乐 524
投标人 524
技术水平 524
广告宣传 524
鞭 524
艾尔@@ 524
精巧 524
明确@@ 524
信息安全 524
笑脸 524
古人 524
户头 524
汇聚 524
行业协会 524
蚀@@ 523
电视广告 523
泼 523
开挖 523
埃德 523
碳酸 523
定位@@ 523
XX 523
畜 523
胺@@ 523
月经 523
USB 523
惑 523
肉眼 523
河口 523
绿叶 523
伺服 523
YouTube 523
纳斯达克 523
办公楼 523
准确@@ 523
考量 523
学着 523
战舰 523
格子 523
非常重视 523
一齐 523
花序 523
木工 523
城中 523
油轮 523
好似 523
Mot@@ 523
孚 523
内政部 523
但须 523
三峡@@ 523
托福 523
㈣ 523
侥幸 522
彬彬有礼 522
之作 522
克朗 522
超级市场 522
草场 522
偏心 522
有把握 522
搬到 522
腻 522
梵蒂冈 522
优劣 522
沉寂 522
埋伏 522
投身 522
非常容易 522
等同 522
渡轮 522
消化道 522
长存 522
祸害 522
毛里求斯 522
发牌 522
三个代表 522
好孩子 522
不胜 522
葵涌 522
肤浅 521
用词 521
沥@@ 521
锥形 521
徵 521
卡洛斯 521
鸿 521
消耗@@ 521
办事@@ 521
该机 521
布伦@@ 521
防腐 521
系列@@ 521
付账 521
书签 521
疏松 521
游击队 521
渗漏 521
肘@@ 521
三者 521
梅斯 521
获得者 521
站台 521
粗野 521
蜥蜴 521
Adobe 521
摆布 521
倒数 521
薄层 521
居住地 521
孟加拉 521
维吾尔@@ 521
科学界 521
出租人 521
uk@@ 521
友好@@ 521
跻身 521
人员@@ 521
邮政总局 521
计算机信息 521
裨益 520
吉英 520
崎@@ 520
确凿 520
气概 520
汽水 520
非常复杂 520
培养基 520
缔@@ 520
钳@@ 520
奎 520
性别@@ 520
卡恩 520
使用率 520
私立学校 520
河南 520
oo 520
记着 520
认得 520
人脸 520
午后 520
小马 520
政治化 520
族长 520
私营@@ 520
职人员 520
一晚 520
宣传教育 520
巴哈马 520
2.7 520
二十三日 520
本句 520
打击@@ 519
UV 519
梦中 519
移开 519
连忙 519
阵阵 519
东海岸 519
方差 519
空隙 519
现代主义 519
并行@@ 519
简而言之 519
扎根 519
佛罗伦萨 519
闭上眼睛 519
抛出 519
打消 519
果园 519
船队 519
贫富差距 519
消防员 519
常人 519
刑事案件 519
宣判 519
胱@@ 519
婚后 519
刨@@ 519
看管 519
詹姆士 519
乳头 519
宝库 519
MP 519
母婴 519
启蒙 519
而设 519
伦理学 519
缝合 519
数以百万计 519
鞍@@ 519
民主改革 519
Li 519
图则 519
ｂ 519
不言而喻 518
新生@@ 518
佩服 518
领到 518
减退 518
定位系统 518
酿造 518
现代人 518
不休 518
不容忽视 518
泰山 518
格林@@ 518
该名 518
事上 518
双赢 518
该党 518
40@@ 518
炙@@ 518
晚点 518
诧异 518
寻觅 518
搬走 518
工程设计 518
帕特 518
剧团 518
Holdings 518
合计 518
下个星期 518
分队 518
训练有素 517
人类文明 517
粉红 517
挠@@ 517
蕴 517
病原体 517
叛逆 517
莉娅 517
南希 517
保卫@@ 517
贝利 517
何地 517
工业区 517
得住 517
另一名 517
现场@@ 517
挣脱 517
枝条 517
相传 517
生日@@ 517
系列产品 517
ML 517
不自在 517
僧@@ 517
夜班 517
募捐 517
老太婆 517
合唱 517
无忧无虑 517
这么@@ 517
创新性 517
任务@@ 517
丢下 516
探险@@ 516
商业区 516
168 516
通用电气 516
光谱@@ 516
不具 516
风湿@@ 516
癖 516
烫@@ 516
约翰@@ 516
极有 516
ya 516
僵@@ 516
尿布 516
悍 516
个人信息 516
藏身 516
舍尔 516
时用 516
徐 516
捉住 516
潮水 516
第三代 516
洛斯 516
改用 516
婴孩 516
巡查 516
新闻出版 516
名胜@@ 516
5.1 516
二届 516
观察家 515
ome 515
CS 515
未见 515
据估计 515
观众们 515
一提 515
收购@@ 515
ike 515
羞怯 515
充沛 515
二手 515
可持续性 515
瑜珈 515
连用 515
儿时 515
人居 515
休憩 515
亚利桑那州 515
恶棍 515
冲着 515
邮资 515
交易日 515
油箱 515
BR@@ 515
Jon@@ 515
圣诞快乐 515
本网页 515
走低 515
歉 515
拨给 515
已登记 515
催促 514
汁@@ 514
流感病毒 514
媚@@ 514
FDIC 514
指挥部 514
在读 514
前排 514
今早 514
他花 514
分枝 514
金钟 514
法定@@ 514
tri@@ 514
跪下 514
储蓄存款 514
状况@@ 514
雅思 514
决算 514
相互了解 514
兔@@ 513
无缘无故 513
奴仆 513
产后 513
该病 513
消减 513
对人 513
蝶 513
装甲@@ 513
贸易协定 513
电子表格 513
蜘蛛@@ 513
萨科奇 513
质问 513
拣 513
梦里 513
簇@@ 513
科学依据 513
真有 513
同一时间 513
AL 513
第一句 513
卸下 513
主轴 513
资源配置 513
欣喜若狂 513
提琴 513
对数 513
全境 513
战事 513
老外 513
这架 513
觉察到 512
膛 512
嘈杂 512
斗篷 512
布道 512
口腔@@ 512
CB 512
投产 512
评委 512
暮@@ 512
攸关 512
eBay 512
模拟器 512
辛辛@@ 512
蓝眼睛 512
耗时 512
走高 512
秃 512
劳资@@ 512
起火 512
离合器 512
出头 512
吸气 512
大陆架 512
商标@@ 512
记名 512
历届 512
143 512
监事会 512
核酸 512
活性@@ 512
炸毁 512
中外合资 512
脱口@@ 511
容积 511
微分 511
实事求是 511
事由 511
地势 511
大船 511
英国广播公司 511
淘气 511
TA 511
财政危机 511
小猪 511
腹腔 511
催 511
年鉴 511
百分之十 511
申报表 511
ily 511
已盖销 511
精油 510
孪@@ 510
力矩 510
NA 510
悔改 510
晋 510
贴近 510
糕 510
医用 510
书架上 510
抢夺 510
剑桥大学 510
问答 510
开动 510
鄙视 510
后座 510
强暴 510
盏 510
狠@@ 510
搅拌@@ 510
丘吉尔 510
心声 510
our 510
Thom@@ 510
参考答案 510
哥们 510
生命线 510
神庙 510
身分证 510
接收器 510
十岁 510
竞购 510
课后 510
十条 510
儿科 510
Ben 510
治罪 510
桌旁 509
买些 509
文雅 509
海中 509
运行@@ 509
祈@@ 509
曝@@ 509
基准@@ 509
制造者 509
酱油 509
身体状况 509
讲道 509
玻璃纤维 509
绣@@ 509
入场@@ 509
往日 509
时间段 509
终点@@ 509
比方说 509
吻@@ 509
群众@@ 509
炽热 509
上个星期 509
羟基 509
援救 509
弯腰 509
动听 509
MRI 509
电解 509
软管 509
拧 509
机械设备 509
阿司匹林 509
出海 509
恶梦 509
业权 509
十五条 509
核不扩散 509
十六日 509
第四十七届 509
一桶 508
伤性 508
隐秘 508
偏移 508
amp 508
障碍物 508
脚跟 508
一夜之间 508
算不上 508
家里人 508
大大@@ 508
在政治上 508
令人鼓舞 508
卑微 508
阿兰 508
之争 508
新兴@@ 508
直到现在 508
不问 508
产卵 508
有线 508
姜 508
土木工程 508
进行谈判 508
阿拉伯联合酋长国 508
缎 508
移送 508
韧 508
密性 508
苍 508
查处 508
僧 508
变种 508
左转 508
Ap@@ 508
校内 508
卢比 508
山路 508
0.3 508
回覆 508
一贯主张 508
第二段 508
公安部 508
商标局 508
拓@@ 507
瞧不起 507
做工 507
种族@@ 507
限量 507
教区 507
自体 507
惭愧 507
缺水 507
不列颠 507
施展 507
央@@ 507
龙头 507
ors 507
辅助@@ 507
胆量 507
镉 507
布赖恩 507
海关人员 507
当有 507
有害物质 507
收款 507
其他@@ 507
汽车公司 507
编队 507
农民@@ 507
悦耳 507
赫尔 507
啶 507
客户@@ 507
高度评价 507
通红 507
莫大 507
杰拉德 507
型式 507
56@@ 507
中国队 507
伊拉克人 507
第九章 507
人想 506
Part@@ 506
啪 506
矗立 506
动量 506
行善 506
法子 506
探索@@ 506
南面 506
小行星 506
医护人员 506
清凉 506
谐 506
李明博 506
还清 506
提高效率 506
青铜 506
日常@@ 506
非同寻常 506
维护@@ 506
习语 506
斯州 506
介绍性 506
饮食@@ 506
盖章 506
粉尘 506
印度政府 506
透支 506
330 506
218 506
VO@@ 506
227 506
旦@@ 505
蕴藏 505
南多 505
逃犯 505
Ste@@ 505
白酒 505
归宿 505
亨特 505
棒极了 505
鱿鱼 505
小幅 505
已然 505
经济特区 505
电子游戏 505
打过 505
殖@@ 505
缆@@ 505
抓住@@ 505
嫌@@ 505
0.2 505
一两@@ 505
不良贷款 505
发生冲突 505
在校@@ 505
南京@@ 505
内需 505
皇宫 505
扎实 505
闪烁着 505
班里 505
威廉斯 505
贸易额 505
咒诅 505
任免 505
本细则 505
臣@@ 504
茉@@ 504
多得多 504
千米 504
终日 504
椅@@ 504
萨利@@ 504
狐@@ 504
外流 504
225 504
数次 504
生死@@ 504
人际 504
诺斯 504
苏醒 504
迥@@ 504
差饷 504
而至 504
鞠躬 504
旁人 504
住院@@ 504
译本 504
捐赠者 504
有余 504
但他却 504
还债 504
发送到 504
毗@@ 504
牟利 504
搜救 504
折合 504
耳光 504
人民解放军 504
补编 504
教条 503
爸妈 503
驱赶 503
雅克 503
污垢 503
动脉@@ 503
点球 503
叛徒 503
壳体 503
温格 503
拉尼 503
ect 503
嗡嗡@@ 503
奥委会 503
大酒店 503
吸纳 503
昆明 503
夜色 503
喇@@ 503
利于 503
欠佳 503
满面 503
一楼 503
控制策略 503
茧 503
连线 503
一维 503
几时 503
守法 503
之大 503
检查员 503
净利润 503
广播局 503
338 503
文科 503
球拍 502
毒液 502
焰 502
继续前进 502
花样 502
理化 502
上报 502
廉 502
性欲 502
膜炎 502
衔 502
东边 502
不如说 502
煽@@ 502
吏 502
每家 502
游乐场 502
罗马帝国 502
高峰期 502
剩余@@ 502
核计划 502
斯蒂 502
梳 502
跑车 502
AT 502
此行 502
僻 502
罗宾 502
敢@@ 502
Office 502
岔@@ 502
弹钢琴 502
Da@@ 502
询价 502
规制 502
勤勉 502
结社 502
七届 502
莫斯 502
龋 502
而上 501
孤儿院 501
曲棍球 501
马修 501
弹性@@ 501
ake 501
厦门 501
摩押 501
蛋白酶 501
精心@@ 501
贺 501
邱@@ 501
击退 501
水产 501
苔@@ 501
本意 501
触觉 501
手电筒 501
马术 501
贴士 501
性交 501
草丛 501
耐磨 501
递送 501
资格证书 501
全城 501
交易会 501
牧人 501
环境保护部 501
表演@@ 500
表演者 500
玩儿 500
酒会 500
想不出 500
摆设 500
巡逻@@ 500
舷 500
局域网 500
波导 500
德克萨斯 500
28.@@ 500
就近 500
辛普森 500
尼斯@@ 500
克利@@ 500
大都会 500
秒@@ 500
漂移 500
mail 500
教育者 500
怀旧 500
乐观主义 500
贝特 500
狡@@ 500
听器 500
超额 500
制造厂 500
新婚 500
逐一 500
潘基文 500
田径 500
交换机 500
系统工程 500
珍妮@@ 500
紧迫性 500
北面 500
香港海关 500
九届 500
敬请 499
琥@@ 499
IN 499
上要 499
淋巴 499
繁衍 499
发亮 499
调查员 499
英美 499
爱国@@ 499
熬@@ 499
道菜 499
小心谨慎 499
搞砸 499
辩证@@ 499
换来 499
可说 499
格兰特 499
一小块 499
低位 499
EN@@ 499
家时 499
呵护 499
控制措施 499
ith 499
教学法 499
占地 499
审定 499
调解@@ 499
爱过 499
五名 499
夥伴 499
Robert 499
灰心 498
一首歌 498
期货@@ 498
具体措施 498
智能手机 498
出口额 498
阴极 498
卷烟 498
下肢 498
伊莎@@ 498
消化@@ 498
痛心 498
最小化 498
茂@@ 498
墓碑 498
加拿大人 498
啤@@ 498
迟延 498
归入 498
捐给 498
得胜 498
卸载 498
退学 498
读物 498
数十 498
优先@@ 498
勾结 498
贫瘠 498
镜片 498
必然性 498
37@@ 498
六级 498
 498
不由得 497
篮球@@ 497
标识符 497
捂@@ 497
鱼儿 497
怂恿 497
兵团 497
解冻 497
顿饭 497
夺冠 497
之于 497
大帝 497
ne@@ 497
Pow@@ 497
鼻孔 497
彼此之间 497
鲍尔 497
基调 497
CP@@ 497
控制台 497
暴徒 497
消防队员 497
直率 497
特技 497
磁共振 497
巴拉 497
提拔 497
哥伦比亚大学 497
181 497
太子港 497
明显改善 497
阿拉 497
故此 497
二十八日 497
蒙罗维亚 497
NC 496
汉姆 496
通俗 496
楼去 496
同龄人 496
牲口 496
烦躁 496
警员 496
一季 496
都是 496
三星 496
远高于 496
无几 496
秘 496
斤@@ 496
cl@@ 496
轮换 496
购买者 496
Min@@ 496
现金@@ 496
戴维@@ 496
推选 496
百货公司 496
Mark@@ 496
扶养 496
149 496
接驳 496
八届 496
纵容 495
等值 495
一举 495
病毒@@ 495
神经细胞 495
入侵者 495
墨西哥城 495
升降 495
Uni@@ 495
七十@@ 495
沦@@ 495
残杀 495
前身 495
耶利米 495
前头 495
垫子 495
不是@@ 495
信使 495
核反应堆 495
大块 495
阴性 495
小型@@ 495
会计报表 495
外国投资 495
无期徒刑 495
督@@ 495
一碗 494
头巾 494
花招 494
流行性 494
钻探 494
复杂度 494
蛛@@ 494
充填 494
层级 494
费尔 494
主帅 494
窃 494
失业@@ 494
皮质@@ 494
Lin@@ 494
加斯 494
木偶 494
造出 494
斯皮@@ 494
驯鹿 494
显着 494
們 494
开水 494
骗人 494
生长发育 494
交到 494
泻 494
蠕虫 494
定型 494
教学质量 494
长跑 494
稳步@@ 494
不衰 494
著名@@ 494
Mat@@ 494
不渝 494
警署 494
生物量 494
全国人大 494
服务供应商 494
特殊教育 494
进境 494
★ 494
相见 493
情趣 493
彼 493
款机 493
对岸 493
精确度 493
多德 493
巨 493
揭发 493
来访者 493
巅峰 493
干草 493
牛群 493
思潮 493
领悟 493
艳丽 493
ght 493
玛莎 493
多见 493
福利院 493
CAD 493
可喜 493
4.4 493
本科生 493
省市 493
第五十六条 493
77@@ 493
初选 492
醋酸 492
凌 492
两极 492
选址 492
最终用户 492
毒蛇 492
替补 492
斧 492
插手 492
哈利波 492
气候@@ 492
远古 492
怠@@ 492
一盏 492
Bro@@ 492
保持一致 492
普拉 492
我想@@ 492
这出 492
全地 492
开学 492
5.3 492
数码港 492
彬格莱 491
抗病毒 491
财团 491
间歇 491
两套 491
屈 491
颅@@ 491
病床 491
拉尔 491
外墙 491
抵押品 491
体液 491
烈火 491
磨难 491
内华@@ 491
体格 491
竖 491
耶鲁大学 491
着色 491
不仅如此 491
共生 491
萨马@@ 491
适用@@ 491
诫命 491
耐药 491
热衷 491
紧密@@ 491
一元 491
陕西 491
监督机构 491
骄傲@@ 491
常务@@ 491
蜂窝 491
眼部 491
产生@@ 491
169 491
以下@@ 491
4.6 491
154 491
扭伤 490
幼苗 490
寝 490
工人阶级 490
充满@@ 490
优先股 490
姓氏 490
ry@@ 490
olog@@ 490
排水@@ 490
模糊不清 490
施舍 490
韧@@ 490
纳尔逊 490
rec@@ 490
继任者 490
严重破坏 490
那台 490
鸦@@ 490
口令 490
直达 490
郁 490
单程 490
忠心 490
自由自在 490
外包 490
拿单 490
7.1 490
语言文字 490
昨夜 489
零点 489
猿 489
囚@@ 489
输给 489
严重威胁 489
沃伦 489
居高不下 489
私家 489
计算机网络 489
峭壁 489
蹄 489
锁上 489
有条 489
勘测 489
千里 489
项目经理 489
医疗器械 489
有失 489
不良资产 489
锂 489
蜕@@ 489
为时@@ 489
计较 489
麻雀 489
上周日 489
1956 489
邀@@ 489
变频 489
通过@@ 489
点数 489
各点 489
存折 489
厉 489
ison 489
wspirit 489
狮@@ 488
因果 488
抚慰 488
装扮 488
ez 488
圣殿 488
大猩猩 488
每吨 488
自传 488
松动 488
问起 488
慰藉 488
护理@@ 488
那幅 488
商业活动 488
海马 488
杀人犯 488
社会学家 488
辛勤 488
努力提高 488
跳出 488
虚荣 488
血液循环 488
聚居 488
插值 488
扭矩 488
凯恩 488
捏造 488
地球化学 488
浮游@@ 488
真主党 488
无功 488
垮@@ 488
科技进步 488
我作 488
蓝胡子 488
我妈 488
食指 487
粘结 487
间断 487
伯纳 487
杂乱 487
EL@@ 487
殉@@ 487
ma@@ 487
刺绣 487
阿瑟 487
两三个 487
amb@@ 487
民营 487
下人 487
自主@@ 487
人员伤亡 487
鹅@@ 487
污染源 487
小城镇 487
粉刷 487
现出 487
政治性 487
活猪 487
端午节 487
总面积 487
篮球队 487
3.8 487
林前 487
 487
滔滔不绝 486
咯咯 486
舞厅 486
清爽 486
乳化 486
Her@@ 486
温度场 486
管炎 486
航程 486
希德 486
轻盈 486
任何理由 486
版面 486
憧憬 486
中去 486
崎岖 486
迅猛发展 486
146 486
发笑 486
缓冲@@ 486
买单 486
没到 486
大声@@ 486
老练 486
拉夫 486
八岁 486
光学@@ 486
福建省 486
请愿书 486
蒙特 486
腐化 486
凹 486
挨着 486
供求 486
扬声器 486
工会组织 486
面向@@ 486
总的说来 486
付帐 486
氨基 486
喋喋不休 485
守门员 485
浮出 485
顺服 485
纽 485
犀牛 485
方舟 485
生殖器 485
潜伏 485
职守 485
栖 485
斯特拉 485
萃 485
itter 485
莫测 485
疲惫不堪 485
老爷 485
原以为 485
珊@@ 485
部门@@ 485
胀@@ 485
墓穴 485
无产阶级 485
盛事 485
所爱 485
新款 485
坏处 485
扶轮 485
讨人喜欢 485
瑙@@ 485
密不可分 485
水瓶 485
心灵@@ 485
纱线 485
AF@@ 485
鹏 485
被誉为 485
货船 485
事故@@ 485
无边 484
Gl@@ 484
史前 484
布鲁克 484
体重@@ 484
衣橱 484
教职员 484
活性炭 484
纵 484
珍宝 484
举出 484
剥 484
聪@@ 484
巴特勒 484
冲破 484
真不知道 484
倚 484
气道 484
一分@@ 484
亨 484
罩@@ 484
ly@@ 484
平均数 484
就是指 484
发展史 484
不向 484
班同学 484
手提箱 484
雪人 483
同化 483
大局 483
波恩 483
贝多芬 483
碟子 483
几何@@ 483
毋庸置疑 483
自以为是 483
不凡 483
负担@@ 483
值班 483
侧重于 483
人事@@ 483
潦@@ 483
很想 483
狐 483
一时间 483
奄 483
文件名 483
翻转 483
网络化 483
摧残 483
冒险@@ 483
尽量减少 483
亚太经合组织 483
康德 483
各段 483
闯进 482
傻子 482
数码@@ 482
作假 482
和蔼可亲 482
健身@@ 482
方向@@ 482
IG@@ 482
光灯 482
绍@@ 482
生产厂家 482
API 482
酷热 482
兴办 482
邦德 482
炸死 482
目击 482
票数 482
利益冲突 482
可选 482
掀@@ 482
问过 482
过长 482
长距离 482
任一 482
ai 482
高傲 482
信守 482
批发@@ 482
鲁迅 482
教育局 482
PRST 482
酵@@ 481
光是 481
温带 481
反倒 481
管教 481
马州 481
签下 481
隆起 481
强加于 481
拥护者 481
背书 481
始终@@ 481
不免 481
首要任务 481
格式化 481
很糟 481
MO 481
osh@@ 481
控制中心 481
快速@@ 481
抬起头来 481
认清 481
大鱼 481
侦破 481
八日 481
赛昂 481
烦人 480
小声 480
拌 480
生理学 480
小腿 480
引来 480
两半 480
长袍 480
辩称 480
与生俱来 480
利安 480
罗伯茨 480
UBS 480
无线网络 480
普遍@@ 480
之事 480
水泥@@ 480
生活习惯 480
做作业 480
代表作 480
弟子 480
@ 480
遇难者 480
Susan 480
局部@@ 480
7.3 480
per 480
考评 480
新疆@@ 480
项目@@ 480
弗尔 480
巴解组织 480
Microsoft 479
燃起 479
濒临 479
正常人 479
人情 479
提前@@ 479
[...]
